<unk>	0
<s>	0
</s>	0
<PAD>	0
<UNK>	0
en	-0
▁k	-1
an	-2
in	-3
ta	-4
▁s	-5
ll	-6
▁p	-7
▁v	-8
is	-9
▁t	-10
si	-11
▁l	-12
it	-13
▁m	-14
on	-15
el	-16
et	-17
än	-18
oi	-19
at	-20
uo	-21
ah	-22
▁n	-23
tä	-24
un	-25
as	-26
al	-27
▁h	-28
lle	-29
ar	-30
ik	-31
eh	-32
ul	-33
sa	-34
ti	-35
lla	-36
ki	-37
er	-38
ut	-39
inen	-40
▁"	-41
em	-42
vi	-43
ksi	-44
▁j	-45
ol	-46
▁ku	-47
▁vi	-48
▁ka	-49
es	-50
ur	-51
▁r	-52
ka	-53
ko	-54
▁la	-55
▁a	-56
▁ko	-57
il	-58
iv	-59
ahan	-60
▁S	-61
ja	-62
▁pä	-63
▁ta	-64
▁tu	-65
äh	-66
im	-67
se	-68
isen	-69
▁on	-70
▁sa	-71
▁o	-72
tel	-73
ät	-74
ih	-75
sä	-76
▁V	-77
uk	-78
os	-79
oh	-80
▁K	-81
ot	-82
us	-83
äs	-84
llä	-85
yt	-86
ehen	-87
▁san	-88
inä	-89
▁e	-90
tu	-91
▁L	-92
▁mi	-93
oa	-94
▁su	-95
▁tuo	-96
ista	-97
▁ma	-98
itä	-99
▁va	-100
rk	-101
kä	-102
oin	-103
▁si	-104
isi	-105
esi	-106
▁ky	-107
yö	-108
▁P	-109
▁li	-110
▁kä	-111
ke	-112
▁se	-113
▁T	-114
mm	-115
ks	-116
ann	-117
asta	-118
▁so	-119
pa	-120
▁jo	-121
ähän	-122
evi	-123
va	-124
▁tul	-125
anh	-126
pi	-127
▁it	-128
▁ol	-129
▁pi	-130
emm	-131
jan	-132
pä	-133
eni	-134
."	-135
▁ki	-136
uh	-137
mahan	-138
ui	-139
▁Vä	-140
▁virk	-141
▁vanh	-142
▁ei	-143
▁pa	-144
ansa	-145
▁to	-146
▁poi	-147
pp	-148
▁ra	-149
eit	-150
▁val	-151
mö	-152
hin	-153
inämö	-154
▁Väinämö	-155
ev	-156
to	-157
▁I	-158
▁il	-159
▁y	-160
▁kan	-161
uol	-162
▁em	-163
▁ha	-164
ille	-165
▁Si	-166
man	-167
ella	-168
▁kul	-169
▁kat	-170
ma	-171
assa	-172
yn	-173
▁kar	-174
uta	-175
kan	-176
▁Poh	-177
▁kun	-178
▁var	-179
▁vanha	-180
koi	-181
enn	-182
▁is	-183
▁tuon	-184
▁Väinämöinen	-185
eli	-186
elle	-187
yv	-188
▁kaun	-189
ell	-190
▁M	-191
▁J	-192
tah	-193
tan	-194
▁pää	-195
ne	-196
▁päiv	-197
emmin	-198
▁San	-199
eä	-200
uor	-201
ten	-202
eksi	-203
um	-204
▁itse	-205
iset	-206
▁laul	-207
rv	-208
istä	-209
!"	-210
▁Lemmin	-211
▁Lemminkä	-212
aha	-213
ala	-214
teli	-215
ia	-216
atta	-217
uon	-218
▁ti	-219
▁vä	-220
ua	-221
van	-222
lm	-223
▁hi	-224
▁A	-225
kk	-226
jol	-227
▁nim	-228
▁sin	-229
▁noin	-230
oit	-231
▁vier	-232
▁E	-233
▁ve	-234
▁Pohjol	-235
▁kol	-236
ty	-237
elä	-238
iksi	-239
oiksi	-240
ästä	-241
▁liet	-242
ellä	-243
ken	-244
▁suur	-245
tahan	-246
▁nimesi	-247
teh	-248
ei	-249
televi	-250
issa	-251
▁en	-252
oja	-253
änä	-254
ani	-255
▁min	-256
▁virkki	-257
▁mu	-258
▁pu	-259
mi	-260
äntä	-261
ässä	-262
▁kaik	-263
vat	-264
▁as	-265
ihin	-266
äksi	-267
▁par	-268
oille	-269
alta	-270
▁hyv	-271
▁mer	-272
▁vas	-273
na	-274
estä	-275
▁pur	-276
▁et	-277
▁tä	-278
alla	-279
ohon	-280
▁pit	-281
isin	-282
op	-283
ikk	-284
▁nä	-285
▁neit	-286
ppo	-287
tihin	-288
▁kats	-289
▁Ilm	-290
▁juo	-291
▁N	-292
ikä	-293
essa	-294
▁Ilmar	-295
etä	-296
änsä	-297
▁kal	-298
ata	-299
ina	-300
▁ar	-301
utta	-302
▁ven	-303
▁ni	-304
▁Siitä	-305
▁sanoiksi	-306
▁Lemminkäinen	-307
alle	-308
▁luo	-309
▁virkkoi	-310
▁na	-311
▁sy	-312
oilla	-313
▁u	-314
usi	-315
▁seppo	-316
jat	-317
esta	-318
▁Sanoi	-319
▁lieto	-320
▁kas	-321
▁nuor	-322
▁laus	-323
kko	-324
sta	-325
▁ker	-326
▁pol	-327
▁poika	-328
illa	-329
?"	-330
▁kolm	-331
▁ur	-332
▁sor	-333
▁kuul	-334
jen	-335
änn	-336
▁Jo	-337
or	-338
▁koh	-339
▁kor	-340
kö	-341
▁Pohjolan	-342
inn	-343
▁le	-344
▁yl	-345
osta	-346
▁kyl	-347
että	-348
jä	-349
▁O	-350
tele	-351
ikse	-352
▁ter	-353
▁ä	-354
äni	-355
▁sil	-356
▁Ilmarinen	-357
kka	-358
kki	-359
otta	-360
usta	-361
▁tun	-362
▁oli	-363
▁ja	-364
una	-365
▁kes	-366
▁saa	-367
he	-368
▁or	-369
ip	-370
jo	-371
ist	-372
▁al	-373
kana	-374
▁pal	-375
▁kulta	-376
tö	-377
▁pah	-378
▁H	-379
mät	-380
tta	-381
essä	-382
▁lap	-383
▁ver	-384
ea	-385
hon	-386
är	-387
koa	-388
ltä	-389
ran	-390
oita	-391
mähän	-392
ku	-393
▁It	-394
▁Sa	-395
sen	-396
ien	-397
lta	-398
▁las	-399
▁sanan	-400
▁no	-401
▁per	-402
▁lu	-403
mo	-404
▁Ka	-405
llen	-406
▁Kal	-407
▁nyt	-408
▁sul	-409
ir	-410
▁Va	-411
ossa	-412
ulle	-413
▁ilman	-414
ssa	-415
tui	-416
▁kiv	-417
▁koi	-418
▁tal	-419
▁Tuon	-420
▁Tuo	-421
▁syö	-422
▁päivän	-423
yh	-424
eltä	-425
▁vesi	-426
ita	-427
▁an	-428
▁ik	-429
▁im	-430
mp	-431
▁hop	-432
▁mie	-433
▁tyt	-434
▁kuin	-435
▁emäntä	-436
▁kaunis	-437
alan	-438
▁läh	-439
▁pih	-440
osi	-441
▁eikä	-442
▁pan	-443
emahan	-444
nä	-445
ällä	-446
▁Itse	-447
▁laula	-448
oni	-449
elta	-450
▁met	-451
▁sis	-452
la	-453
ren	-454
tti	-455
ehet	-456
▁ah	-457
▁i	-458
▁kyn	-459
ele	-460
ovi	-461
llut	-462
▁re	-463
▁mat	-464
▁siitä	-465
▁toisen	-466
yä	-467
uko	-468
▁kann	-469
▁La	-470
▁lä	-471
ilta	-472
sin	-473
olle	-474
▁sur	-475
matta	-476
kea	-477
▁kaikki	-478
kse	-479
▁taiv	-480
von	-481
▁mä	-482
▁suk	-483
▁vasta	-484
ika	-485
kin	-486
ven	-487
▁jä	-488
▁vet	-489
emp	-490
hen	-491
issä	-492
onen	-493
utti	-494
▁tuh	-495
▁vir	-496
▁Vaka	-497
▁el	-498
llan	-499
osen	-500
▁kir	-501
▁kos	-502
▁saat	-503
isti	-504
▁har	-505
▁lausui	-506
mä	-507
etta	-508
illä	-509
▁enn	-510
▁pil	-511
oista	-512
▁puol	-513
▁U	-514
kah	-515
ulla	-516
▁hope	-517
ys	-518
toi	-519
▁sel	-520
men	-521
▁Vi	-522
jaksi	-523
uhun	-524
▁leh	-525
▁tuota	-526
elevi	-527
▁tuosta	-528
uli	-529
ksen	-530
▁työ	-531
▁miel	-532
▁rauta	-533
▁miehen	-534
vä	-535
toa	-536
▁ne	-537
▁mur	-538
te	-539
▁lat	-540
▁suo	-541
▁vuo	-542
asi	-543
mat	-544
▁hal	-545
▁kuo	-546
▁kut	-547
▁Ei	-548
▁he	-549
aren	-550
ineh	-551
▁tuolla	-552
uen	-553
▁sal	-554
män	-555
▁ke	-556
ättä	-557
▁mies	-558
enki	-559
▁kah	-560
▁sä	-561
ukka	-562
▁men	-563
▁ole	-564
▁syn	-565
▁niin	-566
▁te	-567
▁soit	-568
▁Man	-569
omahan	-570
iä	-571
▁hy	-572
iltä	-573
▁meren	-574
▁neiti	-575
Oi	-576
mmen	-577
oinen	-578
uv	-579
ön	-580
▁tup	-581
▁vil	-582
▁kiel	-583
▁Pohjan	-584
mme	-585
▁Se	-586
▁hä	-587
▁puh	-588
Kun	-589
asti	-590
ainen	-591
jata	-592
▁väh	-593
▁pien	-594
▁laineh	-595
ös	-596
ois	-597
▁ri	-598
oksi	-599
oilta	-600
ats	-601
ihe	-602
uan	-603
▁hel	-604
▁tur	-605
uinen	-606
ian	-607
empi	-608
Jo	-609
pu	-610
lloin	-611
▁huol	-612
▁kukk	-613
set	-614
asen	-615
▁nei	-616
kseni	-617
▁alle	-618
▁toinen	-619
▁tulevi	-620
Ei	-621
ra	-622
iin	-623
itta	-624
▁Jum	-625
▁Kaler	-626
▁ennen	-627
▁päälle	-628
ime	-629
joa	-630
uvi	-631
▁minun	-632
▁kotihin	-633
yi	-634
yttä	-635
▁käs	-636
vaksi	-637
▁kanta	-638
▁tietä	-639
vu	-640
kat	-641
uin	-642
aksi	-643
▁ajat	-644
▁Kauko	-645
▁hyvän	-646
▁Ta	-647
▁aa	-648
▁ul	-649
▁yö	-650
ikon	-651
▁elä	-652
▁jal	-653
▁vih	-654
ellen	-655
▁sinä	-656
▁vielä	-657
▁poikki	-658
yl	-659
ana	-660
ville	-661
▁vaim	-662
eheksi	-663
▁alla	-664
▁kata	-665
▁mets	-666
▁minä	-667
En	-668
ter	-669
ivan	-670
▁Luo	-671
▁korv	-672
min	-673
▁aj	-674
ahti	-675
▁jos	-676
▁kov	-677
▁rann	-678
emähän	-679
▁läksi	-680
iko	-681
keä	-682
▁lo	-683
itti	-684
▁Kun	-685
▁huo	-686
▁lin	-687
▁nen	-688
jahan	-689
▁joka	-690
▁menn	-691
▁pikk	-692
▁Sanan	-693
▁kolmann	-694
kar	-695
rvo	-696
onsa	-697
▁maa	-698
▁myö	-699
▁por	-700
▁kään	-701
▁päät	-702
▁Kalervon	-703
ess	-704
kon	-705
känä	-706
▁pir	-707
▁jout	-708
▁saan	-709
▁Kulle	-710
▁kartan	-711
▁lauloi	-712
onn	-713
▁ru	-714
unna	-715
tansa	-716
▁kaiken	-717
nyt	-718
tär	-719
ikko	-720
▁run	-721
▁tar	-722
aisen	-723
oihin	-724
oissa	-725
▁vask	-726
▁kaunih	-727
▁Kaukomi	-728
jän	-729
tar	-730
ukko	-731
▁kät	-732
▁lev	-733
▁siv	-734
▁työn	-735
▁nuori	-736
its	-737
tin	-738
▁arv	-739
▁hev	-740
▁tah	-741
mille	-742
▁karh	-743
▁pääs	-744
isehen	-745
▁valke	-746
▁Lemminkäisen	-747
met	-748
▁Hi	-749
▁ot	-750
jani	-751
▁kasv	-752
▁kuol	-753
▁niem	-754
▁Siinä	-755
▁päähän	-756
▁'	-757
mpi	-758
peh	-759
ikki	-760
olla	-761
▁kys	-762
▁aina	-763
▁selä	-764
▁tuul	-765
▁lapsi	-766
▁Tuonel	-767
▁kerran	-768
▁metsän	-769
▁katsomahan	-770
▁Väinämöisen	-771
iti	-772
viä	-773
▁po	-774
ussa	-775
▁arm	-776
massa	-777
▁kall	-778
▁kuun	-779
llensa	-780
▁tämän	-781
▁tuonne	-782
ene	-783
ket	-784
esen	-785
▁kum	-786
▁kur	-787
▁laa	-788
▁lih	-789
▁vyö	-790
masta	-791
▁istu	-792
▁tuli	-793
▁tyttö	-794
▁Kullervo	-795
ino	-796
ret	-797
▁ih	-798
▁väl	-799
▁kynn	-800
▁pitk	-801
▁sekä	-802
▁vähä	-803
▁jotta	-804
▁ollut	-805
▁suuri	-806
▁kullan	-807
li	-808
ve	-809
itse	-810
uksi	-811
urin	-812
▁iän	-813
▁käy	-814
▁tap	-815
kehen	-816
ksesi	-817
uisen	-818
▁sano	-819
▁sata	-820
▁vaiv	-821
▁kirjo	-822
▁tupahan	-823
tei	-824
▁lö	-825
▁un	-826
atto	-827
inal	-828
ksin	-829
▁keh	-830
▁ken	-831
mättä	-832
▁mieh	-833
▁voit	-834
ahutti	-835
▁päivä	-836
▁päätä	-837
▁myöten	-838
vät	-839
evan	-840
isna	-841
pasi	-842
puol	-843
▁aal	-844
▁ruo	-845
▁sen	-846
▁puna	-847
utteli	-848
▁suuren	-849
ari	-850
uit	-851
▁yh	-852
koja	-853
▁Niin	-854
▁koko	-855
▁kumm	-856
▁olla	-857
▁Kaukomieli	-858
kun	-859
san	-860
tia	-861
imen	-862
olta	-863
otti	-864
▁ann	-865
▁man	-866
tojen	-867
▁heit	-868
▁linn	-869
▁luon	-870
▁uroh	-871
▁Tuonen	-872
▁sanovi	-873
sk	-874
kem	-875
uja	-876
▁Ah	-877
▁maan	-878
▁pell	-879
▁puut	-880
▁runo	-881
▁terä	-882
▁latti	-883
▁maata	-884
▁päästä	-885
▁hu	-886
▁ut	-887
elen	-888
▁sie	-889
minen	-890
▁käyä	-891
▁kainal	-892
▁päässä	-893
elj	-894
ise	-895
var	-896
▁Ku	-897
▁ty	-898
ittä	-899
ivat	-900
tani	-901
▁kuu	-902
▁toi	-903
▁alta	-904
ikuinen	-905
▁ap	-906
▁os	-907
ahta	-908
anta	-909
▁emo	-910
▁her	-911
▁sep	-912
▁hyvä	-913
▁tuossa	-914
teleikse	-915
ij	-916
vun	-917
yör	-918
isit	-919
iten	-920
änne	-921
▁ent	-922
ukaha	-923
ännän	-924
▁olet	-925
▁paha	-926
telihe	-927
▁kuusi	-928
▁lintu	-929
▁pieni	-930
▁kankah	-931
▁miestä	-932
▁saaren	-933
▁An	-934
▁py	-935
ojen	-936
▁aja	-937
▁kap	-938
▁lie	-939
▁mar	-940
▁poh	-941
▁teh	-942
▁sulh	-943
▁veit	-944
▁minua	-945
On	-946
ap	-947
ky	-948
ona	-949
tun	-950
tyi	-951
uti	-952
ihen	-953
ivät	-954
usen	-955
ältä	-956
▁sai	-957
▁petä	-958
▁samm	-959
▁sitä	-960
▁suor	-961
▁vettä	-962
▁niemen	-963
▁-	-964
ätä	-965
▁mus	-966
▁nuo	-967
▁kunn	-968
▁käär	-969
▁seis	-970
▁kaksi	-971
▁tulen	-972
▁tultu	-973
▁valkea	-974
▁Manalan	-975
▁Silloin	-976
▁sanalla	-977
▁En	-978
▁oh	-979
aran	-980
enti	-981
kann	-982
llös	-983
ppel	-984
▁tut	-985
▁saun	-986
▁valm	-987
▁yhen	-988
isille	-989
▁kunne	-990
pin	-991
▁Ukko	-992
▁astu	-993
▁kuts	-994
▁kolme	-995
▁surma	-996
▁tänne	-997
ettihin	-998
rä	-999
▁Pä	-1000
inta	-1001
olan	-1002
▁ota	-1003
▁sim	-1004
oisen	-1005
tehen	-1006
▁Laul	-1007
▁Tapi	-1008
▁suon	-1009
▁äiti	-1010
▁Hiien	-1011
▁emoni	-1012
▁ikänä	-1013
▁neien	-1014
▁pursi	-1015
▁vaimo	-1016
▁pikkar	-1017
▁saanut	-1018
▁siellä	-1019
▁Joukaha	-1020
ehe	-1021
han	-1022
ura	-1023
vän	-1024
ytä	-1025
▁eh	-1026
etti	-1027
ettu	-1028
seni	-1029
▁pes	-1030
▁tie	-1031
kahan	-1032
▁laat	-1033
▁lait	-1034
▁oman	-1035
ahalle	-1036
etahan	-1037
▁kalli	-1038
▁kohta	-1039
▁tässä	-1040
▁ajattelevi	-1041
Mi	-1042
Oh	-1043
evä	-1044
hön	-1045
use	-1046
ikka	-1047
vien	-1048
ähti	-1049
▁jot	-1050
▁lep	-1051
annut	-1052
▁Virk	-1053
▁kaat	-1054
▁kylm	-1055
▁pyör	-1056
▁vaat	-1057
iselle	-1058
▁kuuta	-1059
▁noita	-1060
▁sinne	-1061
▁sinun	-1062
▁vieri	-1063
▁lauseh	-1064
▁neittä	-1065
▁nuoren	-1066
▁silmät	-1067
▁tulisi	-1068
po	-1069
iat	-1070
sia	-1071
äsi	-1072
ahat	-1073
evat	-1074
ynnä	-1075
▁lyö	-1076
▁tot	-1077
ellut	-1078
▁ison	-1079
▁itki	-1080
▁pään	-1081
iseksi	-1082
▁kokko	-1083
▁sanoi	-1084
▁tulle	-1085
▁tuuli	-1086
▁kantel	-1087
kas	-1088
Ohoh	-1089
▁ikk	-1090
itsem	-1091
▁Tuop	-1092
▁impi	-1093
▁itke	-1094
▁jopa	-1095
▁aivan	-1096
▁matka	-1097
▁maahan	-1098
▁pitkän	-1099
▁Jumalan	-1100
▁parempi	-1101
▁Tuonelan	-1102
arj	-1103
▁oi	-1104
Mitä	-1105
llin	-1106
uita	-1107
ukon	-1108
▁Sai	-1109
▁jäl	-1110
▁kot	-1111
▁väv	-1112
▁käsi	-1113
▁piil	-1114
▁ylen	-1115
joille	-1116
umahan	-1117
▁miehet	-1118
▁pellon	-1119
ss	-1120
mia	-1121
nen	-1122
uka	-1123
ksan	-1124
rven	-1125
▁emon	-1126
▁enkä	-1127
▁otta	-1128
▁otti	-1129
▁rinn	-1130
▁uros	-1131
ksensa	-1132
▁ikkun	-1133
▁kovin	-1134
▁laski	-1135
▁nousi	-1136
▁karjan	-1137
so	-1138
iva	-1139
kut	-1140
itsi	-1141
jasi	-1142
tuna	-1143
ytti	-1144
älle	-1145
▁Emo	-1146
▁hon	-1147
▁kon	-1148
▁lah	-1149
▁näh	-1150
kohon	-1151
köhön	-1152
lleni	-1153
▁Ahti	-1154
▁Väin	-1155
▁aall	-1156
▁hein	-1157
▁liit	-1158
▁paik	-1159
▁samp	-1160
▁tamm	-1161
▁vaka	-1162
ytteli	-1163
▁liene	-1164
▁Jumala	-1165
▁isäntä	-1166
▁juoksi	-1167
▁maille	-1168
▁tyttär	-1169
▁vähäisen	-1170
me	-1171
ivi	-1172
kot	-1173
kui	-1174
▁Kä	-1175
▁Un	-1176
ehti	-1177
elin	-1178
ivän	-1179
kevi	-1180
llat	-1181
osti	-1182
▁loh	-1183
▁pyh	-1184
▁voi	-1185
▁yhe	-1186
isten	-1187
▁Sari	-1188
▁Tuli	-1189
▁kaar	-1190
▁kaul	-1191
▁keih	-1192
▁kork	-1193
▁kuoh	-1194
▁pitä	-1195
▁uuen	-1196
▁vats	-1197
llansa	-1198
▁kulki	-1199
▁sinua	-1200
▁sisar	-1201
▁takoa	-1202
alainen	-1203
kemahan	-1204
▁Pohjolahan	-1205
öl	-1206
teä	-1207
uhi	-1208
ule	-1209
▁ly	-1210
▁het	-1211
▁rah	-1212
jalle	-1213
▁eipä	-1214
▁tark	-1215
▁tuim	-1216
itteli	-1217
▁kulla	-1218
▁liikk	-1219
▁siinä	-1220
▁tuhat	-1221
▁tästä	-1222
▁päältä	-1223
▁takoja	-1224
▁varsin	-1225
▁vasten	-1226
▁seitsem	-1227
▁poloinen	-1228
Si	-1229
eta	-1230
ite	-1231
keh	-1232
kel	-1233
uur	-1234
▁Ky	-1235
kset	-1236
▁aam	-1237
▁ait	-1238
▁han	-1239
▁hir	-1240
▁mei	-1241
▁mel	-1242
▁sar	-1243
jansa	-1244
jasta	-1245
maksi	-1246
malla	-1247
uista	-1248
▁aika	-1249
▁iski	-1250
▁neuv	-1251
▁olen	-1252
▁tahi	-1253
▁ukko	-1254
▁veen	-1255
▁verä	-1256
▁hauin	-1257
▁kasva	-1258
▁korea	-1259
▁liets	-1260
▁tulla	-1261
▁Y	-1262
▁As	-1263
▁Lo	-1264
▁On	-1265
emme	-1266
enna	-1267
evät	-1268
▁lum	-1269
vihin	-1270
▁Neit	-1271
▁Unta	-1272
▁kirv	-1273
▁muut	-1274
▁pime	-1275
▁syöä	-1276
ahalla	-1277
llista	-1278
▁Läksi	-1279
▁harti	-1280
▁huoli	-1281
▁kansa	-1282
▁keski	-1283
▁musta	-1284
▁pahan	-1285
essänsä	-1286
tamahan	-1287
▁kasvoi	-1288
▁päällä	-1289
▁sanoja	-1290
▁tuohon	-1291
▁viikon	-1292
▁kätehen	-1293
▁pihalle	-1294
▁venettä	-1295
▁lausehella	-1296
lä	-1297
Tuo	-1298
iki	-1299
jät	-1300
ker	-1301
lat	-1302
mon	-1303
tän	-1304
uis	-1305
uot	-1306
via	-1307
eltu	-1308
▁Oli	-1309
▁lan	-1310
▁sot	-1311
▁tav	-1312
▁vai	-1313
▁vit	-1314
anter	-1315
umala	-1316
ännät	-1317
▁etsi	-1318
▁hien	-1319
▁kesä	-1320
▁kyyn	-1321
▁kävi	-1322
▁liik	-1323
▁meni	-1324
▁saar	-1325
▁siiv	-1326
▁vään	-1327
▁Lapin	-1328
▁armas	-1329
▁kahen	-1330
▁piika	-1331
▁raken	-1332
▁rauan	-1333
▁Lauloi	-1334
▁Luojan	-1335
▁jottei	-1336
▁kyllin	-1337
▁miekan	-1338
▁purren	-1339
▁tuolta	-1340
▁vanhan	-1341
ittelevi	-1342
▁sinisen	-1343
peä	-1344
tol	-1345
tyn	-1346
töm	-1347
uke	-1348
▁me	-1349
isnä	-1350
▁hav	-1351
▁hur	-1352
▁kaa	-1353
▁loi	-1354
▁nur	-1355
▁tus	-1356
jassa	-1357
uille	-1358
▁hiih	-1359
▁läpi	-1360
▁mesi	-1361
▁sorm	-1362
istihe	-1363
▁mennä	-1364
▁pääsi	-1365
▁sanoa	-1366
▁noilla	-1367
▁paista	-1368
▁siihen	-1369
▁tuulen	-1370
▁urohon	-1371
▁kaunihin	-1372
ini	-1373
meh	-1374
pär	-1375
ttä	-1376
uet	-1377
uki	-1378
vet	-1379
voi	-1380
yvä	-1381
▁ahj	-1382
▁hän	-1383
▁pak	-1384
villa	-1385
▁akka	-1386
▁naur	-1387
▁siir	-1388
▁toki	-1389
▁Louhi	-1390
▁kurja	-1391
▁yheks	-1392
▁etehen	-1393
▁karhun	-1394
▁mieltä	-1395
▁raukka	-1396
▁sammon	-1397
▁veikko	-1398
▁vesille	-1399
▁Joukahainen	-1400
gas	-1401
hän	-1402
iss	-1403
▁Mi	-1404
avan	-1405
ehia	-1406
etty	-1407
iste	-1408
tana	-1409
ulta	-1410
vasi	-1411
ätti	-1412
▁aik	-1413
▁hiv	-1414
▁mun	-1415
▁sat	-1416
▁täh	-1417
▁vie	-1418
jalla	-1419
oitti	-1420
▁hauk	-1421
▁ilmo	-1422
▁iloa	-1423
▁jauh	-1424
▁juur	-1425
▁kuni	-1426
▁kuus	-1427
▁pain	-1428
▁paks	-1429
▁purj	-1430
▁suol	-1431
▁suun	-1432
etähän	-1433
▁kaonn	-1434
▁metsä	-1435
▁saapi	-1436
▁tunne	-1437
eleikse	-1438
▁Sanovi	-1439
▁Tapion	-1440
▁Väinöl	-1441
▁kanssa	-1442
▁pitkin	-1443
▁tappel	-1444
▁urohot	-1445
▁vastoa	-1446
▁aaltojen	-1447
.'	-1448
yr	-1449
jah	-1450
jas	-1451
ksa	-1452
nut	-1453
ppi	-1454
▁Et	-1455
▁No	-1456
ennä	-1457
entä	-1458
▁air	-1459
▁mor	-1460
▁noi	-1461
▁syl	-1462
▁vaa	-1463
kalla	-1464
mehen	-1465
ukset	-1466
▁keit	-1467
▁pala	-1468
▁vetä	-1469
isilla	-1470
kannen	-1471
▁Luoja	-1472
▁halki	-1473
▁isoni	-1474
▁kauno	-1475
▁maamm	-1476
▁mieli	-1477
▁saatu	-1478
▁tulta	-1479
tehesen	-1480
teleisi	-1481
▁katala	-1482
▁kosken	-1483
▁kymmen	-1484
▁lapsen	-1485
▁lapset	-1486
▁luoksi	-1487
▁mielin	-1488
▁naiset	-1489
▁tanter	-1490
▁tullut	-1491
elemahan	-1492
▁Virkkoi	-1493
▁vetehen	-1494
▁yheksän	-1495
▁vastahan	-1496
▁kultainen	-1497
▁tultuansa	-1498
Et	-1499
py	-1500
▁R	-1501
kiv	-1502
kor	-1503
oan	-1504
til	-1505
eret	-1506
▁ala	-1507
▁ikä	-1508
▁pel	-1509
▁pot	-1510
aista	-1511
tänsä	-1512
vassa	-1513
äinen	-1514
▁hamp	-1515
▁maat	-1516
▁sota	-1517
▁tieä	-1518
▁velj	-1519
▁Neiti	-1520
▁kalan	-1521
▁kiven	-1522
▁saata	-1523
▁Saaren	-1524
▁katsoi	-1525
▁maalle	-1526
▁maasta	-1527
▁naisen	-1528
▁näillä	-1529
▁pahoin	-1530
▁pilven	-1531
▁toiste	-1532
▁urosta	-1533
▁vaaran	-1534
▁vierah	-1535
▁utuisen	-1536
▁vastaeli	-1537
▁kantajani	-1538
▁pikkarainen	-1539
öy	-1540
Jos	-1541
apa	-1542
ean	-1543
ets	-1544
joi	-1545
rat	-1546
uto	-1547
▁er	-1548
▁op	-1549
ästi	-1550
▁Pan	-1551
▁kis	-1552
▁osa	-1553
▁paj	-1554
▁som	-1555
valle	-1556
▁kank	-1557
▁keng	-1558
▁laut	-1559
▁mitä	-1560
▁näki	-1561
▁omen	-1562
▁synn	-1563
▁tasa	-1564
▁vien	-1565
llinen	-1566
utella	-1567
▁aurin	-1568
▁ettei	-1569
▁hopea	-1570
▁itken	-1571
▁kaata	-1572
▁kanna	-1573
▁karja	-1574
▁kylän	-1575
▁sulho	-1576
▁synty	-1577
▁tuuit	-1578
antahan	-1579
▁olutta	-1580
▁puolen	-1581
▁purtta	-1582
▁suuhun	-1583
▁väänti	-1584
▁päivänä	-1585
▁Väinölän	-1586
▁seitsemän	-1587
▁kirjokannen	-1588
▁kolmannenki	-1589
Ku	-1590
Voi	-1591
kul	-1592
oko	-1593
ota	-1594
poa	-1595
tua	-1596
uni	-1597
yvi	-1598
ukal	-1599
▁Läh	-1600
▁ain	-1601
▁kuv	-1602
▁sov	-1603
▁syv	-1604
▁van	-1605
▁vis	-1606
Ellös	-1607
tohon	-1608
uilla	-1609
▁aset	-1610
▁auke	-1611
▁hall	-1612
▁hiil	-1613
▁kala	-1614
▁koiv	-1615
▁kuum	-1616
▁nous	-1617
▁oike	-1618
▁pane	-1619
▁rauk	-1620
▁tait	-1621
▁tung	-1622
▁vaip	-1623
▁vuor	-1624
isihin	-1625
▁koivu	-1626
▁kynny	-1627
▁laati	-1628
▁maita	-1629
▁pitkä	-1630
▁souta	-1631
▁tulet	-1632
▁tunsi	-1633
▁viime	-1634
▁juosta	-1635
▁koivun	-1636
▁näille	-1637
▁vieret	-1638
▁Kalevan	-1639
▁emännän	-1640
▁selällä	-1641
▁sotahan	-1642
▁vaskisen	-1643
▁lainehilla	-1644
ni	-1645
ver	-1646
▁Is	-1647
iker	-1648
kesi	-1649
mmas	-1650
voin	-1651
▁hie	-1652
▁nuk	-1653
▁ots	-1654
▁veh	-1655
▁ves	-1656
jalta	-1657
meksi	-1658
milla	-1659
uksen	-1660
▁Kats	-1661
▁eleä	-1662
▁kier	-1663
▁kivi	-1664
▁kuta	-1665
▁lemp	-1666
▁mait	-1667
ehesen	-1668
empasi	-1669
isella	-1670
▁kaner	-1671
▁muuta	-1672
▁pihla	-1673
▁saisi	-1674
▁vitsa	-1675
▁joutui	-1676
▁kuulun	-1677
▁linnan	-1678
▁manter	-1679
▁matkoa	-1680
▁miekka	-1681
▁teräks	-1682
▁minulle	-1683
▁selälle	-1684
▁ilmoisna	-1685
▁lainehille	-1686
Vi	-1687
vo	-1688
eti	-1689
hot	-1690
kal	-1691
kua	-1692
psi	-1693
tav	-1694
uha	-1695
uks	-1696
vas	-1697
▁pe	-1698
kais	-1699
mana	-1700
onka	-1701
▁Kys	-1702
▁sol	-1703
heksi	-1704
iksen	-1705
iseni	-1706
ointa	-1707
sille	-1708
telen	-1709
▁aino	-1710
▁ajoi	-1711
▁helm	-1712
▁ihas	-1713
▁kova	-1714
▁mikä	-1715
▁pani	-1716
▁suut	-1717
▁teki	-1718
▁tätä	-1719
elevat	-1720
inensa	-1721
▁aalto	-1722
▁jolla	-1723
▁kassa	-1724
▁kirja	-1725
▁lasta	-1726
▁luoma	-1727
▁mettä	-1728
▁mulle	-1729
▁neito	-1730
▁nosti	-1731
▁sepon	-1732
▁tutka	-1733
▁hirven	-1734
▁kotona	-1735
▁paimen	-1736
▁nenähän	-1737
▁vaatteh	-1738
▁kullaista	-1739
▁kainalossa	-1740
▁kuulemahan	-1741
An	-1742
le	-1743
lk	-1744
gat	-1745
ion	-1746
moa	-1747
öin	-1748
▁Ti	-1749
Niin	-1750
esti	-1751
itte	-1752
pata	-1753
tane	-1754
uvan	-1755
ännä	-1756
▁amm	-1757
▁epä	-1758
▁hen	-1759
▁hoi	-1760
▁not	-1761
karva	-1762
kihin	-1763
oitsi	-1764
telin	-1765
väksi	-1766
▁Päiv	-1767
▁anop	-1768
▁kato	-1769
▁läht	-1770
▁pann	-1771
▁silm	-1772
▁taat	-1773
▁tarv	-1774
ehensa	-1775
isesta	-1776
umatta	-1777
▁astui	-1778
▁korke	-1779
▁lenti	-1780
▁meiän	-1781
▁neiet	-1782
▁nosta	-1783
▁paljo	-1784
▁sampo	-1785
▁sanon	-1786
▁taita	-1787
▁valit	-1788
▁valka	-1789
▁laulan	-1790
▁pakisi	-1791
▁pienen	-1792
▁hevosen	-1793
▁merehen	-1794
▁merestä	-1795
▁miesten	-1796
▁pientar	-1797
▁silloin	-1798
▁sisähän	-1799
▁tulehen	-1800
▁tuville	-1801
av	-1802
ps	-1803
▁Ä	-1804
Läh	-1805
ara	-1806
des	-1807
imä	-1808
kih	-1809
uut	-1810
▁Pa	-1811
▁Ve	-1812
ahin	-1813
arta	-1814
aski	-1815
attu	-1816
elem	-1817
emmä	-1818
enet	-1819
ppal	-1820
▁itk	-1821
▁kuj	-1822
▁lik	-1823
▁mah	-1824
▁muo	-1825
▁pen	-1826
▁rak	-1827
▁ään	-1828
päitä	-1829
yyttä	-1830
▁Ajoi	-1831
▁ajan	-1832
▁anta	-1833
▁hypp	-1834
▁nuol	-1835
▁polv	-1836
▁väki	-1837
▁ylij	-1838
kainen	-1839
koansa	-1840
▁Kalev	-1841
▁Nousi	-1842
▁huoka	-1843
▁käsin	-1844
▁luona	-1845
▁palkk	-1846
▁salon	-1847
▁sinis	-1848
▁emonsa	-1849
▁juomin	-1850
▁kantoi	-1851
▁katosi	-1852
▁kuolle	-1853
▁kuulla	-1854
▁käessä	-1855
▁kämmen	-1856
▁miekko	-1857
▁nuoret	-1858
▁paremm	-1859
▁päätyi	-1860
▁saunan	-1861
▁terhen	-1862
▁täällä	-1863
▁vanhat	-1864
▁vanhin	-1865
▁Manalle	-1866
▁hevonen	-1867
▁kumotta	-1868
▁kylähän	-1869
▁korjahan	-1870
▁pahoilla	-1871
▁ylijumala	-1872
▁kulkemahan	-1873
ho	-1874
up	-1875
iks	-1876
omm	-1877
sat	-1878
tut	-1879
uat	-1880
ysi	-1881
▁Al	-1882
▁Ko	-1883
▁Li	-1884
▁uh	-1885
▁um	-1886
elee	-1887
enpä	-1888
iasi	-1889
ijön	-1890
oset	-1891
uran	-1892
öitä	-1893
▁Jos	-1894
▁ilo	-1895
▁jou	-1896
▁kin	-1897
▁käv	-1898
▁mal	-1899
▁pys	-1900
▁ras	-1901
▁tel	-1902
anteh	-1903
uiset	-1904
▁Jopa	-1905
▁Meni	-1906
▁Mitä	-1907
▁Otti	-1908
▁Saar	-1909
▁anna	-1910
▁etkä	-1911
▁hanh	-1912
▁huon	-1913
▁ilma	-1914
▁joua	-1915
▁kaiv	-1916
▁kylp	-1917
▁mata	-1918
▁sein	-1919
▁tien	-1920
▁ulos	-1921
▁vaik	-1922
▁varp	-1923
imahan	-1924
tanehe	-1925
▁Olipa	-1926
▁emosi	-1927
▁hyvin	-1928
▁itket	-1929
▁kotia	-1930
▁kuoli	-1931
▁laske	-1932
▁loihe	-1933
▁merta	-1934
▁miten	-1935
▁pantu	-1936
▁puuta	-1937
▁sijoa	-1938
▁teräs	-1939
▁toisi	-1940
▁tulit	-1941
▁tytär	-1942
▁verta	-1943
alaisen	-1944
▁Untamo	-1945
▁kolman	-1946
▁kolmen	-1947
▁nähnyt	-1948
▁vainen	-1949
▁vesien	-1950
uttelevi	-1951
▁armahan	-1952
▁talohon	-1953
▁tietäjä	-1954
▁tulisen	-1955
▁Sariolan	-1956
▁punaisen	-1957
▁taivahan	-1958
▁vastoavi	-1959
▁kolmannen	-1960
▁taivahalle	-1961
..	-1962
rj	-1963
jon	-1964
lan	-1965
miä	-1966
pen	-1967
pit	-1968
ppa	-1969
ssä	-1970
uos	-1971
▁Nä	-1972
▁Tu	-1973
inne	-1974
ioin	-1975
kasi	-1976
unen	-1977
vana	-1978
vata	-1979
▁Ann	-1980
▁Suo	-1981
▁Vip	-1982
▁jän	-1983
▁kam	-1984
▁kel	-1985
▁kyt	-1986
▁pun	-1987
▁rup	-1988
▁tyh	-1989
isiko	-1990
istan	-1991
kaisi	-1992
telet	-1993
valla	-1994
▁Kyll	-1995
▁Vaan	-1996
▁kerr	-1997
▁koti	-1998
▁kuor	-1999
▁kuuh	-2000
▁moko	-2001
▁onpi	-2002
▁pian	-2003
▁puun	-2004
▁päin	-2005
▁reki	-2006
▁susi	-2007
▁terv	-2008
▁tule	-2009
▁täyt	-2010
▁uusi	-2011
itenki	-2012
tavanh	-2013
ukahan	-2014
▁keske	-2015
▁konti	-2016
▁kättä	-2017
▁luonn	-2018
▁morsi	-2019
▁mättä	-2020
▁ranta	-2021
▁rukka	-2022
▁tytti	-2023
▁vaski	-2024
▁venon	-2025
▁vilja	-2026
▁vävyn	-2027
▁yleni	-2028
▁heitti	-2029
▁joukon	-2030
▁käänti	-2031
▁mailla	-2032
▁soitti	-2033
▁taivos	-2034
▁työnti	-2035
▁valvat	-2036
▁varren	-2037
▁Ilmarin	-2038
▁keralla	-2039
▁käärmeh	-2040
▁rekehen	-2041
▁talossa	-2042
▁tulinen	-2043
▁venehen	-2044
eltavaksi	-2045
▁Kalevalan	-2046
▁valtavanh	-2047
▁Pohjolasta	-2048
▁kaunihisti	-2049
!'	-2050
Sa	-2051
Elä	-2052
eri	-2053
imo	-2054
kit	-2055
kos	-2056
per	-2057
tus	-2058
yen	-2059
▁Os	-2060
Onpa	-2061
anne	-2062
avat	-2063
elet	-2064
ensä	-2065
kkas	-2066
poja	-2067
tena	-2068
täni	-2069
uhen	-2070
▁aha	-2071
▁jok	-2072
▁kär	-2073
▁lei	-2074
▁mit	-2075
▁nor	-2076
▁oma	-2077
▁pat	-2078
▁rus	-2079
▁soi	-2080
▁suu	-2081
uiksi	-2082
▁aita	-2083
▁ehto	-2084
▁impy	-2085
▁kell	-2086
▁käyn	-2087
▁olle	-2088
▁pois	-2089
▁tunn	-2090
▁tunt	-2091
▁vemp	-2092
▁vävy	-2093
essäni	-2094
ihiksi	-2095
isessa	-2096
ksensä	-2097
▁Laski	-2098
▁Siell	-2099
▁Tuopa	-2100
▁hänpä	-2101
▁kukka	-2102
▁kuuli	-2103
▁kuulu	-2104
▁kuuna	-2105
▁käski	-2106
▁oluen	-2107
▁otava	-2108
▁poiku	-2109
▁päitä	-2110
▁pääse	-2111
▁sisko	-2112
▁souti	-2113
▁terve	-2114
▁virsi	-2115
ontahan	-2116
tehestä	-2117
▁Saarel	-2118
▁joesta	-2119
▁kannan	-2120
▁kattil	-2121
▁koiran	-2122
▁korven	-2123
▁kullat	-2124
▁kuolem	-2125
▁miehel	-2126
▁nuoris	-2127
▁petäjä	-2128
▁polven	-2129
▁päiveä	-2130
▁surman	-2131
▁suuret	-2132
▁syntyi	-2133
▁taivah	-2134
▁tuiman	-2135
▁täynnä	-2136
▁valmis	-2137
▁vatsan	-2138
▁joutsen	-2139
▁kassapä	-2140
▁tulevan	-2141
▁laulamahan	-2142
▁kolmannella	-2143
?'	-2144
om	-2145
ava	-2146
ipi	-2147
kiä	-2148
kkä	-2149
poi	-2150
tit	-2151
▁To	-2152
▁ov	-2153
Onko	-2154
ehil	-2155
ikkä	-2156
istu	-2157
kani	-2158
kean	-2159
toin	-2160
ueni	-2161
ukki	-2162
ulho	-2163
ulin	-2164
utto	-2165
äsen	-2166
▁ano	-2167
▁eip	-2168
▁eli	-2169
▁put	-2170
▁sav	-2171
▁til	-2172
▁väs	-2173
▁yön	-2174
attar	-2175
imman	-2176
innan	-2177
istoi	-2178
jille	-2179
kämme	-2180
llani	-2181
silla	-2182
telit	-2183
vasta	-2184
▁kahe	-2185
▁kauh	-2186
▁kiit	-2187
▁liuk	-2188
▁luik	-2189
▁lähe	-2190
▁muun	-2191
▁olut	-2192
▁piik	-2193
▁sala	-2194
▁savu	-2195
▁suin	-2196
▁veno	-2197
eleisi	-2198
isiksi	-2199
jaista	-2200
ttihin	-2201
▁aikoa	-2202
▁hauki	-2203
▁immen	-2204
▁karhu	-2205
▁kyllä	-2206
▁kynsi	-2207
▁kypär	-2208
▁käänn	-2209
▁lauta	-2210
▁maion	-2211
▁millä	-2212
▁muina	-2213
▁muita	-2214
▁nouse	-2215
▁poian	-2216
▁pojan	-2217
▁pojat	-2218
▁polvi	-2219
▁simoa	-2220
▁sulle	-2221
▁syltä	-2222
▁tunge	-2223
▁vähän	-2224
▁Sariol	-2225
▁Siellä	-2226
▁kangas	-2227
▁kourin	-2228
▁poltti	-2229
▁päivät	-2230
▁täältä	-2231
▁varsan	-2232
▁verevä	-2233
▁isännän	-2234
▁kaheksi	-2235
▁kivestä	-2236
▁kuollut	-2237
▁pajahan	-2238
▁venonen	-2239
▁vesillä	-2240
▁kirjokan	-2241
▁pihoille	-2242
▁päätänsä	-2243
▁vitsalla	-2244
▁kartanolle	-2245
▁kolmantena	-2246
▁kuolleheksi	-2247
▁sanelemahan	-2248
▁Lemminkäistä	-2249
Se	-2250
ety	-2251
ima	-2252
kia	-2253
mit	-2254
oma	-2255
stä	-2256
tal	-2257
Anna	-2258
kkoa	-2259
ottu	-2260
sken	-2261
tavi	-2262
toja	-2263
uien	-2264
uisi	-2265
▁Käy	-2266
▁Syö	-2267
▁Vir	-2268
▁aiv	-2269
▁ilm	-2270
▁iso	-2271
▁kyy	-2272
▁lää	-2273
▁olu	-2274
▁puu	-2275
▁rik	-2276
▁sop	-2277
▁syä	-2278
▁use	-2279
▁vii	-2280
emmen	-2281
jäksi	-2282
milta	-2283
sella	-2284
▁Sano	-2285
▁Veti	-2286
▁alen	-2287
▁asua	-2288
▁asun	-2289
▁hätä	-2290
▁ilon	-2291
▁juon	-2292
▁kosi	-2293
▁kouk	-2294
▁kour	-2295
▁leve	-2296
▁sepä	-2297
▁sork	-2298
▁vaan	-2299
▁vaap	-2300
▁vaar	-2301
▁vene	-2302
▁veti	-2303
▁viel	-2304
▁vieä	-2305
▁yksi	-2306
▁yötä	-2307
ahtavi	-2308
empani	-2309
uttele	-2310
vieret	-2311
ähytti	-2312
▁Kavon	-2313
▁Sillä	-2314
▁antoi	-2315
▁ensin	-2316
▁hyvät	-2317
▁juoks	-2318
▁kiinn	-2319
▁kukku	-2320
▁menet	-2321
▁murti	-2322
▁pisti	-2323
▁poiki	-2324
▁puhki	-2325
▁selvä	-2326
▁sorea	-2327
▁suuta	-2328
▁tiesi	-2329
▁varsa	-2330
▁yksin	-2331
alaiset	-2332
iseikse	-2333
▁heinän	-2334
▁kesänä	-2335
▁kirves	-2336
▁kuusen	-2337
▁laivan	-2338
▁lasten	-2339
▁liepeh	-2340
▁luoteh	-2341
▁nuotan	-2342
▁puinen	-2343
▁rannat	-2344
▁sillan	-2345
▁soitto	-2346
▁suussa	-2347
▁suusta	-2348
▁syönyt	-2349
▁tarkka	-2350
▁toista	-2351
▁valkam	-2352
▁mukahan	-2353
▁valkean	-2354
▁virkkua	-2355
▁arvelevi	-2356
▁tullessa	-2357
▁Tuonelahan	-2358
▁kankahalla	-2359
▁terhenisen	-2360
Ka	-2361
ha	-2362
pe	-2363
eat	-2364
lti	-2365
pal	-2366
par	-2367
yly	-2368
▁ui	-2369
Hyvä	-2370
alti	-2371
elko	-2372
ikin	-2373
isty	-2374
jätä	-2375
kkar	-2376
koin	-2377
kuin	-2378
mmin	-2379
osia	-2380
oski	-2381
otto	-2382
usti	-2383
▁Kul	-2384
▁amp	-2385
▁hyr	-2386
▁lun	-2387
▁mut	-2388
▁muu	-2389
▁opp	-2390
▁pyy	-2391
▁päi	-2392
▁tin	-2393
▁uun	-2394
▁veä	-2395
▁vär	-2396
ahuta	-2397
selle	-2398
tehia	-2399
▁Anna	-2400
▁Marj	-2401
▁Pane	-2402
▁Pani	-2403
▁hirv	-2404
▁kans	-2405
▁kera	-2406
▁koit	-2407
▁koto	-2408
▁kylä	-2409
▁laiv	-2410
▁leiv	-2411
▁oisi	-2412
▁paat	-2413
▁riis	-2414
▁soan	-2415
▁syän	-2416
▁taka	-2417
▁tako	-2418
▁tanh	-2419
▁tapp	-2420
▁tuis	-2421
▁turm	-2422
▁tänä	-2423
▁unoh	-2424
▁vaal	-2425
▁ylös	-2426
▁yönä	-2427
ahille	-2428
joilta	-2429
koihin	-2430
oillen	-2431
vantol	-2432
▁Astui	-2433
▁Vieri	-2434
▁eukko	-2435
▁heinä	-2436
▁hivus	-2437
▁jalka	-2438
▁kanan	-2439
▁keihä	-2440
▁kohti	-2441
▁liiat	-2442
▁pahat	-2443
▁paina	-2444
▁paken	-2445
▁puhas	-2446
▁sillä	-2447
▁talon	-2448
▁tällä	-2449
▁uutta	-2450
▁veneh	-2451
▁voita	-2452
▁voiti	-2453
▁äänen	-2454
telivat	-2455
yämähän	-2456
▁Tuossa	-2457
▁hopeat	-2458
▁juokse	-2459
▁kansan	-2460
▁kasvan	-2461
▁kasvat	-2462
▁kautta	-2463
▁kielen	-2464
▁kukkui	-2465
▁kyynel	-2466
▁leivän	-2467
▁maalla	-2468
▁marjan	-2469
▁mennyt	-2470
▁muista	-2471
▁mäelle	-2472
▁nainen	-2473
▁oronen	-2474
▁pitävi	-2475
▁puolis	-2476
▁puolta	-2477
▁saatta	-2478
▁sulhon	-2479
▁suolta	-2480
▁suulla	-2481
▁taiten	-2482
▁tuolle	-2483
▁vaimon	-2484
▁vuotta	-2485
▁ajaikse	-2486
▁kohotti	-2487
▁kypärin	-2488
▁nenässä	-2489
▁parahan	-2490
▁periltä	-2491
▁perähän	-2492
▁perästä	-2493
▁saattoi	-2494
▁sanelen	-2495
▁tuvilla	-2496
▁varaksi	-2497
ehiläinen	-2498
▁Marjatta	-2499
▁pahoille	-2500
▁pimeähän	-2501
▁poloisen	-2502
▁vakaiset	-2503
▁valkeana	-2504
▁katselevi	-2505
▁kankahalta	-2506
▁kirjokansi	-2507
▁nuorisossa	-2508
▁valmihiksi	-2509
▁veikkoseni	-2510
▁Joukahaisen	-2511
▁pikkaraisen	-2512
Kä	-2513
lö	-2514
tt	-2515
uu	-2516
all	-2517
ast	-2518
eks	-2519
ikö	-2520
lih	-2521
nan	-2522
olm	-2523
pil	-2524
atse	-2525
isop	-2526
tenä	-2527
tynä	-2528
unan	-2529
ärän	-2530
ätte	-2531
▁Arv	-2532
▁Ota	-2533
▁ani	-2534
▁iki	-2535
▁its	-2536
▁jär	-2537
▁län	-2538
▁paa	-2539
▁peh	-2540
▁pin	-2541
▁pöy	-2542
▁rev	-2543
▁sir	-2544
▁vei	-2545
▁yks	-2546
▁äit	-2547
Sulho	-2548
aiset	-2549
eheni	-2550
eutta	-2551
inoma	-2552
isevi	-2553
istin	-2554
killä	-2555
kotta	-2556
miksi	-2557
mista	-2558
mästä	-2559
oinna	-2560
sansa	-2561
tisen	-2562
▁Etsi	-2563
▁Karj	-2564
▁Näki	-2565
▁Tier	-2566
▁ensi	-2567
▁hier	-2568
▁hong	-2569
▁ilke	-2570
▁joen	-2571
▁juos	-2572
▁kieh	-2573
▁käet	-2574
▁käkö	-2575
▁lapp	-2576
▁löyh	-2577
▁näky	-2578
▁näkö	-2579
▁ohra	-2580
▁olka	-2581
▁onni	-2582
▁orja	-2583
▁peit	-2584
▁summ	-2585
▁suom	-2586
▁tiet	-2587
▁tusk	-2588
▁tyhj	-2589
▁vaah	-2590
▁vamm	-2591
▁vara	-2592
▁varr	-2593
isista	-2594
ltansa	-2595
painen	-2596
▁alkoi	-2597
▁istui	-2598
▁jalan	-2599
▁kalle	-2600
▁kauan	-2601
▁kivet	-2602
▁kohot	-2603
▁kokon	-2604
▁kulle	-2605
▁kuuen	-2606
▁laait	-2607
▁liina	-2608
▁orjan	-2609
▁paksu	-2610
▁panna	-2611
▁piian	-2612
▁puoli	-2613
▁pyhän	-2614
▁raata	-2615
▁selän	-2616
▁takoi	-2617
▁tieän	-2618
▁tinar	-2619
▁työnn	-2620
▁vaiko	-2621
▁vaini	-2622
▁vaino	-2623
▁varsi	-2624
▁vehnä	-2625
▁vietä	-2626
tehistä	-2627
▁Suomen	-2628
▁Viikon	-2629
▁karhut	-2630
▁kataja	-2631
▁kielti	-2632
▁kolmas	-2633
▁kuulem	-2634
▁käsken	-2635
▁mailta	-2636
▁menevi	-2637
▁noille	-2638
▁rannan	-2639
▁saatan	-2640
▁saneli	-2641
▁soiton	-2642
▁sormet	-2643
▁sormin	-2644
▁suurta	-2645
▁taatto	-2646
▁taivon	-2647
▁tammen	-2648
▁tieltä	-2649
▁työlle	-2650
▁vaelta	-2651
▁vempel	-2652
▁virran	-2653
yttelevi	-2654
▁Vipunen	-2655
▁alanteh	-2656
▁katalan	-2657
▁perille	-2658
▁rakenti	-2659
▁sisässä	-2660
▁suuttui	-2661
▁tempasi	-2662
▁veräjän	-2663
▁Kyllikki	-2664
▁neitosen	-2665
▁pitoihin	-2666
▁poikueni	-2667
▁saarella	-2668
▁tavannut	-2669
▁toisehen	-2670
▁itkemähän	-2671
▁poikoansa	-2672
▁sinisukka	-2673
▁Pohjolassa	-2674
▁kanteletta	-2675
▁korjahansa	-2676
▁kääntelevi	-2677
▁laulajaksi	-2678
▁lausutteli	-2679
No	-2680
io	-2681
ri	-2682
kol	-2683
ksä	-2684
oks	-2685
pun	-2686
reä	-2687
vik	-2688
ynn	-2689
▁rä	-2690
▁sö	-2691
▁tö	-2692
▁ym	-2693
Joko	-2694
Tule	-2695
ahia	-2696
enen	-2697
eniä	-2698
ikat	-2699
intu	-2700
inut	-2701
isia	-2702
joit	-2703
jäni	-2704
mien	-2705
tävi	-2706
ulan	-2707
vaha	-2708
yttö	-2709
▁Elä	-2710
▁Kah	-2711
▁Poi	-2712
▁ais	-2713
▁haj	-2714
▁kau	-2715
▁kyh	-2716
▁luk	-2717
▁rat	-2718
▁sik	-2719
▁sit	-2720
▁vah	-2721
▁yli	-2722
Siitä	-2723
annan	-2724
astui	-2725
emman	-2726
gasta	-2727
ikana	-2728
illen	-2729
jillä	-2730
joita	-2731
korva	-2732
kuhun	-2733
mässä	-2734
ojasi	-2735
pehen	-2736
stana	-2737
tanut	-2738
vahan	-2739
▁Tule	-2740
▁heng	-2741
▁huuh	-2742
▁itku	-2743
▁juoa	-2744
▁kalh	-2745
▁kehn	-2746
▁loit	-2747
▁luot	-2748
▁lämm	-2749
▁onko	-2750
▁oven	-2751
▁ruos	-2752
▁saal	-2753
▁samo	-2754
▁säär	-2755
▁vain	-2756
essäsi	-2757
ikolle	-2758
kselle	-2759
ottavi	-2760
toista	-2761
uttavi	-2762
▁Manan	-2763
▁Vielä	-2764
▁ahven	-2765
▁ankar	-2766
▁halja	-2767
▁ikävä	-2768
▁kahta	-2769
▁kajah	-2770
▁keksi	-2771
▁kulet	-2772
▁kysyä	-2773
▁laita	-2774
▁lakki	-2775
▁lihoa	-2776
▁luota	-2777
▁makoa	-2778
▁mansi	-2779
▁menkö	-2780
▁paasi	-2781
▁palan	-2782
▁parka	-2783
▁parta	-2784
▁rekos	-2785
▁senki	-2786
▁sukua	-2787
▁synny	-2788
▁tammi	-2789
▁tapah	-2790
▁tuopa	-2791
▁tuska	-2792
▁valeh	-2793
▁vuota	-2794
▁väkeä	-2795
▁ympär	-2796
▁äijön	-2797
empansa	-2798
ikkohon	-2799
istansa	-2800
oamahan	-2801
tanunna	-2802
teheksi	-2803
▁hopean	-2804
▁kaloja	-2805
▁kappal	-2806
▁kielin	-2807
▁kintah	-2808
▁kohosi	-2809
▁korvat	-2810
▁lähetä	-2811
▁lähteä	-2812
▁maassa	-2813
▁matala	-2814
▁muille	-2815
▁mättäh	-2816
▁olkapä	-2817
▁omille	-2818
▁peukal	-2819
▁puuhun	-2820
▁saajan	-2821
▁sammal	-2822
▁sukesi	-2823
▁sukkul	-2824
▁sukusi	-2825
▁synnyn	-2826
▁tekevi	-2827
▁tielle	-2828
▁toisin	-2829
▁vaikka	-2830
▁vastah	-2831
▁vieras	-2832
▁ylitse	-2833
▁Annikki	-2834
▁Arvelee	-2835
▁alinoma	-2836
▁ennätti	-2837
▁entisen	-2838
▁kivehen	-2839
▁lietsoi	-2840
▁liikkui	-2841
▁muistan	-2842
▁paistoi	-2843
▁palasen	-2844
▁perässä	-2845
▁selvien	-2846
▁sinulle	-2847
▁totelle	-2848
▁tuliter	-2849
▁tutkaim	-2850
▁venosen	-2851
▁kaheksan	-2852
▁rannalle	-2853
▁tuostana	-2854
▁veitikkä	-2855
▁lattialle	-2856
▁laulajata	-2857
▁morsianta	-2858
▁tuuitteli	-2859
▁kankahilla	-2860
▁lietsomahan	-2861
am	-2862
vö	-2863
gon	-2864
pan	-2865
reh	-2866
ust	-2867
vyö	-2868
yll	-2869
▁Jä	-2870
▁Ne	-2871
▁So	-2872
▁Te	-2873
▁hö	-2874
▁us	-2875
Jopa	-2876
aset	-2877
eite	-2878
ksat	-2879
onta	-2880
tien	-2881
ttin	-2882
ukan	-2883
yeni	-2884
äjän	-2885
▁Kas	-2886
▁jul	-2887
▁kil	-2888
▁kää	-2889
▁lyh	-2890
▁nel	-2891
▁ohr	-2892
▁raj	-2893
▁rip	-2894
▁ruv	-2895
▁sun	-2896
▁sut	-2897
▁uta	-2898
▁vaj	-2899
▁äär	-2900
annen	-2901
eampi	-2902
iaksi	-2903
ienet	-2904
ihoit	-2905
immat	-2906
innun	-2907
itset	-2908
joani	-2909
kamme	-2910
kansa	-2911
latti	-2912
melle	-2913
oseni	-2914
sensä	-2915
uutta	-2916
viksi	-2917
vuksi	-2918
öintä	-2919
▁Kuul	-2920
▁Mets	-2921
▁aian	-2922
▁asti	-2923
▁heil	-2924
▁heti	-2925
▁ihan	-2926
▁joki	-2927
▁kaih	-2928
▁kaot	-2929
▁kuss	-2930
▁kätö	-2931
▁käyt	-2932
▁laih	-2933
▁lamp	-2934
▁lehm	-2935
▁liin	-2936
▁lopp	-2937
▁louk	-2938
▁perä	-2939
▁pohj	-2940
▁puri	-2941
▁purs	-2942
▁seip	-2943
▁selv	-2944
▁syrj	-2945
▁talv	-2946
▁tuom	-2947
▁tupa	-2948
▁ulap	-2949
▁ulko	-2950
▁uron	-2951
▁viil	-2952
▁vuol	-2953
ehiksi	-2954
empata	-2955
kkasen	-2956
lliset	-2957
puolen	-2958
puolin	-2959
tuansa	-2960
umassa	-2961
▁Kysyi	-2962
▁aitan	-2963
▁ajeli	-2964
▁annan	-2965
▁ellös	-2966
▁eläkä	-2967
▁iällä	-2968
▁kaloa	-2969
▁kepeä	-2970
▁kohin	-2971
▁koira	-2972
▁kujer	-2973
▁kunin	-2974
▁kusta	-2975
▁kylmä	-2976
▁kyntä	-2977
▁leppä	-2978
▁luotu	-2979
▁läikk	-2980
▁marja	-2981
▁orjat	-2982
▁petäj	-2983
▁pilvi	-2984
▁poski	-2985
▁puita	-2986
▁rahan	-2987
▁rukih	-2988
▁seiso	-2989
▁silta	-2990
▁siner	-2991
▁syytä	-2992
▁syötä	-2993
▁tehty	-2994
▁tuhan	-2995
▁tunki	-2996
▁tuvan	-2997
▁ulapa	-2998
▁uuhen	-2999
▁vaiva	-3000
▁valio	-3001
▁vesiä	-3002
▁viisi	-3003
ahtaisi	-3004
emmaksi	-3005
kematta	-3006
telohon	-3007
tömäksi	-3008
äntähän	-3009
▁aallon	-3010
▁alatse	-3011
▁anopin	-3012
▁impyet	-3013
▁kaaren	-3014
▁kalkut	-3015
▁kiinni	-3016
▁kivimä	-3017
▁kuului	-3018
▁laulut	-3019
▁leivät	-3020
▁läksin	-3021
▁läksit	-3022
▁maksan	-3023
▁meiltä	-3024
▁mäellä	-3025
▁nuotta	-3026
▁näiltä	-3027
▁näkyvi	-3028
▁parran	-3029
▁pienet	-3030
▁pirtin	-3031
▁poikas	-3032
▁päänsä	-3033
▁sorean	-3034
▁sukuni	-3035
▁suolle	-3036
▁syäntä	-3037
▁tapasi	-3038
▁vaipui	-3039
▁valjah	-3040
▁vartta	-3041
▁veikon	-3042
▁veitsi	-3043
▁vierem	-3044
▁viljon	-3045
▁virren	-3046
▁vuotti	-3047
elemähän	-3048
oillensa	-3049
▁ahjonsa	-3050
▁kaunois	-3051
▁käsivar	-3052
▁merellä	-3053
▁naisten	-3054
▁nenästä	-3055
▁pihlaja	-3056
▁puuttui	-3057
▁pääsnyt	-3058
▁sivalti	-3059
▁varalle	-3060
▁välehen	-3061
attomaksi	-3062
ellaksesi	-3063
▁kuitenki	-3064
▁pihoilla	-3065
▁päivällä	-3066
▁takaisin	-3067
▁valkeata	-3068
▁vierähti	-3069
▁Ilmarisen	-3070
▁lattialta	-3071
▁ottamahan	-3072
▁kartanohon	-3073
▁luotehesen	-3074
▁manterella	-3075
▁piilemähän	-3076
▁tappelohon	-3077
▁tähyämähän	-3078
▁Saarelainen	-3079
▁käänteleikse	-3080
▁palkkalaiset	-3081
▁poikkipuolin	-3082
San	-3083
eän	-3084
isa	-3085
kyn	-3086
kys	-3087
käs	-3088
lkä	-3089
lmä	-3090
mun	-3091
rkä	-3092
uoh	-3093
uun	-3094
uvo	-3095
yös	-3096
▁Ha	-3097
▁Or	-3098
▁Yh	-3099
▁av	-3100
▁äl	-3101
Enkä	-3102
Tuon	-3103
alat	-3104
etko	-3105
hisi	-3106
innä	-3107
intä	-3108
iska	-3109
isko	-3110
iäsi	-3111
kkui	-3112
llet	-3113
oavi	-3114
ovat	-3115
puun	-3116
sesi	-3117
umal	-3118
usui	-3119
uvon	-3120
vier	-3121
ylyn	-3122
ystä	-3123
▁Mit	-3124
▁Tul	-3125
▁all	-3126
▁jää	-3127
▁kuk	-3128
▁lon	-3129
▁nos	-3130
▁pov	-3131
▁pul	-3132
▁pät	-3133
▁ris	-3134
Mistä	-3135
Nouse	-3136
anlih	-3137
antoi	-3138
eaksi	-3139
ellos	-3140
emmon	-3141
ennyt	-3142
irren	-3143
kisen	-3144
kähän	-3145
malle	-3146
mella	-3147
mistä	-3148
tuisi	-3149
ysten	-3150
äksin	-3151
▁Ajoa	-3152
▁Hyvä	-3153
▁Joko	-3154
▁Kauk	-3155
▁Kävi	-3156
▁Mist	-3157
▁appi	-3158
▁hepo	-3159
▁ilta	-3160
▁imeh	-3161
▁kaap	-3162
▁kana	-3163
▁kyyh	-3164
▁lauk	-3165
▁lyöä	-3166
▁mini	-3167
▁moni	-3168
▁neul	-3169
▁oksa	-3170
▁oksi	-3171
▁osoa	-3172
▁otso	-3173
▁piir	-3174
▁pill	-3175
▁pilv	-3176
▁piti	-3177
▁sain	-3178
▁sirk	-3179
▁suen	-3180
▁säil	-3181
▁toet	-3182
▁tuoh	-3183
▁tuop	-3184
▁tämä	-3185
▁uipi	-3186
▁vall	-3187
▁vits	-3188
▁väen	-3189
▁yhtä	-3190
▁yläh	-3191
ahteli	-3192
arempi	-3193
ehellä	-3194
ehensä	-3195
ehilla	-3196
imatta	-3197
isilta	-3198
ksella	-3199
kämmen	-3200
ssansa	-3201
▁Ellös	-3202
▁ajavi	-3203
▁eelle	-3204
▁ennät	-3205
▁ikäni	-3206
▁isosi	-3207
▁iästä	-3208
▁jousi	-3209
▁kaari	-3210
▁karva	-3211
▁katso	-3212
▁kenpä	-3213
▁kerta	-3214
▁kiviä	-3215
▁kohen	-3216
▁koske	-3217
▁kovan	-3218
▁kumma	-3219
▁kuvoa	-3220
▁kylvä	-3221
▁laiva	-3222
▁lentä	-3223
▁lonka	-3224
▁maail	-3225
▁mieka	-3226
▁miesi	-3227
▁minkä	-3228
▁neuvo	-3229
▁osasi	-3230
▁perin	-3231
▁pihti	-3232
▁piiat	-3233
▁pistä	-3234
▁pääni	-3235
▁soita	-3236
▁sorta	-3237
▁tuhma	-3238
▁tukka	-3239
▁tuopi	-3240
▁työtä	-3241
▁vierr	-3242
▁villa	-3243
kumahan	-3244
televät	-3245
tömällä	-3246
uamahan	-3247
▁Kalman	-3248
▁Lausui	-3249
▁Tuosta	-3250
▁armaha	-3251
▁avuksi	-3252
▁elossa	-3253
▁ensimä	-3254
▁hattar	-3255
▁heittä	-3256
▁heitän	-3257
▁hiihti	-3258
▁huolta	-3259
▁jousen	-3260
▁kaatoi	-3261
▁kalvan	-3262
▁kannen	-3263
▁karkel	-3264
▁kesken	-3265
▁koissa	-3266
▁kukkul	-3267
▁kysyvi	-3268
▁käkesi	-3269
▁lammin	-3270
▁lankea	-3271
▁leukal	-3272
▁luista	-3273
▁maammo	-3274
▁meillä	-3275
▁naista	-3276
▁nousta	-3277
▁näissä	-3278
▁painoi	-3279
▁patvas	-3280
▁poikoa	-3281
▁portah	-3282
▁rahkeh	-3283
▁raukan	-3284
▁salmen	-3285
▁sanoma	-3286
▁satala	-3287
▁sieltä	-3288
▁silmän	-3289
▁soitan	-3290
▁sulhot	-3291
▁takana	-3292
▁tarpeh	-3293
▁tiellä	-3294
▁työnnä	-3295
▁vaahti	-3296
▁valita	-3297
▁varret	-3298
▁verran	-3299
▁vieräh	-3300
▁virret	-3301
ittaissa	-3302
lliseksi	-3303
▁ahoilla	-3304
▁harvaha	-3305
▁hyppysi	-3306
▁ikuisen	-3307
▁kaonnut	-3308
▁kuullut	-3309
▁kylässä	-3310
▁laulaja	-3311
▁levitti	-3312
▁minulla	-3313
▁mokoman	-3314
▁pistihe	-3315
▁poikani	-3316
▁ruskean	-3317
▁sekahan	-3318
▁sianlih	-3319
▁sisälle	-3320
▁sisästä	-3321
▁viimein	-3322
▁yhtehen	-3323
ittämähän	-3324
ottamahan	-3325
▁hampahat	-3326
▁katoksen	-3327
▁kaunista	-3328
▁kesäisnä	-3329
▁kuningas	-3330
▁kymmenen	-3331
▁miekalla	-3332
▁näköinen	-3333
▁paneikse	-3334
▁rannalla	-3335
▁silmänsä	-3336
▁totellut	-3337
▁voitehia	-3338
▁astumahan	-3339
▁kainalois	-3340
▁kalliohon	-3341
▁käyäksesi	-3342
▁liiatenki	-3343
▁muutamana	-3344
▁rautaisen	-3345
▁tunnekana	-3346
▁kankahalle	-3347
▁miehelähän	-3348
▁soutamahan	-3349
▁tullessasi	-3350
▁valjahisin	-3351
▁valkeaista	-3352
▁vastahansa	-3353
▁vieremähän	-3354
▁juominkihin	-3355
▁kaonneheksi	-3356
▁kaunokainen	-3357
It	-3358
La	-3359
Va	-3360
id	-3361
pl	-3362
ry	-3363
ts	-3364
...	-3365
eva	-3366
jia	-3367
kku	-3368
kum	-3369
pus	-3370
pää	-3371
ras	-3372
sit	-3373
ton	-3374
ttu	-3375
uva	-3376
vin	-3377
äll	-3378
▁Ol	-3379
▁up	-3380
Kats	-3381
Lähe	-3382
Miel	-3383
ahut	-3384
ampi	-3385
arja	-3386
asal	-3387
auta	-3388
eitä	-3389
emma	-3390
empo	-3391
erve	-3392
etto	-3393
evar	-3394
evän	-3395
impi	-3396
inun	-3397
inän	-3398
isev	-3399
kava	-3400
keng	-3401
kona	-3402
lkäh	-3403
mani	-3404
mäsi	-3405
nelj	-3406
päiv	-3407
vaat	-3408
vesi	-3409
viid	-3410
ylle	-3411
yvin	-3412
änty	-3413
▁Pal	-3414
▁aut	-3415
▁eil	-3416
▁jyv	-3417
▁kai	-3418
▁kav	-3419
▁kim	-3420
▁lai	-3421
▁lis	-3422
▁luj	-3423
▁löy	-3424
▁rau	-3425
▁suv	-3426
▁sär	-3427
▁tuu	-3428
▁vel	-3429
ahana	-3430
ahani	-3431
ehesi	-3432
ellyt	-3433
ikkoa	-3434
kanen	-3435
kinen	-3436
kohot	-3437
mihin	-3438
mälle	-3439
mättö	-3440
oiset	-3441
otoin	-3442
seksi	-3443
vilta	-3444
▁Astu	-3445
▁Eipä	-3446
▁Kapo	-3447
▁Kolm	-3448
▁Lähe	-3449
▁Ruot	-3450
▁arma	-3451
▁haut	-3452
▁hava	-3453
▁havu	-3454
▁kape	-3455
▁keik	-3456
▁kevä	-3457
▁kiir	-3458
▁kiuk	-3459
▁koir	-3460
▁kosk	-3461
▁kuiv	-3462
▁kull	-3463
▁lain	-3464
▁lake	-3465
▁louh	-3466
▁länn	-3467
▁meri	-3468
▁miks	-3469
▁ojen	-3470
▁pais	-3471
▁pesi	-3472
▁piha	-3473
▁siit	-3474
▁tuik	-3475
▁tykö	-3476
▁valv	-3477
▁vann	-3478
▁vell	-3479
▁vesa	-3480
▁viis	-3481
astasi	-3482
ettuna	-3483
etuksi	-3484
eäkänä	-3485
iminen	-3486
istasi	-3487
iviäni	-3488
ksemme	-3489
llehen	-3490
miansa	-3491
osesta	-3492
vaisen	-3493
vallan	-3494
ytellä	-3495
▁Alkoi	-3496
▁Lenti	-3497
▁Osmon	-3498
▁Pimen	-3499
▁Sitte	-3500
▁Tiera	-3501
▁Vella	-3502
▁aitta	-3503
▁asuvi	-3504
▁eessä	-3505
▁eisty	-3506
▁epäsi	-3507
▁halko	-3508
▁henki	-3509
▁hyveä	-3510
▁illan	-3511
▁immet	-3512
▁johon	-3513
▁jonka	-3514
▁kaiva	-3515
▁kieli	-3516
▁konsa	-3517
▁koski	-3518
▁kukah	-3519
▁kumar	-3520
▁kunka	-3521
▁kylvi	-3522
▁kypen	-3523
▁laulu	-3524
▁lähen	-3525
▁mahti	-3526
▁melan	-3527
▁minne	-3528
▁missä	-3529
▁nieli	-3530
▁nimet	-3531
▁noiat	-3532
▁noien	-3533
▁nouta	-3534
▁nälkä	-3535
▁oksat	-3536
▁olisi	-3537
▁oluet	-3538
▁orren	-3539
▁panin	-3540
▁piili	-3541
▁pohja	-3542
▁purje	-3543
▁pyhät	-3544
▁rakki	-3545
▁saoin	-3546
▁seinä	-3547
▁selkä	-3548
▁senpä	-3549
▁siika	-3550
▁sivut	-3551
▁sotia	-3552
▁sotka	-3553
▁taisi	-3554
▁tehtä	-3555
▁tieto	-3556
▁tuhon	-3557
▁uunin	-3558
▁vaike	-3559
▁veist	-3560
▁Äsken	-3561
essansa	-3562
ikerran	-3563
istänsä	-3564
otellen	-3565
tehelle	-3566
tehessä	-3567
tumatta	-3568
tämättä	-3569
uruisen	-3570
▁Karjal	-3571
▁Siihen	-3572
▁ajatus	-3573
▁alemma	-3574
▁anoppi	-3575
▁arvoan	-3576
▁hampah	-3577
▁ihastu	-3578
▁impien	-3579
▁joelle	-3580
▁joilla	-3581
▁jumala	-3582
▁kaatun	-3583
▁kannon	-3584
▁karsin	-3585
▁kasken	-3586
▁katsel	-3587
▁kehreä	-3588
▁kieltä	-3589
▁kokosi	-3590
▁korjan	-3591
▁kulkea	-3592
▁kuopus	-3593
▁kuuset	-3594
▁kuvasi	-3595
▁lasket	-3596
▁lastun	-3597
▁lemmen	-3598
▁lintus	-3599
▁lumpeh	-3600
▁morsia	-3601
▁mustan	-3602
▁mustoa	-3603
▁noihin	-3604
▁otettu	-3605
▁paater	-3606
▁pitkät	-3607
▁putosi	-3608
▁päivyt	-3609
▁päästy	-3610
▁seipäh	-3611
▁selviä	-3612
▁suohon	-3613
▁suolla	-3614
▁syvien	-3615
▁taaton	-3616
▁tekijä	-3617
▁toisna	-3618
▁veistä	-3619
▁viittä	-3620
▁vyöllä	-3621
▁vääntä	-3622
▁ympäri	-3623
neljättä	-3624
viidettä	-3625
▁Kaukoni	-3626
▁Untamon	-3627
▁elköhön	-3628
▁entistä	-3629
▁hyviksi	-3630
▁ilmahan	-3631
▁jokehen	-3632
▁jälestä	-3633
▁kanaksi	-3634
▁karehti	-3635
▁katsoin	-3636
▁keskimä	-3637
▁kielell	-3638
▁kohenna	-3639
▁kullans	-3640
▁lattiat	-3641
▁leukalu	-3642
▁luonnon	-3643
▁minusta	-3644
▁petäjät	-3645
▁pitäisi	-3646
▁rakenna	-3647
▁sanomat	-3648
▁sanovat	-3649
▁tarkoin	-3650
▁tulesta	-3651
▁tytärtä	-3652
▁vesikiv	-3653
astamahan	-3654
▁auringon	-3655
▁kaikenla	-3656
▁kallella	-3657
▁keskelle	-3658
▁keskellä	-3659
▁peltojen	-3660
▁päiville	-3661
▁päiviäni	-3662
▁rannalta	-3663
▁tuhannen	-3664
▁tultuasi	-3665
▁virsikäs	-3666
▁Kysytteli	-3667
▁joutsenen	-3668
▁kalliosta	-3669
▁kauneutta	-3670
▁lattialla	-3671
▁ottaminen	-3672
▁poikaseni	-3673
▁saatanehe	-3674
▁sianlihoa	-3675
▁sisarueni	-3676
▁tinarinta	-3677
▁vaivainen	-3678
▁hartioilla	-3679
▁hyppysihin	-3680
▁keskilatti	-3681
▁mesikämmen	-3682
▁taivahinen	-3683
▁terveheksi	-3684
▁valkeaisen	-3685
▁Väinämöistä	-3686
▁harvahammas	-3687
▁kerrontahan	-3688
▁kielikerran	-3689
▁mennessänsä	-3690
▁paistamahan	-3691
▁pikkuruisen	-3692
▁saatantahan	-3693
▁kaikkivallan	-3694
▁kainaloiseksi	-3695
Ol	-3696
öt	-3697
.'"	-3698
Use	-3699
aja	-3700
hyt	-3701
kur	-3702
ope	-3703
pis	-3704
ppä	-3705
psä	-3706
pur	-3707
päs	-3708
stu	-3709
tim	-3710
ula	-3711
val	-3712
äne	-3713
▁Oi	-3714
▁in	-3715
▁iä	-3716
▁uu	-3717
▁yr	-3718
Eipä	-3719
Mets	-3720
Veli	-3721
armo	-3722
atki	-3723
ekka	-3724
elit	-3725
elty	-3726
esin	-3727
ikan	-3728
ikkö	-3729
ikoi	-3730
imme	-3731
mmär	-3732
oasi	-3733
tero	-3734
tisi	-3735
uhut	-3736
umpi	-3737
urso	-3738
utui	-3739
uvat	-3740
vani	-3741
väni	-3742
yllä	-3743
ynyt	-3744
yvän	-3745
änpä	-3746
ärin	-3747
▁Aja	-3748
▁Jäi	-3749
▁Nyt	-3750
▁ape	-3751
▁ava	-3752
▁eks	-3753
▁iku	-3754
▁len	-3755
▁leu	-3756
▁mol	-3757
▁nis	-3758
▁ong	-3759
▁onp	-3760
▁pim	-3761
▁rei	-3762
▁rem	-3763
▁rut	-3764
▁tao	-3765
▁utu	-3766
▁vik	-3767
▁yöt	-3768
Terve	-3769
allen	-3770
ikkui	-3771
inesi	-3772
innut	-3773
isien	-3774
ittoi	-3775
konut	-3776
maina	-3777
malta	-3778
motar	-3779
oitse	-3780
rasta	-3781
uotta	-3782
venta	-3783
äsvar	-3784
▁Aina	-3785
▁Eikä	-3786
▁Etkö	-3787
▁Iski	-3788
▁Samp	-3789
▁alus	-3790
▁apua	-3791
▁arva	-3792
▁haah	-3793
▁haar	-3794
▁hemp	-3795
▁kars	-3796
▁konn	-3797
▁kuka	-3798
▁käen	-3799
▁leyh	-3800
▁lieh	-3801
▁liha	-3802
▁luun	-3803
▁lyly	-3804
▁maks	-3805
▁maot	-3806
▁mato	-3807
▁mene	-3808
▁männ	-3809
▁outo	-3810
▁paju	-3811
▁poik	-3812
▁pyyh	-3813
▁raha	-3814
▁raut	-3815
▁ruoh	-3816
▁ruum	-3817
▁siem	-3818
▁siik	-3819
▁sini	-3820
▁sonn	-3821
▁sout	-3822
▁suus	-3823
▁syäm	-3824
▁syöt	-3825
▁tuho	-3826
▁vasi	-3827
▁viia	-3828
▁viip	-3829
Oisiko	-3830
ahasen	-3831
asella	-3832
empana	-3833
emästä	-3834
ettynä	-3835
iselta	-3836
isestä	-3837
isillä	-3838
istani	-3839
jäistä	-3840
kkohon	-3841
kkojen	-3842
leivän	-3843
olahan	-3844
otteli	-3845
paimen	-3846
puolet	-3847
vainen	-3848
yväksi	-3849
▁Antoi	-3850
▁Astua	-3851
▁Hiisi	-3852
▁Kenpä	-3853
▁Senpä	-3854
▁Tuota	-3855
▁anopp	-3856
▁hapsi	-3857
▁harja	-3858
▁hiien	-3859
▁hirvi	-3860
▁ihana	-3861
▁itkem	-3862
▁jäsen	-3863
▁kareh	-3864
▁kaski	-3865
▁kataj	-3866
▁katti	-3867
▁keiho	-3868
▁kesän	-3869
▁kivik	-3870
▁koito	-3871
▁korpi	-3872
▁kovia	-3873
▁kuohu	-3874
▁käkeä	-3875
▁käypi	-3876
▁lahen	-3877
▁laian	-3878
▁laiat	-3879
▁lakka	-3880
▁lausu	-3881
▁lehot	-3882
▁lehti	-3883
▁lomia	-3884
▁lunta	-3885
▁lähet	-3886
▁mistä	-3887
▁mänty	-3888
▁naura	-3889
▁niitä	-3890
▁nähty	-3891
▁näitä	-3892
▁omena	-3893
▁onnen	-3894
▁paian	-3895
▁panen	-3896
▁panta	-3897
▁perän	-3898
▁poiat	-3899
▁poies	-3900
▁poimi	-3901
▁purka	-3902
▁pyytä	-3903
▁rupea	-3904
▁saran	-3905
▁sorti	-3906
▁sykys	-3907
▁sylen	-3908
▁tanhu	-3909
▁tuiki	-3910
▁tulik	-3911
▁tunti	-3912
▁tupoa	-3913
▁tutta	-3914
▁ukset	-3915
▁venos	-3916
▁veren	-3917
▁viety	-3918
▁viien	-3919
▁ylimä	-3920
kutteli	-3921
neheksi	-3922
ottoman	-3923
rvoinen	-3924
tehensa	-3925
tetahan	-3926
tämähän	-3927
▁Antero	-3928
▁Kasvoi	-3929
▁Katsoi	-3930
▁Soitti	-3931
▁Virkki	-3932
▁ajohon	-3933
▁alusta	-3934
▁asetti	-3935
▁emonen	-3936
▁iloksi	-3937
▁imehti	-3938
▁itseki	-3939
▁jauhoi	-3940
▁jouten	-3941
▁katkoi	-3942
▁kaulan	-3943
▁keksin	-3944
▁kellar	-3945
▁kelpoa	-3946
▁koirat	-3947
▁korppi	-3948
▁korvon	-3949
▁kultia	-3950
▁kurjan	-3951
▁kuulet	-3952
▁kynnet	-3953
▁lasken	-3954
▁lauloa	-3955
▁lehmän	-3956
▁lempil	-3957
▁liitti	-3958
▁loitsi	-3959
▁lupasi	-3960
▁maalta	-3961
▁manoan	-3962
▁matkan	-3963
▁merell	-3964
▁mointa	-3965
▁neljän	-3966
▁neuvoi	-3967
▁noista	-3968
▁notkui	-3969
▁orosen	-3970
▁pirtti	-3971
▁piteli	-3972
▁pohjol	-3973
▁puisen	-3974
▁puusta	-3975
▁päästi	-3976
▁rupesi	-3977
▁samosi	-3978
▁sauvan	-3979
▁talven	-3980
▁toiset	-3981
▁tulleh	-3982
▁tuoman	-3983
▁turkin	-3984
▁varoit	-3985
▁vastan	-3986
▁vetävi	-3987
▁viltin	-3988
▁virttä	-3989
▁vuoteh	-3990
▁vähävä	-3991
istelevi	-3992
kolmatta	-3993
mätöintä	-3994
▁Parempi	-3995
▁ahjosta	-3996
▁aurinko	-3997
▁haravan	-3998
▁haukkui	-3999
▁haventa	-4000
▁hyväksi	-4001
▁kalliot	-4002
▁katsoja	-4003
▁kaunoka	-4004
▁kivistä	-4005
▁kokohon	-4006
▁kumarta	-4007
▁kuohuja	-4008
▁kuuluvi	-4009
▁kylästä	-4010
▁lähtevi	-4011
▁mieluis	-4012
▁otsolta	-4013
▁pahaksi	-4014
▁petäjän	-4015
▁pilvien	-4016
▁poroksi	-4017
▁sampuen	-4018
▁sivulla	-4019
▁soittoa	-4020
▁suomuha	-4021
▁suonten	-4022
▁talosta	-4023
▁uvantol	-4024
▁valitan	-4025
▁varahin	-4026
▁Vellamon	-4027
▁aittahan	-4028
▁aurinkoa	-4029
▁ehtoisen	-4030
▁hallitsi	-4031
▁kirjokor	-4032
▁kuuluhun	-4033
▁saattavi	-4034
▁suuressa	-4035
▁teräksen	-4036
▁veljyeni	-4037
▁vierahan	-4038
▁väljillä	-4039
▁ikuiseksi	-4040
▁kaunoisen	-4041
▁kultaisen	-4042
▁kultaiset	-4043
▁kynnyksen	-4044
▁käärmehen	-4045
▁moniahana	-4046
▁morsiamen	-4047
▁ollakseni	-4048
▁rautainen	-4049
▁saatuansa	-4050
▁satalauan	-4051
▁tungeikse	-4052
▁kainalohon	-4053
▁kassapäien	-4054
▁kääntelihe	-4055
▁lainehesen	-4056
▁puolisoksi	-4057
▁taivosesta	-4058
▁valvattisi	-4059
▁vierahalle	-4060
▁imehtimähän	-4061
▁kyselemähän	-4062
▁vaeltamahan	-4063
▁huokaiseikse	-4064
▁kumottamahan	-4065
▁Väinämöiselle	-4066
▁valtavanhempani	-4067
Jä	-4068
pr	-4069
re	-4070
rö	-4071
▁ö	-4072
Mit	-4073
Ots	-4074
Tul	-4075
ais	-4076
api	-4077
ela	-4078
elm	-4079
enä	-4080
gan	-4081
hun	-4082
ijä	-4083
ile	-4084
ing	-4085
jel	-4086
kyl	-4087
nun	-4088
oia	-4089
pas	-4090
sem	-4091
ska	-4092
sti	-4093
uku	-4094
uts	-4095
▁Il	-4096
▁Ni	-4097
▁Pi	-4098
▁ai	-4099
▁at	-4100
▁ev	-4101
▁jy	-4102
▁pö	-4103
▁ro	-4104
Kuul	-4105
Tuli	-4106
Viel	-4107
eksä	-4108
enne	-4109
itko	-4110
itän	-4111
jana	-4112
kapa	-4113
kelm	-4114
kena	-4115
masi	-4116
mman	-4117
mmat	-4118
mmät	-4119
oina	-4120
osin	-4121
rvet	-4122
tasi	-4123
telo	-4124
täsi	-4125
ukui	-4126
ulat	-4127
unat	-4128
uori	-4129
voja	-4130
väke	-4131
ytyi	-4132
yvät	-4133
ätty	-4134
ölle	-4135
▁Ken	-4136
▁Koh	-4137
▁Lap	-4138
▁Loi	-4139
▁Min	-4140
▁Puh	-4141
▁Pur	-4142
▁Tah	-4143
▁emä	-4144
▁hat	-4145
▁häm	-4146
▁häv	-4147
▁jät	-4148
▁kih	-4149
▁laj	-4150
▁lop	-4151
▁luu	-4152
▁roh	-4153
▁sua	-4154
▁tei	-4155
▁toh	-4156
▁yhä	-4157
▁äyr	-4158
Miksi	-4159
Tuota	-4160
Turso	-4161
ahasi	-4162
arjan	-4163
atoin	-4164
ekset	-4165
eljäs	-4166
esten	-4167
itsen	-4168
kahti	-4169
katte	-4170
kettu	-4171
matto	-4172
menna	-4173
oinpa	-4174
oitan	-4175
onnut	-4176
pahan	-4177
päätä	-4178
sellä	-4179
ssani	-4180
toani	-4181
tolan	-4182
tomat	-4183
ttina	-4184
tutti	-4185
vissa	-4186
yksen	-4187
▁Laat	-4188
▁Muut	-4189
▁Pian	-4190
▁Sata	-4191
▁Ukon	-4192
▁ajoa	-4193
▁apen	-4194
▁armo	-4195
▁arpa	-4196
▁harj	-4197
▁hern	-4198
▁häil	-4199
▁ilve	-4200
▁joko	-4201
▁kais	-4202
▁kasa	-4203
▁kein	-4204
▁kerä	-4205
▁kipu	-4206
▁kirk	-4207
▁kumo	-4208
▁kuon	-4209
▁kyyt	-4210
▁laaj	-4211
▁laau	-4212
▁laik	-4213
▁lang	-4214
▁laps	-4215
▁luul	-4216
▁läyl	-4217
▁löyä	-4218
▁maku	-4219
▁noit	-4220
▁olko	-4221
▁oron	-4222
▁pauk	-4223
▁pese	-4224
▁poim	-4225
▁polt	-4226
▁ponn	-4227
▁purr	-4228
▁rats	-4229
▁rikk	-4230
▁seiv	-4231
▁särk	-4232
▁task	-4233
▁toim	-4234
▁toip	-4235
▁varj	-4236
▁vars	-4237
▁vehn	-4238
▁veli	-4239
▁viik	-4240
▁vuon	-4241
▁ystä	-4242
▁ääni	-4243
Läksin	-4244
Tuonne	-4245
ehelle	-4246
ehissa	-4247
ehista	-4248
enillä	-4249
etteli	-4250
ikojen	-4251
imalla	-4252
isissa	-4253
issäni	-4254
kankah	-4255
kkanen	-4256
koille	-4257
ksellä	-4258
lkätte	-4259
llensä	-4260
llisen	-4261
otella	-4262
puuksi	-4263
teheni	-4264
uhunsa	-4265
ukohon	-4266
ukoita	-4267
utehen	-4268
voista	-4269
yttele	-4270
ähteli	-4271
äjänne	-4272
ättävi	-4273
▁Hänpä	-4274
▁Kulki	-4275
▁Pelle	-4276
▁Päivä	-4277
▁Seppo	-4278
▁ainoa	-4279
▁alasi	-4280
▁arkun	-4281
▁arvoa	-4282
▁haapa	-4283
▁heitä	-4284
▁henkä	-4285
▁hevon	-4286
▁hieno	-4287
▁hyviä	-4288
▁imehn	-4289
▁jossa	-4290
▁jäätä	-4291
▁kasua	-4292
▁katoa	-4293
▁kauto	-4294
▁kelta	-4295
▁kerto	-4296
▁kevät	-4297
▁koill	-4298
▁koukk	-4299
▁kovoa	-4300
▁kussa	-4301
▁kuten	-4302
▁kuule	-4303
▁kyntö	-4304
▁kätky	-4305
▁lasna	-4306
▁lepeä	-4307
▁liian	-4308
▁linna	-4309
▁loppu	-4310
▁luopu	-4311
▁luoto	-4312
▁lypsi	-4313
▁lypsä	-4314
▁lyötä	-4315
▁maito	-4316
▁miniä	-4317
▁mulla	-4318
▁muoto	-4319
▁ollet	-4320
▁orava	-4321
▁paaen	-4322
▁pakko	-4323
▁paras	-4324
▁pirta	-4325
▁poiut	-4326
▁potki	-4327
▁pysty	-4328
▁päänä	-4329
▁pöyän	-4330
▁revon	-4331
▁rinta	-4332
▁saane	-4333
▁saloa	-4334
▁satoa	-4335
▁sauna	-4336
▁savun	-4337
▁seppä	-4338
▁silmi	-4339
▁sitte	-4340
▁somer	-4341
▁sukat	-4342
▁suven	-4343
▁synke	-4344
▁syvän	-4345
▁tappa	-4346
▁tauti	-4347
▁tekem	-4348
▁terva	-4349
▁totta	-4350
▁tuoma	-4351
▁tuonn	-4352
▁tytön	-4353
▁tähti	-4354
▁tähän	-4355
▁umpil	-4356
▁vaali	-4357
▁vasar	-4358
▁ymmär	-4359
▁yöksi	-4360
▁Äijön	-4361
▁äitin	-4362
▁ääntä	-4363
altansa	-4364
annasta	-4365
ellessa	-4366
emmäksi	-4367
itsentä	-4368
oksesta	-4369
ommaksi	-4370
ottihin	-4371
taminen	-4372
tehillä	-4373
televat	-4374
tununna	-4375
▁Kolmas	-4376
▁Lemmon	-4377
▁Saksan	-4378
▁Toisin	-4379
▁ahavan	-4380
▁aholla	-4381
▁alenta	-4382
▁emosen	-4383
▁etemmä	-4384
▁haukku	-4385
▁hengen	-4386
▁hienot	-4387
▁istuvi	-4388
▁jauhot	-4389
▁kengät	-4390
▁kielet	-4391
▁kiukah	-4392
▁korvin	-4393
▁kumman	-4394
▁kunnes	-4395
▁kurkih	-4396
▁kutovi	-4397
▁kutsut	-4398
▁kuuhut	-4399
▁kylpyä	-4400
▁kynsiä	-4401
▁latvan	-4402
▁lehmät	-4403
▁lehvät	-4404
▁leikka	-4405
▁lienet	-4406
▁liinan	-4407
▁liioin	-4408
▁linnut	-4409
▁liukas	-4410
▁luonut	-4411
▁maltah	-4412
▁miesnä	-4413
▁mietti	-4414
▁minäki	-4415
▁mitänä	-4416
▁mustia	-4417
▁mutkan	-4418
▁naurun	-4419
▁noissa	-4420
▁oravan	-4421
▁orihin	-4422
▁pakeni	-4423
▁pankon	-4424
▁pellot	-4425
▁pirran	-4426
▁polois	-4427
▁puhtah	-4428
▁puista	-4429
▁päivin	-4430
▁rinnan	-4431
▁ruunan	-4432
▁ruveta	-4433
▁seläll	-4434
▁siirty	-4435
▁silkki	-4436
▁silmin	-4437
▁soitta	-4438
▁suonet	-4439
▁suorit	-4440
▁tavoit	-4441
▁toimit	-4442
▁tuiski	-4443
▁tunnen	-4444
▁tunten	-4445
▁tuopit	-4446
▁turvan	-4447
▁tyttöä	-4448
▁töille	-4449
▁vaimot	-4450
▁vainko	-4451
▁vallan	-4452
▁vankan	-4453
▁vastat	-4454
▁vuoren	-4455
▁väessä	-4456
▁yhtenä	-4457
Mielikki	-4458
oiltansa	-4459
▁aamulla	-4460
▁ahoille	-4461
▁hajotti	-4462
▁halulla	-4463
▁hankava	-4464
▁havukka	-4465
▁hyvästi	-4466
▁ihastui	-4467
▁ikkunan	-4468
▁iloitsi	-4469
▁juosnut	-4470
▁keikkui	-4471
▁kesosen	-4472
▁kirjoit	-4473
▁kitahan	-4474
▁kuuhuen	-4475
▁kääntyi	-4476
▁lehosta	-4477
▁lisäksi	-4478
▁luotteh	-4479
▁matkami	-4480
▁merelle	-4481
▁minunki	-4482
▁pahalla	-4483
▁parasta	-4484
▁pioissa	-4485
▁pitempi	-4486
▁sanoman	-4487
▁selältä	-4488
▁sinusta	-4489
▁sisaren	-4490
▁sivutse	-4491
▁suitset	-4492
▁sutosen	-4493
▁tiennyt	-4494
▁tuvasta	-4495
▁tämänki	-4496
▁utuinen	-4497
▁vaihoit	-4498
▁varassa	-4499
▁veitsen	-4500
▁vetistä	-4501
ellakseni	-4502
istamahan	-4503
▁Pakkasen	-4504
▁aukealle	-4505
▁huomenna	-4506
▁kanervan	-4507
▁kangasta	-4508
▁kansassa	-4509
▁kattilan	-4510
▁kehoitan	-4511
▁kolmasti	-4512
▁kukkalat	-4513
▁metsähän	-4514
▁metsässä	-4515
▁palttina	-4516
▁pilvihin	-4517
▁pimeästä	-4518
▁saunahan	-4519
▁saunassa	-4520
▁silkillä	-4521
▁suurehen	-4522
▁suureksi	-4523
▁suurelle	-4524
▁tuskissa	-4525
▁ulapalle	-4526
▁vakainen	-4527
▁varaväke	-4528
▁vaskesta	-4529
▁vaskinen	-4530
▁vääjänne	-4531
Mehiläinen	-4532
▁entisille	-4533
▁etsimähän	-4534
▁helähytti	-4535
▁kantajata	-4536
▁kaunoinen	-4537
▁koivuisen	-4538
▁korkeampi	-4539
▁lintuseni	-4540
▁pikkuista	-4541
▁rautaiset	-4542
▁seitsentä	-4543
▁vaattehet	-4544
▁vastoavat	-4545
▁väheäkänä	-4546
▁Sariolahan	-4547
▁hallitsija	-4548
▁kaikitenki	-4549
▁kallistihe	-4550
▁kasuavassa	-4551
▁kaunihiksi	-4552
▁kaunihimpi	-4553
▁kaunihisen	-4554
▁lypsämähän	-4555
▁löyhytteli	-4556
▁miehelässä	-4557
▁taivosehen	-4558
▁tanterilla	-4559
▁tarpehella	-4560
▁tuntemahan	-4561
▁valkeainen	-4562
▁vieretellä	-4563
▁vieretteli	-4564
▁Kaukomielen	-4565
▁hyväniminen	-4566
▁kurkihirren	-4567
▁pohjolaisen	-4568
▁päästämähän	-4569
▁taputtelevi	-4570
▁vääntämähän	-4571
▁karjanpaimen	-4572
▁kumartaminen	-4573
▁keskilattialla	-4574
El	-4575
Os	-4576
Pä	-4577
Tu	-4578
ly	-4579
Jää	-4580
Ken	-4581
Oli	-4582
Pah	-4583
asa	-4584
ato	-4585
eip	-4586
elt	-4587
emi	-4588
est	-4589
ilu	-4590
imi	-4591
juo	-4592
kär	-4593
mal	-4594
osa	-4595
pöy	-4596
sah	-4597
seä	-4598
siä	-4599
tto	-4600
tty	-4601
uru	-4602
usu	-4603
yhy	-4604
yrä	-4605
yön	-4606
ähä	-4607
ärä	-4608
▁ny	-4609
Laul	-4610
Mene	-4611
Oisi	-4612
anut	-4613
ehyt	-4614
eisi	-4615
elkö	-4616
enia	-4617
enta	-4618
erta	-4619
etar	-4620
ides	-4621
isiä	-4622
ivar	-4623
kauh	-4624
keni	-4625
kenn	-4626
kisi	-4627
kkel	-4628
koit	-4629
ohel	-4630
ormi	-4631
ppoi	-4632
uhat	-4633
ukas	-4634
uset	-4635
utar	-4636
utoa	-4637
vaip	-4638
yisi	-4639
äsin	-4640
ätse	-4641
ättö	-4642
▁Iso	-4643
▁Juo	-4644
▁Kau	-4645
▁Kuu	-4646
▁Len	-4647
▁Sen	-4648
▁Sie	-4649
▁Toi	-4650
▁Tun	-4651
▁aar	-4652
▁hor	-4653
▁huh	-4654
▁inh	-4655
▁joi	-4656
▁jon	-4657
▁kii	-4658
▁lyk	-4659
▁puk	-4660
▁rav	-4661
▁ruh	-4662
▁suh	-4663
▁taj	-4664
▁täy	-4665
▁vap	-4666
▁ärj	-4667
Kunne	-4668
Siksi	-4669
annon	-4670
astah	-4671
ehtar	-4672
ennon	-4673
eänsä	-4674
iansa	-4675
iltti	-4676
inkal	-4677
isken	-4678
itten	-4679
jojen	-4680
jälle	-4681
kiävi	-4682
kkoja	-4683
kolle	-4684
kosta	-4685
koura	-4686
kätte	-4687
oivat	-4688
rehet	-4689
toavi	-4690
täisi	-4691
uessa	-4692
uvier	-4693
valke	-4694
valta	-4695
vesta	-4696
vista	-4697
välle	-4698
ynnyr	-4699
Äsken	-4700
äiset	-4701
▁Ahto	-4702
▁Enkä	-4703
▁Itki	-4704
▁Kuka	-4705
▁Saat	-4706
▁Sara	-4707
▁Sitä	-4708
▁Työn	-4709
▁Viel	-4710
▁Väki	-4711
▁ahot	-4712
▁alas	-4713
▁aloa	-4714
▁aseh	-4715
▁avun	-4716
▁hala	-4717
▁hara	-4718
▁huot	-4719
▁ineh	-4720
▁isän	-4721
▁joit	-4722
▁karj	-4723
▁kaup	-4724
▁kesk	-4725
▁korp	-4726
▁kuja	-4727
▁kuku	-4728
▁kuto	-4729
▁käki	-4730
▁lepp	-4731
▁mier	-4732
▁miss	-4733
▁mäet	-4734
▁nähä	-4735
▁nänn	-4736
▁onne	-4737
▁ovet	-4738
▁pait	-4739
▁palm	-4740
▁pats	-4741
▁piät	-4742
▁puhu	-4743
▁pyyt	-4744
▁pätö	-4745
▁raav	-4746
▁reen	-4747
▁riem	-4748
▁ruko	-4749
▁saip	-4750
▁sait	-4751
▁salv	-4752
▁siin	-4753
▁siki	-4754
▁sint	-4755
▁sorr	-4756
▁suet	-4757
▁suih	-4758
▁suku	-4759
▁taik	-4760
▁taip	-4761
▁tall	-4762
▁tehä	-4763
▁toiv	-4764
▁tukk	-4765
▁turj	-4766
▁umpi	-4767
▁untu	-4768
▁uuet	-4769
▁varv	-4770
▁vasa	-4771
▁veny	-4772
▁veri	-4773
▁viiv	-4774
▁vill	-4775
▁virs	-4776
▁virt	-4777
Metsän	-4778
ahaksi	-4779
ahtihe	-4780
atteli	-4781
ehella	-4782
ehessa	-4783
ehestä	-4784
ehille	-4785
ehisin	-4786
ematta	-4787
essani	-4788
evatar	-4789
ikalla	-4790
imassa	-4791
iparta	-4792
isellä	-4793
isessä	-4794
isiltä	-4795
istäki	-4796
kengät	-4797
ksissa	-4798
kymmen	-4799
käinen	-4800
luista	-4801
löihin	-4802
mättäh	-4803
osehen	-4804
sinesi	-4805
tanevi	-4806
toihin	-4807
tänehe	-4808
umille	-4809
utahan	-4810
uteltu	-4811
voinen	-4812
ynyttä	-4813
▁Liets	-4814
▁Lähen	-4815
▁Manal	-4816
▁Mistä	-4817
▁Poika	-4818
▁Pursi	-4819
▁Saata	-4820
▁Tuuli	-4821
▁aamun	-4822
▁aamut	-4823
▁ahoja	-4824
▁aioin	-4825
▁armon	-4826
▁aseta	-4827
▁asuin	-4828
▁eestä	-4829
▁hirsi	-4830
▁honka	-4831
▁hurme	-4832
▁härän	-4833
▁iloit	-4834
▁itses	-4835
▁jokea	-4836
▁jouta	-4837
▁jätti	-4838
▁jääpi	-4839
▁kalat	-4840
▁kalev	-4841
▁kapal	-4842
▁kaula	-4843
▁kehrä	-4844
▁kiitä	-4845
▁kivut	-4846
▁kuivi	-4847
▁kukat	-4848
▁kupeh	-4849
▁kääri	-4850
▁lapse	-4851
▁lehto	-4852
▁leuka	-4853
▁lihan	-4854
▁liito	-4855
▁lukon	-4856
▁luppa	-4857
▁lähtö	-4858
▁mahta	-4859
▁maksa	-4860
▁masen	-4861
▁melke	-4862
▁menty	-4863
▁monta	-4864
▁muien	-4865
▁nenän	-4866
▁nuota	-4867
▁nämät	-4868
▁oisin	-4869
▁olipa	-4870
▁paeta	-4871
▁paita	-4872
▁paran	-4873
▁pella	-4874
▁pesty	-4875
▁piitä	-4876
▁pimeä	-4877
▁piteä	-4878
▁puutu	-4879
▁pääla	-4880
▁salot	-4881
▁sanat	-4882
▁sauvo	-4883
▁siivo	-4884
▁sitäi	-4885
▁suksi	-4886
▁säken	-4887
▁söisi	-4888
▁taatt	-4889
▁talja	-4890
▁taloa	-4891
▁tarvi	-4892
▁tavat	-4893
▁touko	-4894
▁tuima	-4895
▁tunnu	-4896
▁tuntu	-4897
▁turmi	-4898
▁tuvat	-4899
▁tääll	-4900
▁varti	-4901
Osmotar	-4902
alaista	-4903
annalta	-4904
annunna	-4905
astettu	-4906
ellensa	-4907
ellervo	-4908
intahan	-4909
issänsä	-4910
jahansa	-4911
kaisevi	-4912
kemassa	-4913
kijaksi	-4914
otointa	-4915
pojaksi	-4916
sahutti	-4917
uksella	-4918
uksista	-4919
vihinsa	-4920
ättären	-4921
▁Kantoi	-4922
▁Lienet	-4923
▁Neljäs	-4924
▁Niinpä	-4925
▁Päivän	-4926
▁Päästä	-4927
▁Sampsa	-4928
▁Viides	-4929
▁Väinön	-4930
▁aallot	-4931
▁ainoan	-4932
▁ajaite	-4933
▁haahen	-4934
▁hangat	-4935
▁heinät	-4936
▁hongat	-4937
▁hurmeh	-4938
▁itähän	-4939
▁jokena	-4940
▁juuret	-4941
▁järven	-4942
▁kaarta	-4943
▁kaksin	-4944
▁kamala	-4945
▁kasvon	-4946
▁kasvot	-4947
▁kehnon	-4948
▁keinon	-4949
▁kiireh	-4950
▁kolmea	-4951
▁koppoi	-4952
▁kuiten	-4953
▁kukkar	-4954
▁kultar	-4955
▁kultas	-4956
▁kummat	-4957
▁kumota	-4958
▁kutsui	-4959
▁kuultu	-4960
▁kyisen	-4961
▁kääntä	-4962
▁laskea	-4963
▁laukin	-4964
▁leikki	-4965
▁linnun	-4966
▁lyheni	-4967
▁löylyn	-4968
▁makasi	-4969
▁menisi	-4970
▁mielen	-4971
▁muruja	-4972
▁nuolen	-4973
▁nuorin	-4974
▁nuorta	-4975
▁ovilla	-4976
▁pahoja	-4977
▁paksun	-4978
▁palkan	-4979
▁panevi	-4980
▁partah	-4981
▁piennä	-4982
▁piikoa	-4983
▁piillä	-4984
▁pilkan	-4985
▁puolin	-4986
▁pursto	-4987
▁saisin	-4988
▁sampoa	-4989
▁seinän	-4990
▁seinät	-4991
▁seisot	-4992
▁seiväs	-4993
▁siirrä	-4994
▁siirti	-4995
▁siiven	-4996
▁soreat	-4997
▁sortun	-4998
▁syrjin	-4999
▁syötti	-5000
▁taikin	-5001
▁taikka	-5002
▁taivoa	-5003
▁takovi	-5004
▁tanhua	-5005
▁tarpoi	-5006
▁tehnyt	-5007
▁torven	-5008
▁tuhmin	-5009
▁tummen	-5010
▁tuulet	-5011
▁tynnyr	-5012
▁vaakal	-5013
▁vaipan	-5014
▁vakkas	-5015
▁varpah	-5016
▁venyvi	-5017
▁vihoin	-5018
▁viisas	-5019
▁viitsi	-5020
▁virkku	-5021
▁vuoret	-5022
▁vyölle	-5023
▁väellä	-5024
▁väestä	-5025
▁vävyni	-5026
ahtelevi	-5027
ettaessa	-5028
ettäissä	-5029
teleisin	-5030
uottehia	-5031
ähtelevi	-5032
▁Pohjola	-5033
▁alaista	-5034
▁ankaran	-5035
▁arvelee	-5036
▁emännät	-5037
▁hakuhun	-5038
▁harvoin	-5039
▁hiitten	-5040
▁hivuksi	-5041
▁hyvänki	-5042
▁inhalla	-5043
▁isännät	-5044
▁juoming	-5045
▁jyvästä	-5046
▁jälessä	-5047
▁jälille	-5048
▁kiukaha	-5049
▁kosijan	-5050
▁kovahan	-5051
▁kovasti	-5052
▁käkösen	-5053
▁kärestä	-5054
▁käsissä	-5055
▁laittoi	-5056
▁lakaisi	-5057
▁lankapa	-5058
▁lapseni	-5059
▁lautsan	-5060
▁lihavan	-5061
▁likeltä	-5062
▁lähetti	-5063
▁maammon	-5064
▁meressä	-5065
▁metinen	-5066
▁minussa	-5067
▁morsian	-5068
▁mustien	-5069
▁nousnut	-5070
▁nuoruka	-5071
▁ohrasen	-5072
▁pahasti	-5073
▁pahinta	-5074
▁perällä	-5075
▁pesohon	-5076
▁piehtar	-5077
▁pihalla	-5078
▁puhelen	-5079
▁päivyen	-5080
▁rakettu	-5081
▁rukihit	-5082
▁sepolle	-5083
▁siltala	-5084
▁sotisop	-5085
▁sureksi	-5086
▁toivoin	-5087
▁totiset	-5088
▁tuvassa	-5089
▁työnnän	-5090
▁urosten	-5091
▁vaahter	-5092
▁vaivoja	-5093
▁valehet	-5094
▁valitti	-5095
▁varahan	-5096
▁varusta	-5097
▁vetensä	-5098
▁väännät	-5099
ettämähän	-5100
iskenteli	-5101
uttamatta	-5102
▁aallosta	-5103
▁ainoaksi	-5104
▁ehtoinen	-5105
▁hienohel	-5106
▁ilveksen	-5107
▁jäniksen	-5108
▁katsehet	-5109
▁kattojen	-5110
▁kerralla	-5111
▁kirjavan	-5112
▁korpehen	-5113
▁kotihini	-5114
▁lapsensa	-5115
▁lännestä	-5116
▁majoille	-5117
▁mansikka	-5118
▁mennehen	-5119
▁metsälle	-5120
▁miehiäsi	-5121
▁muruiksi	-5122
▁mättähän	-5123
▁neitonen	-5124
▁niinkuin	-5125
▁ollekana	-5126
▁pahastui	-5127
▁paremman	-5128
▁paremmat	-5129
▁peukalon	-5130
▁pihlajat	-5131
▁pitkillä	-5132
▁saamahan	-5133
▁saarehen	-5134
▁sataisen	-5135
▁selvälle	-5136
▁summasta	-5137
▁surmaksi	-5138
▁suvantol	-5139
▁tavoitti	-5140
▁tuostaki	-5141
▁tutkaeli	-5142
▁urohiasi	-5143
▁valmista	-5144
▁vastaten	-5145
▁vatsahan	-5146
▁vetrehet	-5147
▁vierehen	-5148
▁vähäinen	-5149
▁Ruotuksen	-5150
▁ainoiseni	-5151
▁arvelevat	-5152
▁ennenkuin	-5153
▁ikkunasta	-5154
▁joutsenet	-5155
▁kotihinsa	-5156
▁kunniaksi	-5157
▁kutsuvier	-5158
▁lienekänä	-5159
▁matkoansa	-5160
▁ollaksesi	-5161
▁oppimahan	-5162
▁otavaista	-5163
▁paikoille	-5164
▁pihtipuol	-5165
▁pirahteli	-5166
▁purjepuun	-5167
▁rukoelevi	-5168
▁tyttäresi	-5169
▁vainovaat	-5170
▁vaivaista	-5171
▁vanhemman	-5172
ehettömäksi	-5173
▁Etsittihin	-5174
▁Mehiläinen	-5175
▁Sariolasta	-5176
▁halliparta	-5177
▁kannikalla	-5178
▁kartanossa	-5179
▁katsahtavi	-5180
▁kaunoiseni	-5181
▁kirvehellä	-5182
▁korvihinsa	-5183
▁koskematta	-5184
▁kylpemähän	-5185
▁lainehesta	-5186
▁laskemahan	-5187
▁laulajalle	-5188
▁lautasille	-5189
▁lentämähän	-5190
▁makoamasta	-5191
▁petäjäisen	-5192
▁rekoseheni	-5193
▁taivahalla	-5194
▁tarvitahan	-5195
▁taskuhunsa	-5196
▁tullutkana	-5197
▁valehtelit	-5198
▁vanhempasi	-5199
▁vaskisella	-5200
▁Ilmariselle	-5201
▁alantehesta	-5202
▁alinomainen	-5203
▁alinomaiset	-5204
▁juoksemahan	-5205
▁karehtelevi	-5206
▁karittelevi	-5207
▁kartanoille	-5208
▁käärmehisen	-5209
▁liitoksella	-5210
▁miekallista	-5211
▁osattomaksi	-5212
▁pakenemahan	-5213
▁patvaskalla	-5214
▁polvillensa	-5215
▁pyörtehesen	-5216
▁rautaisehen	-5217
▁valkamoille	-5218
▁vesikivellä	-5219
▁Pellervoinen	-5220
▁palkkalainen	-5221
▁selällisehen	-5222
▁tarvittaissa	-5223
▁valehettomat	-5224
▁vierressänsä	-5225
▁kumarteleikse	-5226
Nä	-5227
Ta	-5228
Te	-5229
Ti	-5230
To	-5231
ai	-5232
hi	-5233
lu	-5234
mu	-5235
rm	-5236
Kys	-5237
Käy	-5238
Ole	-5239
Ota	-5240
Sen	-5241
ajo	-5242
ema	-5243
iet	-5244
iku	-5245
ila	-5246
ill	-5247
ilö	-5248
jiä	-5249
ksy	-5250
kyi	-5251
käl	-5252
lut	-5253
läh	-5254
mmi	-5255
poh	-5256
pol	-5257
pui	-5258
put	-5259
pyn	-5260
rsk	-5261
rän	-5262
sas	-5263
suo	-5264
tet	-5265
tko	-5266
ulo	-5267
uma	-5268
unn	-5269
vir	-5270
vit	-5271
ykk	-5272
äss	-5273
▁Hä	-5274
▁Ma	-5275
▁Mä	-5276
▁au	-5277
▁om	-5278
▁ou	-5279
▁äs	-5280
Akka	-5281
Itse	-5282
Mist	-5283
Otan	-5284
Vaan	-5285
atti	-5286
deks	-5287
eiet	-5288
elti	-5289
emen	-5290
ertä	-5291
eten	-5292
ihet	-5293
ihit	-5294
ikös	-5295
imet	-5296
inpa	-5297
juvi	-5298
kenä	-5299
kkal	-5300
kkia	-5301
kkio	-5302
käär	-5303
llän	-5304
nell	-5305
oivi	-5306
oper	-5307
otar	-5308
paja	-5309
penä	-5310
puut	-5311
pyör	-5312
pään	-5313
päät	-5314
rkäh	-5315
skan	-5316
tini	-5317
uasi	-5318
ukku	-5319
uoli	-5320
uota	-5321
vänä	-5322
öhön	-5323
öllä	-5324
▁Amm	-5325
▁Her	-5326
▁Jop	-5327
▁Kip	-5328
▁Kyl	-5329
▁Osm	-5330
▁Syl	-5331
▁Yhd	-5332
▁Yks	-5333
▁asi	-5334
▁hil	-5335
▁hyy	-5336
▁häj	-5337
▁kaj	-5338
▁lii	-5339
▁luv	-5340
▁mon	-5341
▁muh	-5342
▁nah	-5343
▁piä	-5344
▁pöl	-5345
▁raa	-5346
▁rep	-5347
▁ret	-5348
▁riu	-5349
▁rot	-5350
▁sys	-5351
▁säv	-5352
▁söi	-5353
▁tak	-5354
▁tia	-5355
▁tih	-5356
▁tor	-5357
▁uin	-5358
▁uup	-5359
▁vat	-5360
▁ylä	-5361
Minne	-5362
Siinä	-5363
Sitte	-5364
Vielä	-5365
anner	-5366
arjun	-5367
astat	-5368
easti	-5369
ehenä	-5370
ellon	-5371
emmat	-5372
enevi	-5373
evänä	-5374
eäksi	-5375
ihisi	-5376
immät	-5377
jista	-5378
jällä	-5379
kaise	-5380
kalta	-5381
kassa	-5382
keata	-5383
ketkö	-5384
koita	-5385
kojen	-5386
kolla	-5387
kosen	-5388
llasi	-5389
llerö	-5390
lläni	-5391
misen	-5392
okann	-5393
puuta	-5394
sater	-5395
semäs	-5396
tahat	-5397
taisi	-5398
tären	-5399
uissa	-5400
uivat	-5401
useni	-5402
vasti	-5403
villä	-5404
öistä	-5405
▁Ahin	-5406
▁Aino	-5407
▁Kuts	-5408
▁Lyhy	-5409
▁Mene	-5410
▁Miel	-5411
▁Minä	-5412
▁Noin	-5413
▁Onpa	-5414
▁Orja	-5415
▁Piti	-5416
▁Saip	-5417
▁Seit	-5418
▁Sepä	-5419
▁Taos	-5420
▁Teki	-5421
▁Uipi	-5422
▁Yksi	-5423
▁ahjo	-5424
▁aiko	-5425
▁ammu	-5426
▁auka	-5427
▁etel	-5428
▁haas	-5429
▁haav	-5430
▁hajo	-5431
▁hele	-5432
▁helk	-5433
▁helä	-5434
▁hiet	-5435
▁hull	-5436
▁huop	-5437
▁hurs	-5438
▁hyrä	-5439
▁iken	-5440
▁ikir	-5441
▁jost	-5442
▁juom	-5443
▁järk	-5444
▁kaal	-5445
▁karv	-5446
▁kaur	-5447
▁kiis	-5448
▁kiur	-5449
▁kokk	-5450
▁korj	-5451
▁kura	-5452
▁kymm	-5453
▁käpy	-5454
▁laai	-5455
▁liki	-5456
▁lusi	-5457
▁lämp	-5458
▁lääv	-5459
▁mair	-5460
▁must	-5461
▁nenä	-5462
▁nepä	-5463
▁ohja	-5464
▁pako	-5465
▁peip	-5466
▁penn	-5467
▁piim	-5468
▁pist	-5469
▁polo	-5470
▁raiv	-5471
▁ries	-5472
▁riih	-5473
▁riit	-5474
▁senp	-5475
▁seul	-5476
▁sija	-5477
▁siva	-5478
▁sopp	-5479
▁suka	-5480
▁teit	-5481
▁temm	-5482
▁tipp	-5483
▁toit	-5484
▁tuoa	-5485
▁turv	-5486
▁tuur	-5487
▁utra	-5488
▁uuti	-5489
▁vako	-5490
▁valj	-5491
▁vast	-5492
▁viet	-5493
▁viit	-5494
▁virr	-5495
▁vuot	-5496
▁äijä	-5497
Kuules	-5498
Lienet	-5499
Mitäpä	-5500
Suotta	-5501
ahansa	-5502
asista	-5503
deksas	-5504
elillä	-5505
emistä	-5506
enille	-5507
ettävä	-5508
ihinsa	-5509
ikolla	-5510
ikosta	-5511
imähän	-5512
iseltä	-5513
isistä	-5514
kaista	-5515
keasti	-5516
kkihin	-5517
kkoavi	-5518
koilla	-5519
koilta	-5520
ksenne	-5521
kunnan	-5522
llutta	-5523
loista	-5524
maille	-5525
mainen	-5526
mpahan	-5527
mäellä	-5528
otahan	-5529
ottava	-5530
putken	-5531
päistä	-5532
päivän	-5533
suovan	-5534
tehesi	-5535
tielle	-5536
ttinän	-5537
ukseni	-5538
umilla	-5539
vaista	-5540
vartta	-5541
vieras	-5542
voisen	-5543
ymähän	-5544
yttävi	-5545
ähtihe	-5546
ätteli	-5547
▁Ajavi	-5548
▁Ennen	-5549
▁Kunne	-5550
▁Kyllä	-5551
▁Laita	-5552
▁Lempo	-5553
▁Miksi	-5554
▁Minne	-5555
▁Niinp	-5556
▁Nouse	-5557
▁Orjat	-5558
▁Panen	-5559
▁Saipa	-5560
▁Tapio	-5561
▁ahava	-5562
▁ahjoa	-5563
▁ahovi	-5564
▁airot	-5565
▁asetu	-5566
▁auran	-5567
▁ettet	-5568
▁halun	-5569
▁hanki	-5570
▁huono	-5571
▁häitä	-5572
▁härkä	-5573
▁illat	-5574
▁istut	-5575
▁itkeä	-5576
▁itsen	-5577
▁jaksa	-5578
▁jalas	-5579
▁jalat	-5580
▁jalon	-5581
▁jospa	-5582
▁juoma	-5583
▁juoni	-5584
▁juota	-5585
▁jyviä	-5586
▁kalhu	-5587
▁kauas	-5588
▁kaura	-5589
▁kenen	-5590
▁kisko	-5591
▁kohtu	-5592
▁konna	-5593
▁korva	-5594
▁koura	-5595
▁kuhun	-5596
▁kulke	-5597
▁kulti	-5598
▁kunno	-5599
▁kupar	-5600
▁kutsu	-5601
▁kylki	-5602
▁kylvö	-5603
▁kylyn	-5604
▁kynti	-5605
▁kynän	-5606
▁kysyn	-5607
▁käyne	-5608
▁lekut	-5609
▁lempi	-5610
▁levit	-5611
▁liika	-5612
▁lohta	-5613
▁lukot	-5614
▁luovu	-5615
▁lähte	-5616
▁menin	-5617
▁miekk	-5618
▁mihin	-5619
▁monen	-5620
▁muist	-5621
▁mäkeä	-5622
▁neion	-5623
▁noian	-5624
▁näätä	-5625
▁ostin	-5626
▁paaet	-5627
▁paika	-5628
▁pakin	-5629
▁pinta	-5630
▁polve	-5631
▁punas	-5632
▁raian	-5633
▁risti	-5634
▁ruota	-5635
▁saari	-5636
▁salvo	-5637
▁samoa	-5638
▁selin	-5639
▁sikiö	-5640
▁silkk	-5641
▁silmä	-5642
▁sisil	-5643
▁siuot	-5644
▁souan	-5645
▁syksy	-5646
▁syseä	-5647
▁syöpi	-5648
▁säkeh	-5649
▁säätä	-5650
▁tahon	-5651
▁tiloa	-5652
▁toimi	-5653
▁tosia	-5654
▁tuomi	-5655
▁tyrsk	-5656
▁vaarn	-5657
▁valla	-5658
▁varpa	-5659
▁veits	-5660
▁veteä	-5661
▁viepi	-5662
▁vihan	-5663
▁vihoa	-5664
▁viian	-5665
▁viiko	-5666
▁vilun	-5667
▁visko	-5668
▁vuosi	-5669
▁ylene	-5670
▁äkkio	-5671
▁äsken	-5672
▁äyräh	-5673
Elkätte	-5674
Elköhön	-5675
ahainen	-5676
astansa	-5677
emmalla	-5678
estansa	-5679
ittihin	-5680
kahtavi	-5681
kahutti	-5682
kauhtan	-5683
kehensa	-5684
kehilla	-5685
lläniki	-5686
oillesi	-5687
oinensa	-5688
oloista	-5689
ottaren	-5690
tamasta	-5691
tehiksi	-5692
tehisin	-5693
teleime	-5694
tomaksi	-5695
tynynnä	-5696
tyväksi	-5697
tömälle	-5698
uotojen	-5699
ustella	-5700
utellen	-5701
uttaren	-5702
vikosta	-5703
ytysten	-5704
ännältä	-5705
▁Kahdes	-5706
▁Kuudes	-5707
▁Kuuhut	-5708
▁Piltti	-5709
▁Veisti	-5710
▁Virkku	-5711
▁aikani	-5712
▁annoit	-5713
▁astuvi	-5714
▁elellä	-5715
▁emosta	-5716
▁hammas	-5717
▁harjun	-5718
▁heitit	-5719
▁helmat	-5720
▁helmet	-5721
▁helpeh	-5722
▁hiekka	-5723
▁hiilet	-5724
▁hirveä	-5725
▁hongan	-5726
▁huolet	-5727
▁huomen	-5728
▁huopar	-5729
▁hämmen	-5730
▁ilkeän	-5731
▁imetti	-5732
▁imettä	-5733
▁impenä	-5734
▁impyen	-5735
▁joessa	-5736
▁joukki	-5737
▁juuren	-5738
▁kaaret	-5739
▁kaiker	-5740
▁kalaha	-5741
▁kanerv	-5742
▁kannut	-5743
▁kaotta	-5744
▁kaotti	-5745
▁karpal	-5746
▁kasvin	-5747
▁katkea	-5748
▁kaunon	-5749
▁kengän	-5750
▁kohlut	-5751
▁kolkka	-5752
▁kukkur	-5753
▁kuuksi	-5754
▁kynnen	-5755
▁kynttä	-5756
▁käkenä	-5757
▁käsket	-5758
▁kätösi	-5759
▁käveli	-5760
▁käynyt	-5761
▁käytyä	-5762
▁käänty	-5763
▁lateli	-5764
▁latvas	-5765
▁lienee	-5766
▁liitto	-5767
▁longan	-5768
▁luulin	-5769
▁mieron	-5770
▁neuvon	-5771
▁niistä	-5772
▁nukkui	-5773
▁nuorna	-5774
▁näkevi	-5775
▁onnell	-5776
▁ovelle	-5777
▁oville	-5778
▁pahemp	-5779
▁pakkas	-5780
▁pannut	-5781
▁parven	-5782
▁penker	-5783
▁pientä	-5784
▁pilvet	-5785
▁pilviä	-5786
▁piossa	-5787
▁pitäjä	-5788
▁pitäne	-5789
▁piukki	-5790
▁portin	-5791
▁potkin	-5792
▁puheli	-5793
▁pystyn	-5794
▁päiviä	-5795
▁pätevi	-5796
▁pääsne	-5797
▁rakenn	-5798
▁rastah	-5799
▁rautar	-5800
▁rikkoi	-5801
▁ristin	-5802
▁saavat	-5803
▁salajo	-5804
▁sarvet	-5805
▁seassa	-5806
▁seisoi	-5807
▁selvät	-5808
▁siniot	-5809
▁sormen	-5810
▁suurim	-5811
▁suvena	-5812
▁tahtoi	-5813
▁taitta	-5814
▁taivas	-5815
▁tienoh	-5816
▁toukka	-5817
▁tulena	-5818
▁tultua	-5819
▁tungen	-5820
▁tuopin	-5821
▁tuskat	-5822
▁untelo	-5823
▁upotta	-5824
▁vaapuk	-5825
▁vaivan	-5826
▁valjas	-5827
▁valuvi	-5828
▁vapisi	-5829
▁vartal	-5830
▁veivät	-5831
▁verkot	-5832
▁vetihe	-5833
▁vierin	-5834
▁vievät	-5835
▁viisin	-5836
▁viljan	-5837
▁vuosin	-5838
▁yheksä	-5839
▁ylentä	-5840
Otsoseni	-5841
elematta	-5842
ettaissa	-5843
kkimähän	-5844
rkähattu	-5845
tettihin	-5846
uttaessa	-5847
▁Itketkö	-5848
▁Kalervo	-5849
▁Laittoi	-5850
▁Vipusen	-5851
▁Yhdeksä	-5852
▁aitasta	-5853
▁anoppel	-5854
▁eilisen	-5855
▁elellyt	-5856
▁ennättä	-5857
▁entinen	-5858
▁entiset	-5859
▁huollen	-5860
▁hyvällä	-5861
▁ikkunat	-5862
▁iloissa	-5863
▁itsensä	-5864
▁kanasen	-5865
▁kantaja	-5866
▁kappale	-5867
▁katkesi	-5868
▁keräjät	-5869
▁kivelle	-5870
▁kontion	-5871
▁kontiot	-5872
▁kosijat	-5873
▁kovaosa	-5874
▁kujilla	-5875
▁kukkana	-5876
▁kutsuit	-5877
▁käkönen	-5878
▁kätösin	-5879
▁lakkipä	-5880
▁lumella	-5881
▁läikkyi	-5882
▁matkasi	-5883
▁menevät	-5884
▁mielell	-5885
▁milloin	-5886
▁paikkoa	-5887
▁pajupeh	-5888
▁palavan	-5889
▁palolla	-5890
▁paranti	-5891
▁poikien	-5892
▁päivinä	-5893
▁päätäsi	-5894
▁raannan	-5895
▁rauasta	-5896
▁rautapa	-5897
▁sanansa	-5898
▁selässä	-5899
▁sinervä	-5900
▁sininen	-5901
▁sinistä	-5902
▁suurena	-5903
▁syäntyi	-5904
▁takojan	-5905
▁takonut	-5906
▁tasalle	-5907
▁tasater	-5908
▁teräksi	-5909
▁terävän	-5910
▁totisen	-5911
▁tulikip	-5912
▁tulonen	-5913
▁tuotane	-5914
▁vaaksan	-5915
▁valetta	-5916
▁varjele	-5917
▁vasenta	-5918
▁vasikka	-5919
▁vastoin	-5920
▁vesiltä	-5921
▁vetonen	-5922
▁vihanta	-5923
▁vitahan	-5924
oisehensa	-5925
päällinen	-5926
uonehesen	-5927
▁Pimentol	-5928
▁Tapiolan	-5929
▁Tellervo	-5930
▁Tuonelta	-5931
▁aartehia	-5932
▁airoilla	-5933
▁armautta	-5934
▁eellehen	-5935
▁hallikoi	-5936
▁hernevar	-5937
▁hevoista	-5938
▁huokaeli	-5939
▁kalmahan	-5940
▁kankahat	-5941
▁karjoani	-5942
▁kattilat	-5943
▁kerkiävi	-5944
▁kirvehen	-5945
▁koskessa	-5946
▁kullasta	-5947
▁kylmähän	-5948
▁kämmenin	-5949
▁lainehia	-5950
▁lankeavi	-5951
▁laulajan	-5952
▁majoilta	-5953
▁miekkoja	-5954
▁mielellä	-5955
▁mustasta	-5956
▁neitonsa	-5957
▁neitosia	-5958
▁pahoista	-5959
▁paremmin	-5960
▁pilvistä	-5961
▁pitkähän	-5962
▁punapuol	-5963
▁päiväksi	-5964
▁päälleni	-5965
▁rahvahan	-5966
▁rajoilla	-5967
▁rautahan	-5968
▁saatuasi	-5969
▁salvoksi	-5970
▁selvällä	-5971
▁sielläki	-5972
▁sijoille	-5973
▁summahan	-5974
▁suojassa	-5975
▁suoritta	-5976
▁suurille	-5977
▁suurilta	-5978
▁syämellä	-5979
▁syömähän	-5980
▁tapainen	-5981
▁tasaisen	-5982
▁tultuani	-5983
▁tyttären	-5984
▁tyttäret	-5985
▁tyttäriä	-5986
▁tyttöäni	-5987
▁vaimojen	-5988
▁vihastui	-5989
▁voitehet	-5990
▁vähyyttä	-5991
mättömille	-5992
▁Kahdeksas	-5993
▁Katselevi	-5994
▁Kuuttaren	-5995
▁Seitsemäs	-5996
▁annetahan	-5997
▁antamahan	-5998
▁arveleisi	-5999
▁eksynyttä	-6000
▁istumahan	-6001
▁kantajasi	-6002
▁katsojata	-6003
▁keihäsvar	-6004
▁korjahani	-6005
▁kymmenenn	-6006
▁kypeniksi	-6007
▁lainehien	-6008
▁lankeaisi	-6009
▁liikkuvan	-6010
▁luonnotar	-6011
▁milläkänä	-6012
▁ottamatta	-6013
▁palavahan	-6014
▁rannallen	-6015
▁siskoseni	-6016
▁soitantoa	-6017
▁sormukset	-6018
▁synkeällä	-6019
▁tuotanehe	-6020
▁tyttäreni	-6021
▁vaattehia	-6022
▁vammoille	-6023
▁viiakosta	-6024
▁ystäväksi	-6025
▁Lyhykäinen	-6026
▁Untamoinen	-6027
▁hopeankana	-6028
▁ikkunoissa	-6029
▁imettäjäni	-6030
▁kaatamatta	-6031
▁kartanosta	-6032
▁kasvavaksi	-6033
▁kaunihista	-6034
▁kivimäestä	-6035
▁kuitenkana	-6036
▁kukkulalle	-6037
▁kuulematta	-6038
▁kuumottavi	-6039
▁käsivarren	-6040
▁käsivarsin	-6041
▁leipojaksi	-6042
▁luppakorva	-6043
▁lähtemästä	-6044
▁maailmassa	-6045
▁mättähälle	-6046
▁noutamahan	-6047
▁paimenessa	-6048
▁polviseksi	-6049
▁purjehesen	-6050
▁pyytämähän	-6051
▁päiväyksen	-6052
▁rautakoura	-6053
▁samoamahan	-6054
▁seisomahan	-6055
▁suomuhauin	-6056
▁tanterelle	-6057
▁tanterille	-6058
▁umpiputken	-6059
▁vanhempani	-6060
▁varvikosta	-6061
▁vempelellä	-6062
▁vierahilla	-6063
▁vierahille	-6064
▁vuotamahan	-6065
▁väkipuolet	-6066
▁ajeltavaksi	-6067
▁itselläniki	-6068
▁karkeloissa	-6069
▁kartanoilla	-6070
▁katseleikse	-6071
▁kaunihimman	-6072
▁kohennaikse	-6073
▁kuullakseni	-6074
▁kynnykselle	-6075
▁kynnyksellä	-6076
▁laateleikse	-6077
▁lappalainen	-6078
▁lapsellensa	-6079
▁lekuttelevi	-6080
▁lietsehestä	-6081
▁liiteleikse	-6082
▁maksankarva	-6083
▁matkamiehen	-6084
▁nuorukainen	-6085
▁pientarella	-6086
▁pientarelle	-6087
▁rautaisilla	-6088
▁saajanaisen	-6089
▁sukkulainen	-6090
▁tuliterällä	-6091
▁työnnetähän	-6092
▁unohtaminen	-6093
▁vanhempansa	-6094
▁varaväkevän	-6095
▁viimeistäki	-6096
▁kaikenlainen	-6097
▁kerittämähän	-6098
▁nimettömällä	-6099
▁sortuneheksi	-6100
▁valehtelitki	-6101
▁lempiluottehia	-6102
Ki	-6103
Ko	-6104
ge	-6105
Kyl	-6106
Min	-6107
Nyt	-6108
Onp	-6109
Sai	-6110
Val	-6111
eät	-6112
huo	-6113
iha	-6114
itu	-6115
kät	-6116
orm	-6117
paa	-6118
por	-6119
pät	-6120
sul	-6121
une	-6122
vih	-6123
ähy	-6124
äär	-6125
öyh	-6126
▁Ki	-6127
▁Le	-6128
▁Lu	-6129
▁Ly	-6130
▁Lö	-6131
▁Su	-6132
▁ho	-6133
▁ir	-6134
▁ry	-6135
Aina	-6136
Enpä	-6137
Etkä	-6138
Etpä	-6139
Itke	-6140
Kyll	-6141
Minä	-6142
Neit	-6143
Pois	-6144
Tapa	-6145
Tuol	-6146
Vesi	-6147
aika	-6148
anen	-6149
aper	-6150
arat	-6151
arik	-6152
asin	-6153
atar	-6154
atoi	-6155
ehiä	-6156
einä	-6157
empä	-6158
emät	-6159
ensa	-6160
erin	-6161
etse	-6162
iani	-6163
ikot	-6164
ikän	-6165
ikäs	-6166
ilmä	-6167
imia	-6168
insa	-6169
into	-6170
iper	-6171
ivas	-6172
ivet	-6173
jäsi	-6174
keat	-6175
kien	-6176
kina	-6177
kosi	-6178
kovi	-6179
kuna	-6180
llis	-6181
luun	-6182
mmit	-6183
oksa	-6184
oleh	-6185
olki	-6186
omma	-6187
omme	-6188
orea	-6189
otte	-6190
perö	-6191
petä	-6192
peät	-6193
sani	-6194
säsi	-6195
taki	-6196
teko	-6197
tola	-6198
ttui	-6199
täne	-6200
uesi	-6201
uhet	-6202
ukot	-6203
unah	-6204
unut	-6205
urat	-6206
usin	-6207
uska	-6208
varr	-6209
vart	-6210
vään	-6211
yhyn	-6212
yrsk	-6213
ytty	-6214
ytän	-6215
ähyt	-6216
ämpi	-6217
änen	-6218
ätyi	-6219
öyrä	-6220
▁Ain	-6221
▁Eip	-6222
▁Har	-6223
▁Hii	-6224
▁Iku	-6225
▁Ikä	-6226
▁Jän	-6227
▁Keh	-6228
▁Lie	-6229
▁Mar	-6230
▁Men	-6231
▁Mie	-6232
▁Pah	-6233
▁Pol	-6234
▁Rut	-6235
▁Sim	-6236
▁Tee	-6237
▁Ter	-6238
▁Tuh	-6239
▁Tur	-6240
▁Vet	-6241
▁Vie	-6242
▁Yli	-6243
▁aia	-6244
▁app	-6245
▁aum	-6246
▁ham	-6247
▁hul	-6248
▁hun	-6249
▁hyl	-6250
▁hää	-6251
▁ime	-6252
▁jop	-6253
▁ket	-6254
▁käp	-6255
▁les	-6256
▁löi	-6257
▁muj	-6258
▁mul	-6259
▁mät	-6260
▁nää	-6261
▁oja	-6262
▁pis	-6263
▁pon	-6264
▁rin	-6265
▁riv	-6266
▁rom	-6267
▁syy	-6268
▁sää	-6269
▁tau	-6270
▁ten	-6271
▁uur	-6272
▁vak	-6273
▁yll	-6274
Hyvin	-6275
Kyllä	-6276
Käyös	-6277
Lähen	-6278
Lähet	-6279
Millä	-6280
Rauta	-6281
Tuoll	-6282
Tuoss	-6283
ehkur	-6284
eitti	-6285
elihe	-6286
emmel	-6287
emmän	-6288
emmät	-6289
empoi	-6290
eästi	-6291
ihman	-6292
ikäli	-6293
illyt	-6294
immän	-6295
isena	-6296
isnut	-6297
istui	-6298
istun	-6299
isvyö	-6300
itasi	-6301
iänsä	-6302
jaset	-6303
jatar	-6304
kalle	-6305
kasal	-6306
katta	-6307
katur	-6308
kella	-6309
kerti	-6310
kkien	-6311
kkäsi	-6312
kolta	-6313
kunta	-6314
lahta	-6315
liltä	-6316
ltihe	-6317
maata	-6318
masti	-6319
mieli	-6320
millä	-6321
mäkeä	-6322
oansa	-6323
oitta	-6324
pajat	-6325
ppäsi	-6326
päivä	-6327
pöyän	-6328
risti	-6329
sehen	-6330
silmä	-6331
tanen	-6332
telko	-6333
teltu	-6334
tunut	-6335
tänyt	-6336
tössä	-6337
ualla	-6338
uihin	-6339
uoret	-6340
usten	-6341
vampi	-6342
voipi	-6343
yinen	-6344
yiset	-6345
änäpä	-6346
öisnä	-6347
▁Akka	-6348
▁Heti	-6349
▁Hiih	-6350
▁Joka	-6351
▁Laai	-6352
▁Mies	-6353
▁Ruma	-6354
▁Soit	-6355
▁Susi	-6356
▁Toki	-6357
▁Venä	-6358
▁Vilu	-6359
▁ahoa	-6360
▁airo	-6361
▁ajoh	-6362
▁alku	-6363
▁atri	-6364
▁auer	-6365
▁auko	-6366
▁eloa	-6367
▁elon	-6368
▁epeä	-6369
▁erän	-6370
▁eväh	-6371
▁haik	-6372
▁hang	-6373
▁hirm	-6374
▁hota	-6375
▁höyh	-6376
▁ikäv	-6377
▁illa	-6378
▁jaka	-6379
▁jalo	-6380
▁juoh	-6381
▁juol	-6382
▁jänn	-6383
▁kalk	-6384
▁kalp	-6385
▁kask	-6386
▁kaut	-6387
▁kave	-6388
▁kiik	-6389
▁kimm	-6390
▁kinn	-6391
▁kirj	-6392
▁kisa	-6393
▁kuik	-6394
▁kumu	-6395
▁kutr	-6396
▁kylv	-6397
▁kysy	-6398
▁kyty	-6399
▁kyyk	-6400
▁kämm	-6401
▁laah	-6402
▁laki	-6403
▁laks	-6404
▁lave	-6405
▁lepä	-6406
▁lika	-6407
▁lohi	-6408
▁luoa	-6409
▁luut	-6410
▁läik	-6411
▁main	-6412
▁mais	-6413
▁maka	-6414
▁maon	-6415
▁marj	-6416
▁mull	-6417
▁mure	-6418
▁mätä	-6419
▁naim	-6420
▁nain	-6421
▁nelj	-6422
▁ojel	-6423
▁olan	-6424
▁olin	-6425
▁omat	-6426
▁omin	-6427
▁opas	-6428
▁orih	-6429
▁ouos	-6430
▁pata	-6431
▁pehm	-6432
▁peri	-6433
▁piit	-6434
▁piuk	-6435
▁poja	-6436
▁puik	-6437
▁puto	-6438
▁puuh	-6439
▁raks	-6440
▁rauh	-6441
▁repp	-6442
▁rieh	-6443
▁riip	-6444
▁ripe	-6445
▁riuk	-6446
▁sepp	-6447
▁seur	-6448
▁siip	-6449
▁sike	-6450
▁sopi	-6451
▁soti	-6452
▁soua	-6453
▁sovi	-6454
▁suik	-6455
▁suke	-6456
▁sula	-6457
▁sure	-6458
▁syön	-6459
▁säih	-6460
▁säik	-6461
▁taar	-6462
▁talo	-6463
▁taon	-6464
▁tavi	-6465
▁telj	-6466
▁tina	-6467
▁tora	-6468
▁tork	-6469
▁tuor	-6470
▁tupp	-6471
▁työt	-6472
▁täss	-6473
▁uhku	-6474
▁usko	-6475
▁utar	-6476
▁vaja	-6477
▁veij	-6478
▁veis	-6479
▁vilu	-6480
▁väke	-6481
▁öitä	-6482
Noinpa	-6483
Pahoin	-6484
Viikon	-6485
ahamme	-6486
ahilla	-6487
ahutan	-6488
akseni	-6489
alaksi	-6490
altani	-6491
asaloa	-6492
aseksi	-6493
ehinen	-6494
ehistä	-6495
ellani	-6496
ellasi	-6497
ellesi	-6498
emasta	-6499
emista	-6500
estäni	-6501
etellä	-6502
etyksi	-6503
eväksi	-6504
huomen	-6505
ihinsä	-6506
ihojen	-6507
ikasta	-6508
ikossa	-6509
imasta	-6510
imeksi	-6511
inaian	-6512
inenki	-6513
inensä	-6514
isesti	-6515
isinko	-6516
isissä	-6517
issani	-6518
itahan	-6519
itsevi	-6520
ittele	-6521
ittihe	-6522
ivettä	-6523
iville	-6524
jaseni	-6525
joilla	-6526
joista	-6527
kansan	-6528
kasäär	-6529
kelevi	-6530
koista	-6531
llenki	-6532
llänsä	-6533
ltänsä	-6534
mailla	-6535
matoin	-6536
miehet	-6537
mmaksi	-6538
mmasta	-6539
moille	-6540
moinen	-6541
mättöm	-6542
ollesi	-6543
ompata	-6544
osenko	-6545
osessa	-6546
ottihe	-6547
ottuna	-6548
portah	-6549
ppahat	-6550
purren	-6551
puussa	-6552
päihin	-6553
uaista	-6554
uistan	-6555
ukassa	-6556
umalan	-6557
umasta	-6558
urosta	-6559
usormi	-6560
uttaja	-6561
uvista	-6562
vöihin	-6563
▁Aluen	-6564
▁Eläkä	-6565
▁Heitä	-6566
▁Hyvän	-6567
▁Jumal	-6568
▁Katso	-6569
▁Keksi	-6570
▁Kokko	-6571
▁Kukas	-6572
▁Kului	-6573
▁Lähte	-6574
▁Minkä	-6575
▁Nosti	-6576
▁Sinne	-6577
▁Takoi	-6578
▁Tuoni	-6579
▁Tyttö	-6580
▁Tähti	-6581
▁Ukkoa	-6582
▁Untam	-6583
▁Viron	-6584
▁Yhdes	-6585
▁ahjon	-6586
▁aisan	-6587
▁akkas	-6588
▁alaha	-6589
▁askar	-6590
▁astua	-6591
▁asuja	-6592
▁asunn	-6593
▁eilen	-6594
▁eloma	-6595
▁elävi	-6596
▁etelä	-6597
▁halti	-6598
▁havun	-6599
▁heimo	-6600
▁herja	-6601
▁hyytä	-6602
▁häntä	-6603
▁ikima	-6604
▁ikäsi	-6605
▁iljen	-6606
▁ilkeä	-6607
▁iskem	-6608
▁jotka	-6609
▁julki	-6610
▁jälen	-6611
▁jälki	-6612
▁jänön	-6613
▁kaati	-6614
▁kahat	-6615
▁kaita	-6616
▁kalpa	-6617
▁kalva	-6618
▁kaman	-6619
▁kapla	-6620
▁kaste	-6621
▁katal	-6622
▁kaune	-6623
▁kekäl	-6624
▁keseä	-6625
▁kosjo	-6626
▁kosta	-6627
▁kotoa	-6628
▁kuiva	-6629
▁kujan	-6630
▁kukon	-6631
▁kuloh	-6632
▁kuuet	-6633
▁kuunn	-6634
▁kyleä	-6635
▁kylmi	-6636
▁käytä	-6637
▁lahjo	-6638
▁laiha	-6639
▁laiti	-6640
▁lause	-6641
▁lehen	-6642
▁lehmä	-6643
▁leipä	-6644
▁lempo	-6645
▁lennä	-6646
▁lepät	-6647
▁leuan	-6648
▁lohen	-6649
▁lohil	-6650
▁luoja	-6651
▁luopi	-6652
▁lyöen	-6653
▁länkä	-6654
▁läävä	-6655
▁löihe	-6656
▁löyly	-6657
▁löyät	-6658
▁majan	-6659
▁malta	-6660
▁meitä	-6661
▁melsk	-6662
▁mentä	-6663
▁metsi	-6664
▁miell	-6665
▁mutso	-6666
▁myötä	-6667
▁niemi	-6668
▁nuoti	-6669
▁nöyrä	-6670
▁ohran	-6671
▁oisit	-6672
▁oivan	-6673
▁osata	-6674
▁pahoa	-6675
▁pajoa	-6676
▁palle	-6677
▁parvi	-6678
▁pehme	-6679
▁pieks	-6680
▁piilo	-6681
▁pisin	-6682
▁polta	-6683
▁poroa	-6684
▁pouta	-6685
▁punap	-6686
▁rajoa	-6687
▁rauni	-6688
▁riisu	-6689
▁ruoko	-6690
▁saapu	-6691
▁sakar	-6692
▁saman	-6693
▁samma	-6694
▁sanot	-6695
▁sarka	-6696
▁satah	-6697
▁satoi	-6698
▁seist	-6699
▁sepän	-6700
▁siell	-6701
▁siipi	-6702
▁sileä	-6703
▁silla	-6704
▁siret	-6705
▁sormi	-6706
▁sortu	-6707
▁sotku	-6708
▁sotoa	-6709
▁sovit	-6710
▁sukka	-6711
▁sulkk	-6712
▁suloa	-6713
▁suoja	-6714
▁suota	-6715
▁syttä	-6716
▁syviä	-6717
▁tarve	-6718
▁tehkö	-6719
▁teitä	-6720
▁terän	-6721
▁tokko	-6722
▁tukan	-6723
▁tulip	-6724
▁tuotu	-6725
▁turpa	-6726
▁tuttu	-6727
▁tyhjä	-6728
▁tälle	-6729
▁täysi	-6730
▁töitä	-6731
▁uksen	-6732
▁umpis	-6733
▁unoha	-6734
▁vahva	-6735
▁vajoa	-6736
▁valat	-6737
▁valta	-6738
▁verin	-6739
▁veräj	-6740
▁vesat	-6741
▁viekö	-6742
▁vieno	-6743
▁viere	-6744
▁viest	-6745
▁vihur	-6746
▁viiet	-6747
▁vitiä	-6748
▁vitsi	-6749
▁väris	-6750
▁väänn	-6751
▁ylenn	-6752
▁yöllä	-6753
▁äärtä	-6754
allehen	-6755
annalle	-6756
annassa	-6757
attoman	-6758
eleisin	-6759
ellista	-6760
elmoita	-6761
eltansa	-6762
eltuasi	-6763
emmille	-6764
empihin	-6765
ettavan	-6766
ettäviä	-6767
illenki	-6768
inalinn	-6769
isopusi	-6770
ivaaran	-6771
kahansa	-6772
kaisihe	-6773
kemähän	-6774
kivelle	-6775
kkoihin	-6776
kumppal	-6777
mpikana	-6778
oisessa	-6779
okannas	-6780
olehmän	-6781
oloissa	-6782
ossansa	-6783
otanter	-6784
ottimet	-6785
paaelle	-6786
perille	-6787
tehessa	-6788
telivät	-6789
telöhön	-6790
tomahan	-6791
tänynnä	-6792
ukoille	-6793
uksehen	-6794
unnolta	-6795
uttivat	-6796
ännästä	-6797
▁Astuvi	-6798
▁Käypäs	-6799
▁Lemmen	-6800
▁Muista	-6801
▁Nuoret	-6802
▁Päivyt	-6803
▁Rutjan	-6804
▁Tieran	-6805
▁Toinen	-6806
▁Tuohon	-6807
▁Tuurin	-6808
▁aiaksi	-6809
▁ainaki	-6810
▁ajalla	-6811
▁ajoihe	-6812
▁anella	-6813
▁asetta	-6814
▁avitta	-6815
▁ehoksi	-6816
▁emännä	-6817
▁enämpi	-6818
▁etinen	-6819
▁hapata	-6820
▁hetken	-6821
▁hiihin	-6822
▁hinkal	-6823
▁hirttä	-6824
▁hirvet	-6825
▁hoivan	-6826
▁hyinen	-6827
▁hyiset	-6828
▁hännän	-6829
▁hännät	-6830
▁ihanan	-6831
▁ikirun	-6832
▁illoin	-6833
▁ilolle	-6834
▁isonsa	-6835
▁itkien	-6836
▁joella	-6837
▁joukko	-6838
▁juovat	-6839
▁jäiset	-6840
▁järvet	-6841
▁kaatui	-6842
▁kaitse	-6843
▁kaivon	-6844
▁kakkar	-6845
▁kannun	-6846
▁kanoja	-6847
▁karttu	-6848
▁karvat	-6849
▁kaukoa	-6850
▁kaupan	-6851
▁kengit	-6852
▁keskeä	-6853
▁kiellä	-6854
▁kiertä	-6855
▁kiitin	-6856
▁kiitän	-6857
▁kipuja	-6858
▁kohenn	-6859
▁koivut	-6860
▁kolmet	-6861
▁kolmis	-6862
▁konkel	-6863
▁konnan	-6864
▁korret	-6865
▁korvan	-6866
▁korvet	-6867
▁koskas	-6868
▁koskem	-6869
▁kosket	-6870
▁kostoa	-6871
▁kotisi	-6872
▁kuinka	-6873
▁kuivan	-6874
▁kuluvi	-6875
▁kummut	-6876
▁kunnia	-6877
▁kuohun	-6878
▁kuolin	-6879
▁kutoma	-6880
▁kuulen	-6881
▁kuulut	-6882
▁kuutta	-6883
▁kyhäsi	-6884
▁kylmän	-6885
▁kylmät	-6886
▁kynsin	-6887
▁kyyhky	-6888
▁käestä	-6889
▁käskyn	-6890
▁käänny	-6891
▁käännä	-6892
▁laajan	-6893
▁laella	-6894
▁laelle	-6895
▁laitoa	-6896
▁laitti	-6897
▁laivoa	-6898
▁lammas	-6899
▁laukki	-6900
▁lautta	-6901
▁levitä	-6902
▁levätä	-6903
▁lienen	-6904
▁linnoa	-6905
▁luulit	-6906
▁lämmit	-6907
▁mahlat	-6908
▁maitop	-6909
▁meille	-6910
▁merkki	-6911
▁metsät	-6912
▁miniän	-6913
▁mokoma	-6914
▁muiksi	-6915
▁mullan	-6916
▁murien	-6917
▁murkin	-6918
▁mustat	-6919
▁muuksi	-6920
▁muunki	-6921
▁määrin	-6922
▁naukui	-6923
▁naulat	-6924
▁nauroi	-6925
▁niillä	-6926
▁nousin	-6927
▁nälkäh	-6928
▁ojenta	-6929
▁olosia	-6930
▁omaksi	-6931
▁omalla	-6932
▁opasta	-6933
▁opasti	-6934
▁oritta	-6935
▁osattu	-6936
▁otetta	-6937
▁pakene	-6938
▁paljoa	-6939
▁panihe	-6940
▁parras	-6941
▁partas	-6942
▁peitti	-6943
▁peuran	-6944
▁pilkko	-6945
▁pillin	-6946
▁pitoja	-6947
▁poimet	-6948
▁poimin	-6949
▁porope	-6950
▁porstu	-6951
▁portto	-6952
▁puihin	-6953
▁puiset	-6954
▁purnun	-6955
▁purnut	-6956
▁puuttu	-6957
▁pyyhki	-6958
▁päitse	-6959
▁pälkäh	-6960
▁rapasi	-6961
▁raukat	-6962
▁ruumen	-6963
▁salvat	-6964
▁sanele	-6965
▁sanoin	-6966
▁sarven	-6967
▁saunoa	-6968
▁siirry	-6969
▁sillat	-6970
▁sintsi	-6971
▁soassa	-6972
▁soasta	-6973
▁soille	-6974
▁sonnin	-6975
▁suihki	-6976
▁surmat	-6977
▁suulle	-6978
▁suulta	-6979
▁suumal	-6980
▁sykysy	-6981
▁synnyt	-6982
▁sysäsi	-6983
▁syyttä	-6984
▁syömät	-6985
▁taimen	-6986
▁talvet	-6987
▁tappar	-6988
▁tavata	-6989
▁teille	-6990
▁tiesin	-6991
▁tiestä	-6992
▁tunnin	-6993
▁tuonut	-6994
▁tuoppi	-6995
▁tuoreh	-6996
▁tupani	-6997
▁turpeh	-6998
▁turvat	-6999
▁tykönä	-7000
▁täytyi	-7001
▁ulkona	-7002
▁ulkotö	-7003
▁ulomma	-7004
▁umpila	-7005
▁urahti	-7006
▁uralle	-7007
▁vaiker	-7008
▁valasi	-7009
▁valkka	-7010
▁varsat	-7011
▁vaskik	-7012
▁vaskiv	-7013
▁veestä	-7014
▁vehnän	-7015
▁veisti	-7016
▁velhot	-7017
▁vemmel	-7018
▁verrat	-7019
▁vetäjä	-7020
▁veälti	-7021
▁viikat	-7022
▁virkin	-7023
▁virkka	-7024
▁virrat	-7025
▁viskoi	-7026
▁vuonna	-7027
▁vyöhyt	-7028
▁yheksi	-7029
▁yhellä	-7030
istäkänä	-7031
isvyöllä	-7032
kattihin	-7033
kymmenes	-7034
oistansa	-7035
ottaessa	-7036
puolelle	-7037
sijoille	-7038
tullutta	-7039
ustelevi	-7040
▁Harvoin	-7041
▁Kullerv	-7042
▁Lapissa	-7043
▁Marjata	-7044
▁Vaihoit	-7045
▁aaltoja	-7046
▁ahjohon	-7047
▁ainakin	-7048
▁aivohon	-7049
▁akkojen	-7050
▁hamehen	-7051
▁hanhien	-7052
▁hatutto	-7053
▁hiekkar	-7054
▁hienois	-7055
▁hivusta	-7056
▁huotras	-7057
▁hyvälle	-7058
▁hämärän	-7059
▁istuihe	-7060
▁istutti	-7061
▁itkeäni	-7062
▁itkulle	-7063
▁itseäsi	-7064
▁jalkoja	-7065
▁joutuvi	-7066
▁jätetty	-7067
▁kaiskun	-7068
▁kaltoin	-7069
▁kantelo	-7070
▁kasvava	-7071
▁katetta	-7072
▁katkenn	-7073
▁katosin	-7074
▁kielteä	-7075
▁kisassa	-7076
▁kiveltä	-7077
▁kivikol	-7078
▁kivinen	-7079
▁kohenti	-7080
▁koville	-7081
▁kovissa	-7082
▁kulkevi	-7083
▁kulossa	-7084
▁kumotti	-7085
▁kumppal	-7086
▁kuolema	-7087
▁kyyhkyl	-7088
▁källerö	-7089
▁käännät	-7090
▁kääperö	-7091
▁laskene	-7092
▁lattian	-7093
▁lauloin	-7094
▁lautsat	-7095
▁lehossa	-7096
▁leukapi	-7097
▁levittä	-7098
▁lujahan	-7099
▁lujempi	-7100
▁lunasti	-7101
▁lykkäsi	-7102
▁lähemmä	-7103
▁manalle	-7104
▁menisin	-7105
▁meryttä	-7106
▁metisen	-7107
▁mielesi	-7108
▁mieltyi	-7109
▁minulta	-7110
▁murkina	-7111
▁muualla	-7112
▁naurusu	-7113
▁nukahta	-7114
▁oksalle	-7115
▁osannut	-7116
▁otsosen	-7117
▁pahalle	-7118
▁paikoin	-7119
▁painuvi	-7120
▁pajassa	-7121
▁pakotta	-7122
▁panisin	-7123
▁panohon	-7124
▁parahin	-7125
▁pesästä	-7126
▁pihalta	-7127
▁pikkuis	-7128
▁pitelin	-7129
▁povehen	-7130
▁punaker	-7131
▁päitset	-7132
▁päätyvi	-7133
▁päätäni	-7134
▁raaolle	-7135
▁rasvoja	-7136
▁rinnoin	-7137
▁ruoskan	-7138
▁sanatto	-7139
▁sanelin	-7140
▁saranat	-7141
▁savesta	-7142
▁seisovi	-7143
▁selillä	-7144
▁siitäki	-7145
▁sijalla	-7146
▁sijalle	-7147
▁sinulla	-7148
▁sisilis	-7149
▁sivulta	-7150
▁somasti	-7151
▁sormien	-7152
▁sotihin	-7153
▁sovinto	-7154
▁suvehen	-7155
▁sylihin	-7156
▁syvemmä	-7157
▁syvähän	-7158
▁säkenev	-7159
▁takasal	-7160
▁tarttui	-7161
▁tiaisen	-7162
▁tieolla	-7163
▁tulelle	-7164
▁tulelta	-7165
▁tulevat	-7166
▁tuuitta	-7167
▁uunilta	-7168
▁uutehen	-7169
▁valahti	-7170
▁valansa	-7171
▁valehia	-7172
▁varpela	-7173
▁venoksi	-7174
▁verevän	-7175
▁veräjät	-7176
▁vesatto	-7177
▁vetäisi	-7178
▁vieläki	-7179
▁vieretä	-7180
▁vilussa	-7181
▁voietta	-7182
Katselevi	-7183
ahtanunna	-7184
uttamassa	-7185
uttomaksi	-7186
▁Metsolan	-7187
▁Yhdeksäs	-7188
▁ainoinen	-7189
▁ajatusta	-7190
▁akkaseni	-7191
▁astuessa	-7192
▁aukealla	-7193
▁haljakan	-7194
▁helmansa	-7195
▁hopealla	-7196
▁hyräytyi	-7197
▁hyvinkin	-7198
▁hyvyyttä	-7199
▁ilmoille	-7200
▁juomahan	-7201
▁kaljojen	-7202
▁kananmun	-7203
▁kankahan	-7204
▁kansasta	-7205
▁kantelon	-7206
▁kaulasta	-7207
▁kehreäjä	-7208
▁kengättä	-7209
▁keskiker	-7210
▁kielasta	-7211
▁kiitetty	-7212
▁kintahat	-7213
▁kohtoavi	-7214
▁koskehen	-7215
▁kuivista	-7216
▁kullalla	-7217
▁kuloista	-7218
▁käymähän	-7219
▁käytyäsi	-7220
▁lampihin	-7221
▁laululle	-7222
▁lintujen	-7223
▁maltahia	-7224
▁marjahan	-7225
▁mieheksi	-7226
▁neitojen	-7227
▁paikalla	-7228
▁paimenen	-7229
▁pakkasen	-7230
▁paloiksi	-7231
▁pannahan	-7232
▁pellolle	-7233
▁peltohon	-7234
▁pienestä	-7235
▁pienillä	-7236
▁pimeässä	-7237
▁poikoasi	-7238
▁portahan	-7239
▁punainen	-7240
▁punaiset	-7241
▁pyhyyttä	-7242
▁pystössä	-7243
▁saamatta	-7244
▁saatteli	-7245
▁saavaksi	-7246
▁sanoisin	-7247
▁siimalla	-7248
▁silmille	-7249
▁sormella	-7250
▁sormilta	-7251
▁suorinut	-7252
▁suuresti	-7253
▁suurihin	-7254
▁suurilla	-7255
▁suutansa	-7256
▁syrjähän	-7257
▁säilällä	-7258
▁säärivar	-7259
▁tarkkoja	-7260
▁tarpehen	-7261
▁teloille	-7262
▁tiloilla	-7263
▁toisessa	-7264
▁toisteki	-7265
▁tuhansia	-7266
▁tuiskuna	-7267
▁tuopilla	-7268
▁tuulehen	-7269
▁tyttöäsi	-7270
▁täytehen	-7271
▁ulapalla	-7272
▁urohoksi	-7273
▁vaatevar	-7274
▁vallassa	-7275
▁vatsansa	-7276
▁vatsasta	-7277
▁veitikän	-7278
▁venoista	-7279
▁vieressä	-7280
▁vietihin	-7281
▁vihainen	-7282
▁vihaisen	-7283
huomenessa	-7284
▁Kalevatar	-7285
▁Simasaloa	-7286
▁ahovieret	-7287
▁aioinkana	-7288
▁airoillen	-7289
▁ehommaksi	-7290
▁ensinkänä	-7291
▁hapsiansa	-7292
▁ikisopusi	-7293
▁juoksevan	-7294
▁kalliolle	-7295
▁kaonnutta	-7296
▁katovalla	-7297
▁kauheaksi	-7298
▁keltainen	-7299
▁koivuinen	-7300
▁korkealle	-7301
▁kukkujata	-7302
▁kultapyör	-7303
▁kysytteli	-7304
▁kyyneleni	-7305
▁lakkapäät	-7306
▁lapsiansa	-7307
▁laulelevi	-7308
▁liinalinn	-7309
▁luottehet	-7310
▁matkoille	-7311
▁miekkansa	-7312
▁mittelevi	-7313
▁osoajaksi	-7314
▁pantanehe	-7315
▁pikkuisen	-7316
▁pirttihin	-7317
▁pyyetähän	-7318
▁päivinäsi	-7319
▁päivänäpä	-7320
▁soitellen	-7321
▁sormiansa	-7322
▁syntymäsi	-7323
▁säätelevi	-7324
▁taitelevi	-7325
▁tervehenä	-7326
▁terveyttä	-7327
▁tuotakana	-7328
▁täysinesi	-7329
▁valkeahan	-7330
▁valkeampi	-7331
▁valkeutta	-7332
▁vastaella	-7333
▁venehestä	-7334
▁veräjille	-7335
▁veräjillä	-7336
▁viestinen	-7337
▁viikoista	-7338
▁viimeinki	-7339
▁villavaip	-7340
▁värttinän	-7341
Sulhokainen	-7342
karvallinen	-7343
▁Karjalahan	-7344
▁Lähtekämme	-7345
▁Metsolahan	-7346
▁Osmottaren	-7347
▁Pimentolan	-7348
▁Tuonelassa	-7349
▁Tuonelasta	-7350
▁Virokannas	-7351
▁aalloillen	-7352
▁anelemahan	-7353
▁anoppiseni	-7354
▁armollinen	-7355
▁ensimäisnä	-7356
▁halkaisevi	-7357
▁hattarojen	-7358
▁hettehestä	-7359
▁hettehistä	-7360
▁huoparilla	-7361
▁kaatununna	-7362
▁kainalosta	-7363
▁kankahasen	-7364
▁kannetahan	-7365
▁kapsahutti	-7366
▁karsinassa	-7367
▁kasvamahan	-7368
▁kasvamatta	-7369
▁kasvinaian	-7370
▁katoamatta	-7371
▁katselevat	-7372
▁katteheksi	-7373
▁kaunihilla	-7374
▁kaunihille	-7375
▁kiehumahan	-7376
▁kintahatto	-7377
▁korkeuinen	-7378
▁kukkumahan	-7379
▁kulkemassa	-7380
▁kullankana	-7381
▁kullansorm	-7382
▁kuolemahan	-7383
▁kutsumatta	-7384
▁kuulemassa	-7385
▁kuuntelevi	-7386
▁kylvämähän	-7387
▁kymmenettä	-7388
▁käyessänsä	-7389
▁lahjominen	-7390
▁lainehilta	-7391
▁lainehisin	-7392
▁lakkipäien	-7393
▁lankapaula	-7394
▁latvasehen	-7395
▁laulamassa	-7396
▁laulamatta	-7397
▁loitompata	-7398
▁luotehesta	-7399
▁lähetäikse	-7400
▁lähtehestä	-7401
▁lähtehistä	-7402
▁maholehmän	-7403
▁maitosesta	-7404
▁makoamahan	-7405
▁manterehen	-7406
▁mesileivän	-7407
▁muuttelihe	-7408
▁nousevassa	-7409
▁nuorempana	-7410
▁nälkähisen	-7411
▁ongelmoita	-7412
▁onnellinen	-7413
▁paimeneksi	-7414
▁painamahan	-7415
▁painatteli	-7416
▁pintapöyän	-7417
▁piättelevi	-7418
▁pohjosehen	-7419
▁poikimahan	-7420
▁poiuttansa	-7421
▁potkaisihe	-7422
▁pälkähästä	-7423
▁päästyänsä	-7424
▁salajoukon	-7425
▁siltalauat	-7426
▁siniotusta	-7427
▁sorkkasäär	-7428
▁sorkutella	-7429
▁sortamatta	-7430
▁sotisopani	-7431
▁suojassasi	-7432
▁suoritteli	-7433
▁synnyntäsi	-7434
▁syntymättä	-7435
▁syötetähän	-7436
▁talvisilla	-7437
▁tietämähän	-7438
▁toimitteli	-7439
▁tulleheksi	-7440
▁tuntumatto	-7441
▁tutkijaksi	-7442
▁tuulemahan	-7443
▁valvatelta	-7444
▁valvehella	-7445
▁vatsanvään	-7446
▁vierettele	-7447
▁voitehilla	-7448
▁Kaukomieltä	-7449
▁Lemmenlahta	-7450
▁Pohjolainen	-7451
▁Päivättären	-7452
▁Saarelaisen	-7453
▁ajatteleisi	-7454
▁heinäkengät	-7455
▁heittäminen	-7456
▁hiihäntähän	-7457
▁hyrähtelevi	-7458
▁imehnisille	-7459
▁itkettäissä	-7460
▁juomingissa	-7461
▁juostaksesi	-7462
▁kahattelevi	-7463
▁kalanluista	-7464
▁kannettihin	-7465
▁kanteloinen	-7466
▁kanteloista	-7467
▁karehtijata	-7468
▁kaunihimmat	-7469
▁keskimäistä	-7470
▁kielellänsä	-7471
▁kivimäkehen	-7472
▁koukkusormi	-7473
▁kultaisella	-7474
▁kultaisihin	-7475
▁kuumoksesta	-7476
▁kynnettihin	-7477
▁kääntämättä	-7478
▁liikkumahan	-7479
▁liikunnolta	-7480
▁läylemmäksi	-7481
▁pahempikana	-7482
▁paistamatta	-7483
▁pyörtehelle	-7484
▁päästimeksi	-7485
▁rekosehensa	-7486
▁rinnanristi	-7487
▁saajanainen	-7488
▁sanoneheksi	-7489
▁seinävieret	-7490
▁sovittelevi	-7491
▁suhuttelevi	-7492
▁suuremmaksi	-7493
▁tuhuttelevi	-7494
▁tuonnempata	-7495
▁turjalainen	-7496
▁vaattehensa	-7497
▁viikommaksi	-7498
▁vähäväkinen	-7499
▁helmisvyöllä	-7500
▁henkäiseikse	-7501
▁kalevalaisen	-7502
▁kumottamatta	-7503
▁kutsuttaessa	-7504
▁lohiluotojen	-7505
▁lunastimeksi	-7506
▁luonteleikse	-7507
▁miekkoinensa	-7508
▁rakentamahan	-7509
▁teräksenteko	-7510
▁vähäistäkänä	-7511
▁untelompikana	-7512
▁tuuiteltavaksi	-7513
▁kukkaroisehensa	-7514
▁vainovaatteheni	-7515
'-	-7516
Is	-7517
Ja	-7518
Li	-7519
Lu	-7520
Ma	-7521
Ve	-7522
nn	-7523
pö	-7524
st	-7525
ym	-7526
▁*	-7527
▁:	-7528
Hyv	-7529
Iku	-7530
Kal	-7531
Kuu	-7532
Las	-7533
Osa	-7534
Suv	-7535
Työ	-7536
epo	-7537
era	-7538
hti	-7539
ili	-7540
imm	-7541
isn	-7542
ivo	-7543
jal	-7544
kir	-7545
kyä	-7546
käh	-7547
kän	-7548
laa	-7549
mar	-7550
mel	-7551
muo	-7552
nsä	-7553
oat	-7554
ont	-7555
oti	-7556
ova	-7557
pon	-7558
puu	-7559
päh	-7560
pän	-7561
sun	-7562
tul	-7563
vea	-7564
voa	-7565
yit	-7566
ylö	-7567
yne	-7568
äks	-7569
▁Oh	-7570
▁es	-7571
▁nu	-7572
▁oj	-7573
▁oo	-7574
▁äh	-7575
Eikä	-7576
Josp	-7577
Mies	-7578
Mipä	-7579
Moni	-7580
Saat	-7581
Sain	-7582
aman	-7583
amur	-7584
anto	-7585
aten	-7586
atin	-7587
ehin	-7588
eita	-7589
eiti	-7590
esiä	-7591
etki	-7592
eval	-7593
ijeä	-7594
ikar	-7595
ilan	-7596
iluh	-7597
inan	-7598
iret	-7599
Ann	-7600
Vie	-7601
isan	-7602
isor	-7603
ivyö	-7604
jemm	-7605
kaha	-7606
keit	-7607
keli	-7608
keva	-7609
keän	-7610
kkyi	-7611
kuus	-7612
kyyn	-7613
käsi	-7614
köjä	-7615
lana	-7616
lläs	-7617
lmän	-7618
mmel	-7619
mmän	-7620
mpik	-7621
mäni	-7622
ohot	-7623
oisi	-7624
oiti	-7625
omia	-7626
onut	-7627
otit	-7628
otsa	-7629
pais	-7630
pesi	-7631
ppia	-7632
ppyr	-7633
pärä	-7634
rkeä	-7635
rkäs	-7636
rret	-7637
räjä	-7638
sana	-7639
sien	-7640
skui	-7641
skut	-7642
telä	-7643
tesi	-7644
tosi	-7645
ttuh	-7646
ujat	-7647
ukat	-7648
ukoa	-7649
ukun	-7650
ulka	-7651
unki	-7652
unoa	-7653
uoin	-7654
utat	-7655
utoi	-7656
uttu	-7657
utun	-7658
utut	-7659
uuen	-7660
uuta	-7661
uvot	-7662
vais	-7663
vätä	-7664
änyt	-7665
ärät	-7666
äset	-7667
äski	-7668
äten	-7669
ätin	-7670
östä	-7671
▁Eik	-7672
▁Jou	-7673
▁Kar	-7674
▁Ker	-7675
▁Kir	-7676
▁Kät	-7677
▁Las	-7678
▁Lyö	-7679
▁Onp	-7680
▁Pih	-7681
▁Saa	-7682
▁Sis	-7683
▁Sor	-7684
▁Tao	-7685
▁Teh	-7686
▁Täh	-7687
▁Var	-7688
▁Vih	-7689
▁Vuo	-7690
▁ahv	-7691
▁aih	-7692
▁eik	-7693
▁elo	-7694
▁enk	-7695
▁ero	-7696
▁hei	-7697
▁hih	-7698
▁hit	-7699
Miks	-7700
Teen	-7701
▁huk	-7702
▁huv	-7703
▁hyp	-7704
▁hör	-7705
▁ilv	-7706
▁itä	-7707
▁iät	-7708
▁jäs	-7709
▁kev	-7710
▁käl	-7711
▁lau	-7712
▁lip	-7713
▁lom	-7714
▁lus	-7715
▁lys	-7716
▁mai	-7717
▁nal	-7718
▁nav	-7719
▁niv	-7720
▁näk	-7721
▁oin	-7722
▁pet	-7723
▁rap	-7724
▁ren	-7725
▁reu	-7726
▁rie	-7727
▁rii	-7728
▁roi	-7729
▁rää	-7730
▁sam	-7731
▁taa	-7732
▁tas	-7733
▁tok	-7734
▁tyv	-7735
▁tyy	-7736
▁uia	-7737
▁ulv	-7738
▁uuv	-7739
Kutti	-7740
Menet	-7741
Miten	-7742
Olipa	-7743
Sentä	-7744
aisna	-7745
aistu	-7746
annun	-7747
arvet	-7748
aseni	-7749
atani	-7750
eilla	-7751
eiret	-7752
eitän	-7753
ennan	-7754
erkki	-7755
estit	-7756
heata	-7757
hinsä	-7758
ikset	-7759
inasi	-7760
iruna	-7761
isipa	-7762
itoin	-7763
ivoit	-7764
jatto	-7765
juvan	-7766
jätär	-7767
kaksi	-7768
kasta	-7769
kenkä	-7770
kensä	-7771
kenut	-7772
kieli	-7773
kille	-7774
kiltä	-7775
koani	-7776
koasi	-7777
komia	-7778
kossa	-7779
latva	-7780
leuka	-7781
lkäni	-7782
llesi	-7783
luita	-7784
mansa	-7785
melta	-7786
mesta	-7787
mällä	-7788
oikse	-7789
oitat	-7790
ollen	-7791
osken	-7792
paisi	-7793
puoli	-7794
ranta	-7795
rauan	-7796
senia	-7797
stoin	-7798
taise	-7799
höt	-7800
Sano	-7801
Lempo	-7802
tensa	-7803
tensä	-7804
timet	-7805
toasi	-7806
ttinä	-7807
tunen	-7808
tuuli	-7809
tyisi	-7810
tyäsi	-7811
tävir	-7812
tömän	-7813
uaall	-7814
uahan	-7815
uaika	-7816
uhaja	-7817
uhuni	-7818
uilta	-7819
uinka	-7820
uisin	-7821
ukata	-7822
uksin	-7823
ullen	-7824
unnan	-7825
uonet	-7826
uotan	-7827
uuhen	-7828
uvuor	-7829
viset	-7830
vistu	-7831
vällä	-7832
vässä	-7833
yllyn	-7834
ynnyt	-7835
yylle	-7836
äisen	-7837
ännen	-7838
äytti	-7839
▁Istu	-7840
▁Josp	-7841
▁Kaal	-7842
▁Kivi	-7843
▁Kosi	-7844
▁Kule	-7845
▁Kuun	-7846
▁Mana	-7847
▁Mikä	-7848
▁Oisi	-7849
▁Otta	-7850
▁Pien	-7851
▁Puut	-7852
▁Saan	-7853
▁Seis	-7854
▁Siin	-7855
▁Sout	-7856
▁Suet	-7857
▁Syöj	-7858
▁Vanh	-7859
▁Vesi	-7860
▁Vien	-7861
▁Vuot	-7862
▁ahon	-7863
▁aimo	-7864
▁akan	-7865
▁arki	-7866
▁arvo	-7867
▁auki	-7868
▁aura	-7869
▁auti	-7870
▁ehkä	-7871
▁emme	-7872
▁haih	-7873
▁hair	-7874
▁hait	-7875
▁haua	-7876
▁hell	-7877
▁hely	-7878
▁hieh	-7879
▁hiiv	-7880
▁himm	-7881
▁hipi	-7882
▁hirn	-7883
▁huik	-7884
▁huit	-7885
▁huua	-7886
▁häpe	-7887
▁höry	-7888
▁ikip	-7889
▁ikiv	-7890
▁ilmi	-7891
▁iske	-7892
▁isku	-7893
▁iäti	-7894
▁josp	-7895
▁jotk	-7896
▁juor	-7897
▁jääh	-7898
▁jäät	-7899
kärs	-7900
luku	-7901
Tuuit	-7902
▁Tahi	-7903
▁horj	-7904
▁kaas	-7905
▁kahl	-7906
▁kaim	-7907
▁kaja	-7908
▁kalv	-7909
▁kapo	-7910
▁keuh	-7911
▁kihl	-7912
▁kiih	-7913
▁koha	-7914
▁koki	-7915
▁kopr	-7916
▁kule	-7917
▁kump	-7918
▁kupl	-7919
▁kuva	-7920
▁kyhä	-7921
▁kyll	-7922
▁kyly	-7923
▁kytö	-7924
▁lamo	-7925
▁lauh	-7926
▁lekk	-7927
▁lien	-7928
▁liev	-7929
▁liis	-7930
▁luku	-7931
▁läil	-7932
▁lään	-7933
▁mäki	-7934
▁naia	-7935
▁nato	-7936
▁nauh	-7937
▁niit	-7938
▁noki	-7939
▁näen	-7940
▁olki	-7941
▁omoa	-7942
▁osaa	-7943
▁osta	-7944
▁otan	-7945
▁pakk	-7946
▁palk	-7947
▁patv	-7948
▁piin	-7949
▁pino	-7950
▁piot	-7951
▁puit	-7952
▁pulm	-7953
▁rius	-7954
▁rois	-7955
▁salo	-7956
▁sang	-7957
▁sauk	-7958
▁sauv	-7959
▁sill	-7960
▁sima	-7961
▁solm	-7962
▁sysi	-7963
▁syyl	-7964
▁säät	-7965
▁söin	-7966
▁taan	-7967
▁taas	-7968
▁taim	-7969
▁tapa	-7970
▁taul	-7971
▁teen	-7972
▁tein	-7973
▁teir	-7974
▁teko	-7975
▁telk	-7976
▁toen	-7977
▁torv	-7978
▁tull	-7979
▁tuuh	-7980
▁tuum	-7981
▁tuut	-7982
▁ukon	-7983
▁unta	-7984
▁upot	-7985
▁usea	-7986
▁uupu	-7987
▁vala	-7988
▁vang	-7989
▁veet	-7990
▁venn	-7991
▁vian	-7992
▁viih	-7993
▁ving	-7994
▁vipl	-7995
▁voin	-7996
▁vuoh	-7997
▁yhet	-7998
▁älyä	-7999
Mikäs	-8000
Vuota	-8001
▁Ammu	-8002
▁Lyyl	-8003
▁tomu	-8004
Hyväpä	-8005
Kantoi	-8006
Muista	-8007
Siellä	-8008
Sieltä	-8009
Tuolta	-8010
aheinä	-8011
ahtele	-8012
alaisi	-8013
allasi	-8014
altasi	-8015
anhelm	-8016
asensa	-8017
attava	-8018
attavi	-8019
ehessä	-8020
ehisen	-8021
ehissä	-8022
ekseni	-8023
eleite	-8024
eleitä	-8025
elivat	-8026
elleni	-8027
eltani	-8028
elämpi	-8029
elöitä	-8030
emihin	-8031
ettava	-8032
ettavi	-8033
evaksi	-8034
evosen	-8035
eämmät	-8036
ikammi	-8037
ikaten	-8038
ikkoni	-8039
ikössä	-8040
illeni	-8041
iltani	-8042
iluhia	-8043
imessa	-8044
imilla	-8045
isetki	-8046
isitko	-8047
isteli	-8048
istäsi	-8049
itansa	-8050
itella	-8051
joansa	-8052
kannan	-8053
kannon	-8054
karjan	-8055
kartan	-8056
karuos	-8057
keahan	-8058
kenevi	-8059
kengän	-8060
kkahan	-8061
kkehen	-8062
kkinsa	-8063
kkoasi	-8064
kkunat	-8065
koiksi	-8066
kokkar	-8067
ksehen	-8068
kseltä	-8069
lainen	-8070
latvan	-8071
linnan	-8072
llistä	-8073
loilta	-8074
luinen	-8075
lykset	-8076
maiksi	-8077
mmille	-8078
mäelle	-8079
nnähän	-8080
oinani	-8081
oinesi	-8082
ojaksi	-8083
olassa	-8084
oltasi	-8085
osihin	-8086
ottele	-8087
pellon	-8088
ppahan	-8089
ppehia	-8090
puiksi	-8091
puille	-8092
puuhun	-8093
päivät	-8094
skaksi	-8095
ssänsä	-8096
telime	-8097
tusten	-8098
täniki	-8099
muoto	-8100
Luulin	-8101
pökkel	-8102
täyttä	-8103
ukasta	-8104
uksesi	-8105
umelle	-8106
uminen	-8107
uohtui	-8108
urihin	-8109
usilla	-8110
ustele	-8111
utelko	-8112
uuesta	-8113
uvaksi	-8114
varren	-8115
ymässä	-8116
ymättä	-8117
ysissä	-8118
yvillä	-8119
yvistä	-8120
ähtävi	-8121
▁Annan	-8122
▁Ensin	-8123
▁Etelä	-8124
▁Haapa	-8125
▁Ikävä	-8126
▁Ilman	-8127
▁Istui	-8128
▁Kenen	-8129
▁Kohta	-8130
▁Kovin	-8131
▁Kuuli	-8132
▁Kylmä	-8133
▁Käsin	-8134
▁Käski	-8135
▁Käypä	-8136
▁Laati	-8137
▁Lapsi	-8138
▁Lennä	-8139
▁Loihe	-8140
▁Lokka	-8141
▁Menet	-8142
▁Miten	-8143
▁Mitäs	-8144
▁Musti	-8145
▁Neiet	-8146
▁Neito	-8147
▁Nosta	-8148
▁Pisti	-8149
▁Puhui	-8150
▁Saapi	-8151
▁Sulho	-8152
▁Tieän	-8153
▁Tokko	-8154
▁Tulet	-8155
▁Tulta	-8156
▁Tuvat	-8157
▁Vaimo	-8158
▁ahoma	-8159
▁ahtah	-8160
▁airon	-8161
▁aitoa	-8162
▁ajele	-8163
▁allin	-8164
▁ammun	-8165
▁ampui	-8166
▁ankeh	-8167
▁annit	-8168
▁apuna	-8169
▁arvel	-8170
▁askel	-8171
▁astut	-8172
▁auvon	-8173
▁elina	-8174
▁elosi	-8175
▁etsin	-8176
▁halla	-8177
▁haloa	-8178
▁hanhi	-8179
▁happa	-8180
▁hauan	-8181
▁havuh	-8182
▁havut	-8183
▁helmi	-8184
▁helsk	-8185
▁hieta	-8186
▁hiovi	-8187
▁hukka	-8188
▁hullu	-8189
▁huuti	-8190
▁huuto	-8191
▁hyppi	-8192
▁iljan	-8193
▁ilmoa	-8194
▁ilona	-8195
▁impeä	-8196
▁inehm	-8197
▁isomm	-8198
▁istua	-8199
▁itkin	-8200
▁ituja	-8201
▁iässä	-8202
▁jauha	-8203
▁jokiv	-8204
▁josta	-8205
▁jumal	-8206
▁juotu	-8207
▁juuri	-8208
▁juurr	-8209
▁jyveä	-8210
▁jälle	-8211
▁kahet	-8212
▁kaiho	-8213
▁kalja	-8214
▁kalvo	-8215
▁kaota	-8216
▁kappa	-8217
▁karet	-8218
▁karhi	-8219
▁kasti	-8220
▁kateh	-8221
▁kauhe	-8222
▁kaver	-8223
▁kehno	-8224
▁kelvo	-8225
▁kenki	-8226
▁kesät	-8227
▁kiell	-8228
▁kiist	-8229
▁kipeh	-8230
▁kipun	-8231
▁kiver	-8232
▁kiveä	-8233
▁koite	-8234
▁kokan	-8235
▁korja	-8236
▁koton	-8237
▁kujat	-8238
▁kulkk	-8239
▁kulku	-8240
▁kulon	-8241
▁kunki	-8242
▁kunni	-8243
▁kurki	-8244
▁kutti	-8245
▁kuvat	-8246
▁kyitä	-8247
▁kylpi	-8248
▁kynnö	-8249
▁kysyi	-8250
▁kytky	-8251
▁käpeä	-8252
▁kävin	-8253
▁käyty	-8254
▁käyös	-8255
▁käärä	-8256
▁lampi	-8257
▁lappe	-8258
▁lappi	-8259
▁latva	-8260
▁lauke	-8261
▁lehon	-8262
▁leikk	-8263
▁lepän	-8264
▁leveä	-8265
▁leväh	-8266
▁lieha	-8267
▁liesi	-8268
▁lihat	-8269
▁liiku	-8270
▁liitä	-8271
▁lipeä	-8272
▁lohia	-8273
▁loisi	-8274
▁lomat	-8275
▁luien	-8276
▁lukko	-8277
▁luoen	-8278
▁luome	-8279
▁lupoa	-8280
▁lylyn	-8281
▁lyöty	-8282
▁lähti	-8283
▁länki	-8284
▁länsi	-8285
▁löyti	-8286
▁makua	-8287
▁miehi	-8288
▁mitta	-8289
▁muhke	-8290
▁multa	-8291
▁munat	-8292
▁muori	-8293
▁muren	-8294
▁neiot	-8295
▁neniä	-8296
▁nimen	-8297
▁nukku	-8298
▁nuoli	-8299
▁nurmi	-8300
▁nykyä	-8301
▁ohria	-8302
▁oisko	-8303
▁opeta	-8304
▁orret	-8305
▁osoan	-8306
▁otsan	-8307
▁pahim	-8308
▁paimo	-8309
▁paist	-8310
▁palav	-8311
▁palko	-8312
▁paloa	-8313
▁paloi	-8314
▁parah	-8315
▁parsi	-8316
▁peläs	-8317
▁pestä	-8318
▁pesän	-8319
▁piene	-8320
▁pihoa	-8321
▁piiko	-8322
▁piimä	-8323
▁piirr	-8324
▁pilko	-8325
▁pillo	-8326
▁pinop	-8327
▁polon	-8328
▁polvu	-8329
▁ponsi	-8330
▁potke	-8331
▁puhua	-8332
▁puola	-8333
▁purra	-8334
▁putoa	-8335
▁puuha	-8336
▁pyyti	-8337
▁pääks	-8338
▁pöyät	-8339
▁rahin	-8340
▁raikk	-8341
▁rakas	-8342
▁rapoa	-8343
▁rauti	-8344
▁rikki	-8345
▁rikot	-8346
▁saaos	-8347
▁sakea	-8348
▁salpa	-8349
▁sarvi	-8350
▁sauva	-8351
▁selät	-8352
▁siian	-8353
▁sijan	-8354
▁simat	-8355
▁sokea	-8356
▁solmi	-8357
▁sonni	-8358
▁sorsa	-8359
▁sulan	-8360
▁sulat	-8361
▁sulin	-8362
▁sulki	-8363
▁suoni	-8364
▁suusi	-8365
▁suvik	-8366
▁syitä	-8367
▁syyll	-8368
▁syöjä	-8369
▁sären	-8370
▁sävel	-8371
▁tahot	-8372
▁taimi	-8373
▁tapin	-8374
▁tauin	-8375
▁telta	-8376
▁tieon	-8377
▁tukat	-8378
▁tukki	-8379
▁tuone	-8380
▁tuopp	-8381
▁turhi	-8382
▁turva	-8383
▁tuuma	-8384
▁tyyrä	-8385
▁tähet	-8386
▁täyen	-8387
▁uinut	-8388
▁urisi	-8389
▁vahin	-8390
▁vaikk	-8391
▁vajeh	-8392
▁vajen	-8393
▁vanno	-8394
▁varis	-8395
▁vatsa	-8396
▁veijo	-8397
▁vento	-8398
▁veret	-8399
▁verkk	-8400
▁vesil	-8401
▁vesin	-8402
▁vesun	-8403
▁viepr	-8404
▁virpi	-8405
▁vuoet	-8406
▁vuoli	-8407
▁vuoti	-8408
▁väleh	-8409
▁välit	-8410
▁väläh	-8411
▁väsyn	-8412
▁vävyä	-8413
▁ylist	-8414
▁äijeä	-8415
▁öitsi	-8416
Hyvästi	-8417
Suvetar	-8418
alangat	-8419
annolta	-8420
attaisi	-8421
ehtivan	-8422
ellansa	-8423
ellensä	-8424
ellessä	-8425
elliset	-8426
ellunna	-8427
emmalle	-8428
emmasti	-8429
ettavia	-8430
ikkoavi	-8431
ikoilta	-8432
ikoissa	-8433
iksensa	-8434
ikuiset	-8435
iköissä	-8436
imäinen	-8437
inaisen	-8438
inäisen	-8439
iseinän	-8440
iskaeli	-8441
istuuli	-8442
itellen	-8443
itoihin	-8444
iviitta	-8445
jasivat	-8446
katahan	-8447
kemättä	-8448
keuiset	-8449
kkäluun	-8450
kojensa	-8451
kottava	-8452
kumasta	-8453
kutella	-8454
kuttele	-8455
kytteli	-8456
marelle	-8457
meheksi	-8458
miesten	-8459
nenillä	-8460
oihinsa	-8461
oilleni	-8462
oisehen	-8463
oisille	-8464
oissasi	-8465
oittani	-8466
ollensa	-8467
oloinen	-8468
otuksen	-8469
petäjän	-8470
pilvien	-8471
pisarat	-8472
punutta	-8473
semahan	-8474
tehiltä	-8475
tehissä	-8476
tehista	-8477
teleite	-8478
televan	-8479
telinki	-8480
toinesi	-8481
tojansa	-8482
tunehen	-8483
tuneisi	-8484
tutyttö	-8485
tymättä	-8486
uisampi	-8487
uisasti	-8488
ukkujen	-8489
ukoiksi	-8490
ukoista	-8491
uloista	-8492
umatoin	-8493
unaisen	-8494
uttansa	-8495
uttihin	-8496
vesiksi	-8497
vesille	-8498
ytellen	-8499
ännässä	-8500
▁Ahille	-8501
▁Ahtola	-8502
▁Ainapa	-8503
▁Hiihti	-8504
▁Juokse	-8505
▁Kaikki	-8506
▁Kaukon	-8507
▁Kauppi	-8508
▁Kourin	-8509
▁Kutsui	-8510
▁Kuules	-8511
▁Kuutar	-8512
▁Lähteä	-8513
▁Läksin	-8514
▁Miekka	-8515
▁Oletko	-8516
▁Paimen	-8517
▁Päätyi	-8518
▁Saanut	-8519
▁Tapasi	-8520
▁Tiehyt	-8521
▁Tulipa	-8522
▁Turjan	-8523
▁Työnti	-8524
▁aamuin	-8525
▁aivoni	-8526
▁ajelem	-8527
▁ajella	-8528
▁alahan	-8529
▁alenna	-8530
▁alenti	-8531
▁allien	-8532
▁ammoin	-8533
▁arvasi	-8534
▁asetan	-8535
▁ehätin	-8536
▁elävin	-8537
▁elävän	-8538
▁elävät	-8539
▁emolle	-8540
▁etelät	-8541
▁evästä	-8542
▁haavan	-8543
▁haavat	-8544
▁hanhen	-8545
▁harjan	-8546
▁harvat	-8547
▁haukun	-8548
▁havasi	-8549
▁heiniä	-8550
▁herjan	-8551
▁herjat	-8552
▁hiekat	-8553
▁hietah	-8554
▁hiovat	-8555
▁hirret	-8556
▁hoikka	-8557
▁huhuta	-8558
▁huokoa	-8559
▁huolen	-8560
▁huppel	-8561
▁huuhto	-8562
▁huulta	-8563
▁häissä	-8564
▁ihanat	-8565
▁iholle	-8566
▁ikenet	-8567
▁ikänsä	-8568
▁ilkeät	-8569
▁ilohon	-8570
▁isolle	-8571
▁isosta	-8572
▁itsesi	-8573
▁jakset	-8574
▁jalkoa	-8575
▁jaloin	-8576
▁jompik	-8577
▁jotaki	-8578
▁jouhet	-8579
▁jousta	-8580
▁juopui	-8581
▁juotti	-8582
▁jälkiä	-8583
▁järisi	-8584
▁jäälle	-8585
▁jäästä	-8586
▁kaarne	-8587
▁kaehti	-8588
▁kaiket	-8589
▁kaikin	-8590
▁kaitsi	-8591
▁kalhun	-8592
▁kallis	-8593
▁kamana	-8594
▁kammas	-8595
▁kannat	-8596
▁kannot	-8597
▁kantta	-8598
▁kaotit	-8599
▁karits	-8600
▁karvan	-8601
▁karvoi	-8602
▁kasvoa	-8603
▁katson	-8604
▁kauloa	-8605
▁kauran	-8606
▁keihäs	-8607
▁keitti	-8608
▁kellen	-8609
▁kellon	-8610
▁keolle	-8611
▁kerska	-8612
▁kesäor	-8613
▁ketänä	-8614
▁kiehui	-8615
▁kirjan	-8616
▁kirjar	-8617
▁kirkas	-8618
▁kirpoi	-8619
▁kiskoi	-8620
▁koasta	-8621
▁kohtua	-8622
▁kokevi	-8623
▁kolkan	-8624
▁koppel	-8625
▁korjas	-8626
▁korkea	-8627
▁koskea	-8628
▁kourat	-8629
▁kuivat	-8630
▁kukkoa	-8631
▁kulkun	-8632
▁kulman	-8633
▁kulmat	-8634
▁kultal	-8635
▁kummoa	-8636
▁kummun	-8637
▁kuohui	-8638
▁kuolas	-8639
▁kuoren	-8640
▁kurjat	-8641
▁kuunna	-8642
▁kylpyh	-8643
▁kynnin	-8644
▁kynnys	-8645
▁käppyr	-8646
▁kärkäs	-8647
▁käyvät	-8648
▁laahoi	-8649
▁laajat	-8650
▁lailla	-8651
▁laitan	-8652
▁lakais	-8653
▁lastut	-8654
▁laulun	-8655
▁lehmiä	-8656
▁lehvän	-8657
▁lemmon	-8658
▁lempeä	-8659
▁lenteä	-8660
▁leveät	-8661
▁leyhke	-8662
▁liekun	-8663
▁lietsi	-8664
▁lietso	-8665
▁lihava	-8666
▁liikut	-8667
▁lonkah	-8668
▁lounah	-8669
▁luisen	-8670
▁luissa	-8671
▁lukevi	-8672
▁luokin	-8673
▁luotti	-8674
▁lypsit	-8675
▁lähten	-8676
▁lännet	-8677
▁läävän	-8678
▁läävät	-8679
▁maisin	-8680
▁majasi	-8681
▁mannun	-8682
▁mateli	-8683
▁matoja	-8684
▁miehiä	-8685
▁miekat	-8686
▁mielet	-8687
▁mielit	-8688
▁mielly	-8689
▁milläs	-8690
▁muasta	-8691
▁muisti	-8692
▁muutta	-8693
▁mäeltä	-8694
▁naisin	-8695
▁naulan	-8696
▁nientä	-8697
▁niinpä	-8698
▁noruvi	-8699
▁nostat	-8700
▁nousit	-8701
▁nukkun	-8702
▁nurmen	-8703
▁oisiko	-8704
▁olalla	-8705
▁olevan	-8706
▁oluttu	-8707
▁omenan	-8708
▁omilta	-8709
▁orasen	-8710
▁paikan	-8711
▁paistu	-8712
▁parrat	-8713
▁patsas	-8714
▁perimä	-8715
▁pesijä	-8716
▁peurat	-8717
▁pienin	-8718
▁piioin	-8719
▁pilkat	-8720
▁piolta	-8721
▁pohjan	-8722
▁polkem	-8723
▁poltta	-8724
▁polvea	-8725
▁polvet	-8726
▁polvin	-8727
▁ponnen	-8728
▁puulla	-8729
▁puussa	-8730
▁pyöräh	-8731
▁pätevä	-8732
▁pääsky	-8733
▁pääskö	-8734
▁raossa	-8735
▁rautan	-8736
▁reessä	-8737
▁reppän	-8738
▁riihen	-8739
▁riihir	-8740
▁riisui	-8741
▁rinnat	-8742
▁runoja	-8743
▁ruokor	-8744
▁ruskea	-8745
▁saalis	-8746
▁saamia	-8747
▁saatti	-8748
▁saavan	-8749
▁saipua	-8750
▁saisit	-8751
▁saivat	-8752
▁sanall	-8753
▁sanasi	-8754
▁sanoit	-8755
▁sanoko	-8756
▁sataha	-8757
▁satoja	-8758
▁saukko	-8759
▁saunat	-8760
▁savuna	-8761
▁selkeä	-8762
▁seulan	-8763
▁sijoit	-8764
▁sikesi	-8765
▁sikäli	-8766
▁sileät	-8767
▁silmil	-8768
▁silmiä	-8769
▁sinäki	-8770
▁sirkut	-8771
▁sivall	-8772
▁sivuja	-8773
▁soilta	-8774
▁solmun	-8775
▁sommel	-8776
▁sopiva	-8777
▁sopivi	-8778
▁sorajo	-8779
▁sorsan	-8780
▁sotaor	-8781
▁sovita	-8782
▁suitsi	-8783
▁suolat	-8784
▁suolen	-8785
▁suonen	-8786
▁suorin	-8787
▁suossa	-8788
▁suosta	-8789
▁suostu	-8790
▁suotta	-8791
▁suover	-8792
▁surmoa	-8793
▁survon	-8794
▁suunsa	-8795
▁suuria	-8796
▁syyttö	-8797
▁syöksi	-8798
▁syömin	-8799
▁syöttä	-8800
▁taaksi	-8801
▁taipal	-8802
▁taipui	-8803
▁taljan	-8804
▁tamman	-8805
▁tammea	-8806
▁tanner	-8807
▁tapeta	-8808
▁tarhan	-8809
▁tekemä	-8810
▁terveh	-8811
▁tiehyt	-8812
▁tiessä	-8813
▁toivoi	-8814
▁tuhman	-8815
▁tuimat	-8816
▁tuleva	-8817
▁tullen	-8818
▁tunnus	-8819
▁tuomen	-8820
▁tuskin	-8821
▁tuulta	-8822
▁tyhjin	-8823
▁tyrsky	-8824
▁työläh	-8825
▁tähtiä	-8826
▁tänäki	-8827
▁unehen	-8828
▁uuelle	-8829
▁vaahen	-8830
▁vaarat	-8831
▁vaikea	-8832
▁vaivat	-8833
▁valeli	-8834
▁vammat	-8835
▁vannoi	-8836
▁varoja	-8837
▁vasemm	-8838
▁vasken	-8839
▁veessä	-8840
▁veljen	-8841
▁vennon	-8842
▁veteli	-8843
▁vetelä	-8844
▁vetenä	-8845
▁veäite	-8846
▁vihuri	-8847
▁viienn	-8848
▁viipyi	-8849
▁vikoja	-8850
▁vilisi	-8851
▁villah	-8852
▁villat	-8853
▁viruvi	-8854
▁vitsan	-8855
▁voivat	-8856
▁vuotin	-8857
▁vuotit	-8858
▁vyötty	-8859
▁vyöttä	-8860
▁vähene	-8861
▁väheni	-8862
▁väännä	-8863
▁väärin	-8864
▁ylenit	-8865
▁ylinen	-8866
▁ymmärr	-8867
▁yritti	-8868
Kantoipa	-8869
Laulavat	-8870
Sentähen	-8871
annoissa	-8872
elemättä	-8873
eltavana	-8874
ikeräsen	-8875
ikkoinen	-8876
imahutti	-8877
isevalle	-8878
isevihin	-8879
isevista	-8880
isihinsä	-8881
jallensa	-8882
kangasta	-8883
katurkin	-8884
kelmoita	-8885
kelmosta	-8886
kittihin	-8887
lukuisin	-8888
oillansa	-8889
oissansa	-8890
oistamme	-8891
ottanehe	-8892
pontisen	-8893
ppomahan	-8894
puolikon	-8895
tapainen	-8896
ukkainen	-8897
umattaki	-8898
▁Aluessa	-8899
▁Lapinki	-8900
▁Lapista	-8901
▁Lietsoi	-8902
▁Nousipa	-8903
▁Panenko	-8904
▁Saattoi	-8905
▁Sarajan	-8906
▁Vuoksen	-8907
▁ahvenia	-8908
▁ailuhia	-8909
▁aitojen	-8910
▁antajat	-8911
▁armahat	-8912
▁asuinma	-8913
▁eistyvi	-8914
▁eloille	-8915
▁emotoin	-8916
▁enemmin	-8917
▁enemmän	-8918
▁haukata	-8919
▁heiluvi	-8920
▁herätti	-8921
▁hiiloks	-8922
▁hopeapä	-8923
▁humalan	-8924
▁hykerti	-8925
▁hyreksi	-8926
▁hyvihin	-8927
▁hätäile	-8928
▁ihmisen	-8929
▁ikuinen	-8930
▁ikuiset	-8931
▁illalla	-8932
▁ilmalla	-8933
▁ilmassa	-8934
▁ilmasta	-8935
▁inehmon	-8936
▁iäkseni	-8937
▁jalassa	-8938
▁johonki	-8939
▁jälillä	-8940
▁kaiketi	-8941
▁kaivoti	-8942
▁kajahui	-8943
▁kananen	-8944
▁kannoin	-8945
▁karille	-8946
▁karjapi	-8947
▁kasvoin	-8948
▁katehen	-8949
▁katehet	-8950
▁katkovi	-8951
▁katoisi	-8952
▁katseli	-8953
▁keikuin	-8954
▁keittoa	-8955
▁keralle	-8956
▁kerkeän	-8957
▁kesellä	-8958
▁kesällä	-8959
▁kesässä	-8960
▁kevätkä	-8961
▁kirjava	-8962
▁kivellä	-8963
▁kivihin	-8964
▁kivikar	-8965
▁kiviksi	-8966
▁kiville	-8967
▁kivisen	-8968
▁kiviset	-8969
▁kohahti	-8970
▁kokenut	-8971
▁kolohon	-8972
▁konkkal	-8973
▁korpiku	-8974
▁kosihin	-8975
▁koskena	-8976
▁kovasta	-8977
▁kujalle	-8978
▁kukunta	-8979
▁kuletta	-8980
▁kullerv	-8981
▁kululle	-8982
▁kulutti	-8983
▁kuontal	-8984
▁kuuluna	-8985
▁kyhätty	-8986
▁kylitse	-8987
▁kynimen	-8988
▁käkesit	-8989
▁käsille	-8990
▁käyessä	-8991
▁lahosta	-8992
▁laitoin	-8993
▁laskevi	-8994
▁latvoin	-8995
▁laulaen	-8996
▁lautoja	-8997
▁lepikkö	-8998
▁liekkui	-8999
▁lihamur	-9000
▁liikoja	-9001
▁likahan	-9002
▁likemmä	-9003
▁likistä	-9004
▁lomassa	-9005
▁lomitse	-9006
▁lopulla	-9007
▁lujasti	-9008
▁lumessa	-9009
▁luotoja	-9010
▁luvanne	-9011
▁lykittä	-9012
▁lähellä	-9013
▁lähenki	-9014
▁lähtisi	-9015
▁lämmitä	-9016
▁maistoi	-9017
▁makujuo	-9018
▁mereltä	-9019
▁miniänä	-9020
▁mistäpä	-9021
▁mokomin	-9022
▁murenti	-9023
▁murskan	-9024
▁muuttui	-9025
▁naljasi	-9026
▁neitona	-9027
▁neitosi	-9028
▁nenille	-9029
▁nenätse	-9030
▁nojassa	-9031
▁nokalla	-9032
▁noroper	-9033
▁norosta	-9034
▁nuorena	-9035
▁nureksi	-9036
▁oksalla	-9037
▁oksilla	-9038
▁olkisen	-9039
▁oluelle	-9040
▁onneasi	-9041
▁ottavat	-9042
▁pajasta	-9043
▁pakohon	-9044
▁palttin	-9045
▁paneite	-9046
▁parahat	-9047
▁paranta	-9048
▁patahan	-9049
▁perillä	-9050
▁pesänsä	-9051
▁piharik	-9052
▁piikoja	-9053
▁pitävät	-9054
▁pojalle	-9055
▁pojassa	-9056
▁polttoa	-9057
▁polveni	-9058
▁poskipä	-9059
▁päästän	-9060
▁raataja	-9061
▁rautoja	-9062
▁rekosen	-9063
▁reposen	-9064
▁revitti	-9065
▁saaessa	-9066
▁saatoit	-9067
▁salolle	-9068
▁salosta	-9069
▁samassa	-9070
▁sanaset	-9071
▁sanoisi	-9072
▁sarkoin	-9073
▁siinäpä	-9074
▁siniset	-9075
▁siskosi	-9076
▁sitaise	-9077
▁sivakat	-9078
▁sivalla	-9079
▁sivulle	-9080
▁somempi	-9081
▁someret	-9082
▁sotatil	-9083
▁sovitti	-9084
▁suistan	-9085
▁sulahan	-9086
▁sulalla	-9087
▁sulassa	-9088
▁sulavat	-9089
▁sulhais	-9090
▁surmasi	-9091
▁surmata	-9092
▁suumalo	-9093
▁suuremm	-9094
▁sylissä	-9095
▁syntyjä	-9096
▁syville	-9097
▁tahikka	-9098
▁taitava	-9099
▁taittoi	-9100
▁taittui	-9101
▁tarpoja	-9102
▁tauilla	-9103
▁tauitta	-9104
▁tavalla	-9105
▁tavatto	-9106
▁tervaks	-9107
▁terältä	-9108
▁totella	-9109
▁totinen	-9110
▁tulella	-9111
▁tuletta	-9112
▁tulikul	-9113
▁tulille	-9114
▁tulisit	-9115
▁tulisor	-9116
▁tunkevi	-9117
▁tunkihe	-9118
▁tupesta	-9119
▁tupihin	-9120
▁tuvissa	-9121
▁tytölle	-9122
▁työnnyt	-9123
▁uhkuhun	-9124
▁uinehen	-9125
▁urheata	-9126
▁uskonut	-9127
▁vaakkui	-9128
▁vajotta	-9129
▁valettu	-9130
▁valitat	-9131
▁valitta	-9132
▁valmist	-9133
▁valutti	-9134
▁vanttuh	-9135
▁varusti	-9136
▁venynyt	-9137
▁vetäise	-9138
▁viehkur	-9139
▁vihotta	-9140
▁viiruna	-9141
▁vioille	-9142
▁virittä	-9143
▁virteni	-9144
▁visaper	-9145
▁väkehen	-9146
▁välillä	-9147
▁välissä	-9148
▁välkkyi	-9149
▁vävyltä	-9150
▁ylenevä	-9151
▁ymmärrä	-9152
▁ynnähän	-9153
▁äitinsä	-9154
ahtamatta	-9155
anneheksi	-9156
antehiksi	-9157
attomahan	-9158
attomihin	-9159
elläkseni	-9160
eltäväksi	-9161
isillansa	-9162
itsemahan	-9163
itsematta	-9164
ittämättä	-9165
kertelihe	-9166
oittelevi	-9167
onneheksi	-9168
yttämähän	-9169
▁Etelätär	-9170
▁Kipuvuor	-9171
▁Kyllikin	-9172
▁Neitonen	-9173
▁Pakkanen	-9174
▁Pantihin	-9175
▁Päivätär	-9176
▁Syöjätär	-9177
▁Toisinpa	-9178
▁Tuonelle	-9179
▁armahani	-9180
▁autuaall	-9181
▁autuahan	-9182
▁eilisenä	-9183
▁hakkoavi	-9184
▁hammasta	-9185
▁huolihin	-9186
▁hurmehen	-9187
▁ikenihin	-9188
▁iskijätä	-9189
▁jaloilla	-9190
▁jouakana	-9191
▁julkisen	-9192
▁kaarella	-9193
▁kalainen	-9194
▁kalaista	-9195
▁kaljalle	-9196
▁kanervik	-9197
▁kankahia	-9198
▁kansalle	-9199
▁kanssasi	-9200
▁kantajan	-9201
▁kartanon	-9202
▁kartanot	-9203
▁kasvatta	-9204
▁katkaisi	-9205
▁katsehia	-9206
▁kehoitti	-9207
▁kelpoavi	-9208
▁kengältä	-9209
▁keskilaa	-9210
▁kesäistä	-9211
▁kiljuvan	-9212
▁kohtaeli	-9213
▁kolisten	-9214
▁kolmeksi	-9215
▁korennon	-9216
▁korjassa	-9217
▁korjasta	-9218
▁korvesta	-9219
▁koskesta	-9220
▁kotihisi	-9221
▁kotoinen	-9222
▁kotoiset	-9223
▁koukkule	-9224
▁kujerran	-9225
▁kukkasen	-9226
▁kulmilla	-9227
▁kultavyö	-9228
▁kultiasi	-9229
▁kummasti	-9230
▁kummeksi	-9231
▁kunniasi	-9232
▁kuulusta	-9233
▁kuumille	-9234
▁kuusehen	-9235
▁kuusesta	-9236
▁kuusikon	-9237
▁kuutehen	-9238
▁kyllältä	-9239
▁kyläiset	-9240
▁kymmennä	-9241
▁kämmenen	-9242
▁laajalla	-9243
▁lainetta	-9244
▁laskeite	-9245
▁lastansa	-9246
▁lattiata	-9247
▁laulanta	-9248
▁lausehia	-9249
▁lehtohon	-9250
▁leuoilta	-9251
▁liepehiä	-9252
▁lietehen	-9253
▁lietohon	-9254
▁liioilla	-9255
▁luopuisa	-9256
▁luotehet	-9257
▁luotohon	-9258
▁lämminnä	-9259
▁miehelle	-9260
▁miehistä	-9261
▁miehuuen	-9262
▁minullen	-9263
▁molemmin	-9264
▁mustahan	-9265
▁mustassa	-9266
▁myötävir	-9267
▁myötäviä	-9268
▁neitoasi	-9269
▁neuvoksi	-9270
▁niemelle	-9271
▁nurmelle	-9272
▁nännillä	-9273
▁oikeahan	-9274
▁oikealle	-9275
▁omenueni	-9276
▁osoajata	-9277
▁ottelevi	-9278
▁pahaisna	-9279
▁pahoiksi	-9280
▁paikaksi	-9281
▁paitansa	-9282
▁parannan	-9283
▁peiponen	-9284
▁pellavas	-9285
▁pienille	-9286
▁pihoilta	-9287
▁piikojen	-9288
▁pilvissä	-9289
▁pituinen	-9290
▁poikoani	-9291
▁poikuesi	-9292
▁polvesta	-9293
▁punaista	-9294
▁puolisoa	-9295
▁purjehia	-9296
▁purtensa	-9297
▁pyhäiset	-9298
▁päiviäki	-9299
▁päivänsä	-9300
▁pätöisen	-9301
▁pätöistä	-9302
▁päällesi	-9303
▁raavahat	-9304
▁rauaista	-9305
▁rinnuksi	-9306
▁runoille	-9307
▁sanoilla	-9308
▁saukkona	-9309
▁saunasta	-9310
▁sauvoani	-9311
▁seikasta	-9312
▁selkähän	-9313
▁simaisen	-9314
▁sinervän	-9315
▁sisaresi	-9316
▁soitanto	-9317
▁suloista	-9318
▁suoritti	-9319
▁surmansa	-9320
▁syämehen	-9321
▁syötäviä	-9322
▁säikähti	-9323
▁säkehinä	-9324
▁taattosi	-9325
▁taivosen	-9326
▁taloinen	-9327
▁tammisen	-9328
▁tanteria	-9329
▁tapahtui	-9330
▁tappeloa	-9331
▁teloilta	-9332
▁teräkset	-9333
▁tieäkänä	-9334
▁toisesta	-9335
▁toisiksi	-9336
▁tuhonnut	-9337
▁tulville	-9338
▁tunturin	-9339
▁tuotihin	-9340
▁tuskaksi	-9341
▁tuskihin	-9342
▁tuttavan	-9343
▁tuulessa	-9344
▁urohista	-9345
▁vaateval	-9346
▁vahvistu	-9347
▁vaikeata	-9348
▁valjasti	-9349
▁vanhempi	-9350
▁varvikko	-9351
▁vasemman	-9352
▁vaskikir	-9353
▁veikkosi	-9354
▁veitsira	-9355
▁veljiäsi	-9356
▁verevänä	-9357
▁vienossa	-9358
▁vierahia	-9359
▁vihaiset	-9360
▁vihannan	-9361
▁viikoksi	-9362
▁vilisten	-9363
▁viljalta	-9364
▁vuorehen	-9365
▁väljille	-9366
▁värttinä	-9367
▁vääntiän	-9368
▁ylähäksi	-9369
Uiskenteli	-9370
ellaksensa	-9371
kumppalini	-9372
portahiksi	-9373
ähyttelevi	-9374
▁Manalalta	-9375
▁Päivänäpä	-9376
▁ahavaisen	-9377
▁aikojansa	-9378
▁ampumahan	-9379
▁ankehessa	-9380
▁antaminen	-9381
▁armahampi	-9382
▁armahansa	-9383
▁armaiseni	-9384
▁arvatahan	-9385
▁askarehet	-9386
▁eistykänä	-9387
▁entiselle	-9388
▁hammasten	-9389
▁hauatahan	-9390
▁havainnut	-9391
▁istujaksi	-9392
▁istumiksi	-9393
▁istumille	-9394
▁itkemässä	-9395
▁itselleni	-9396
▁itselöitä	-9397
▁joutsenia	-9398
▁juominkia	-9399
▁kaatajata	-9400
▁kalahauat	-9401
▁kalliolla	-9402
▁katajikko	-9403
▁kaunihina	-9404
▁kaunoista	-9405
▁kekälehet	-9406
▁kelpoaisi	-9407
▁kertoelen	-9408
▁kesäuuhen	-9409
▁kipehille	-9410
▁kohottele	-9411
▁kokkoansa	-9412
▁konsakana	-9413
▁konttihin	-9414
▁korjahasi	-9415
▁kuparisen	-9416
▁kynnykset	-9417
▁kyyetteli	-9418
▁kyynäsvar	-9419
▁kätkyessä	-9420
▁käärmehiä	-9421
▁laaituksi	-9422
▁laatijata	-9423
▁lammaskar	-9424
▁lausehesi	-9425
▁leppeästi	-9426
▁liitelevi	-9427
▁luomiansa	-9428
▁maaemähän	-9429
▁maapuolen	-9430
▁murtelevi	-9431
▁muuallaki	-9432
▁nahkaruos	-9433
▁neuvokkia	-9434
▁nuoliansa	-9435
▁ollessani	-9436
▁oluehensa	-9437
▁omenatani	-9438
▁oppimassa	-9439
▁ottamasta	-9440
▁paikoilta	-9441
▁parempata	-9442
▁partasuun	-9443
▁petäjähän	-9444
▁petäjästä	-9445
▁piikojasi	-9446
▁poiastasi	-9447
▁poikiansa	-9448
▁poiuttani	-9449
▁poropeura	-9450
▁poukkujen	-9451
▁punaposki	-9452
▁puremahan	-9453
▁päälaella	-9454
▁rakehilla	-9455
▁raukoilla	-9456
▁saappahat	-9457
▁saapuessa	-9458
▁saatavana	-9459
▁saattaisi	-9460
▁seisottui	-9461
▁siirräite	-9462
▁silmiänsä	-9463
▁sisariasi	-9464
▁sortajata	-9465
▁suustansa	-9466
▁talkkunat	-9467
▁tarkkahan	-9468
▁tehtäessä	-9469
▁tehtänehe	-9470
▁tekemähän	-9471
▁toisialle	-9472
▁toisialta	-9473
▁tulevalle	-9474
▁tullekana	-9475
▁tuntenevi	-9476
▁tuotavana	-9477
▁turmelevi	-9478
▁tutkaella	-9479
▁tuttuansa	-9480
▁ulapoilla	-9481
▁ulapoilta	-9482
▁umpisilmä	-9483
▁untuvasta	-9484
▁vainiolla	-9485
▁valkeaksi	-9486
▁varppehia	-9487
▁veitsellä	-9488
▁viimeisiä	-9489
▁vuotanevi	-9490
▁vyöltänsä	-9491
▁vääntimet	-9492
▁ylistetty	-9493
▁älyämähän	-9494
ahuttamatta	-9495
karvallista	-9496
korvaisella	-9497
otanterille	-9498
utellakseni	-9499
▁Karjalassa	-9500
▁Märkähattu	-9501
▁Sariolassa	-9502
▁Tapiolahan	-9503
▁Venäehelle	-9504
▁Väinölähän	-9505
▁alasimelle	-9506
▁asehinensa	-9507
▁elomaillen	-9508
▁emännällen	-9509
▁ennättänyt	-9510
▁ensimäinen	-9511
▁ensimäisen	-9512
▁entistänsä	-9513
▁haarukasta	-9514
▁hallikoira	-9515
▁hampahisin	-9516
▁hartioille	-9517
▁hartioisen	-9518
▁hartioitse	-9519
▁hatuttoman	-9520
▁heilutteli	-9521
▁hettehillä	-9522
▁hienohelma	-9523
▁huikahutti	-9524
▁huolimatta	-9525
▁huolissani	-9526
▁huolitteli	-9527
▁huonehesen	-9528
▁hyppysissä	-9529
▁hätäpäivän	-9530
▁jaksettuna	-9531
▁jompikumpi	-9532
▁juotetahan	-9533
▁kaatamahan	-9534
▁kaatumahan	-9535
▁kaatunehen	-9536
▁kaljahansa	-9537
▁kankahille	-9538
▁kansoinesi	-9539
▁kaottajata	-9540
▁kartanolla	-9541
▁kasvanunna	-9542
▁kasvatella	-9543
▁kasvatteli	-9544
▁katajaiset	-9545
▁katoamahan	-9546
▁katsehilla	-9547
▁katselohon	-9548
▁kattilassa	-9549
▁keikahutti	-9550
▁kellarihin	-9551
▁keskikerta	-9552
▁kiukahalla	-9553
▁kiukahalle	-9554
▁kiukahalta	-9555
▁konkelolle	-9556
▁kotoiseksi	-9557
▁kukkalatva	-9558
▁kukkujaksi	-9559
▁kukkumassa	-9560
▁kulkevaksi	-9561
▁kullankäär	-9562
▁kuloharjan	-9563
▁kultalatva	-9564
▁kultarinta	-9565
▁kunnahalle	-9566
▁kuolemansa	-9567
▁kuolijaksi	-9568
▁kuulisinko	-9569
▁kynkkäluun	-9570
▁kyntörasta	-9571
▁kämmenillä	-9572
▁kämmeninsä	-9573
▁kärestävät	-9574
▁käskemättä	-9575
▁kätösiänsä	-9576
▁käytäville	-9577
▁laaintahan	-9578
▁laaullista	-9579
▁laikahtihe	-9580
▁lainehista	-9581
▁lasketahan	-9582
▁lattioille	-9583
▁laulajoita	-9584
▁laulamalla	-9585
▁lepeämiksi	-9586
▁leyhytellä	-9587
▁liepehellä	-9588
▁louhikammi	-9589
▁lounahiksi	-9590
▁luikahutti	-9591
▁lumpehista	-9592
▁luotehelle	-9593
▁luotoselle	-9594
▁mansikoita	-9595
▁mennessäsi	-9596
▁miekkoihin	-9597
▁milläskänä	-9598
▁mittelöhön	-9599
▁molempihin	-9600
▁neuvottava	-9601
▁nielijälle	-9602
▁nostamatta	-9603
▁onneksensa	-9604
▁paimenelle	-9605
▁pakkasessa	-9606
▁palkastasi	-9607
▁palmikolle	-9608
▁pantakohon	-9609
▁paremmaksi	-9610
▁partahalla	-9611
▁paukutteli	-9612
▁penkerehen	-9613
▁pinopuiksi	-9614
▁poiallehen	-9615
▁poloisilla	-9616
▁ponnistihe	-9617
▁portahalle	-9618
▁potketahan	-9619
▁punalangat	-9620
▁punapuolan	-9621
▁päivälläpä	-9622
▁rahkehille	-9623
▁rantasilla	-9624
▁reisihinsä	-9625
▁riisumahan	-9626
▁rintapäätä	-9627
▁ruumeniksi	-9628
▁saalihiksi	-9629
▁saanutkana	-9630
▁saatetahan	-9631
▁seisottihe	-9632
▁seitsentäh	-9633
▁siivessäsi	-9634
▁siniviitta	-9635
▁sisarekset	-9636
▁souantahan	-9637
▁soutajaksi	-9638
▁soutamatta	-9639
▁soutelevat	-9640
▁suomuhauki	-9641
▁suopetäjän	-9642
▁suvikunnan	-9643
▁sykysyisen	-9644
▁syntyminen	-9645
▁syntynynnä	-9646
▁syönehelle	-9647
▁säärivarsi	-9648
▁taiteleisi	-9649
▁taivahalta	-9650
▁taivahasta	-9651
▁tajuamahan	-9652
▁tammisessa	-9653
▁tapoamahan	-9654
▁tappeloita	-9655
▁tappelossa	-9656
▁tappelosta	-9657
▁teräksiset	-9658
▁tienohilla	-9659
▁tietämättö	-9660
▁tinarinnan	-9661
▁tuhantisen	-9662
▁tukkeheksi	-9663
▁tullakseni	-9664
▁tullehelta	-9665
▁turvakseni	-9666
▁tuttaville	-9667
▁tynnyrissä	-9668
▁tyttäreksi	-9669
▁tyttärille	-9670
▁tyttäristä	-9671
▁vainioille	-9672
▁vainovalke	-9673
▁vaivutella	-9674
▁valittoani	-9675
▁valkamoita	-9676
▁vallassasi	-9677
▁valmisteli	-9678
▁varoitteli	-9679
▁vaskisehen	-9680
▁vaskisille	-9681
▁vierahalla	-9682
▁vierahalta	-9683
▁vierahilta	-9684
▁vierahissa	-9685
▁vieressäsi	-9686
▁vietäkähän	-9687
▁vietäköhön	-9688
▁viiletellä	-9689
▁voipunutta	-9690
▁voitehiksi	-9691
▁vuotehella	-9692
▁vuotehelta	-9693
▁vuottelevi	-9694
▁välehemmin	-9695
▁yksinäisen	-9696
▁ylenemistä	-9697
▁ylentäjäni	-9698
▁Kaukoniemen	-9699
▁Lietsahutti	-9700
▁ajattelevat	-9701
▁alantehelle	-9702
▁anoppelassa	-9703
▁aurinkoinen	-9704
▁happaimeksi	-9705
▁hiekkaranta	-9706
▁huitukoille	-9707
▁höryeleikse	-9708
▁ikimajoista	-9709
▁itsestäniki	-9710
▁kalkutellut	-9711
▁kallellehen	-9712
▁kalvallansa	-9713
▁kanteloisen	-9714
▁kappaleiksi	-9715
▁karettelevi	-9716
▁karpaloista	-9717
▁katsontahan	-9718
▁kaunoisissa	-9719
▁kaunokaiset	-9720
▁kehumattaki	-9721
▁kelvolliset	-9722
▁keskimäinen	-9723
▁kielastajan	-9724
▁kiertämähän	-9725
▁kirjokorjan	-9726
▁kivenpuussa	-9727
▁kohentelevi	-9728
▁koillisesta	-9729
▁koivahainen	-9730
▁kolistelevi	-9731
▁korjastansa	-9732
▁kotiperille	-9733
▁kuiskenteli	-9734
▁kujertelevi	-9735
▁kukahtelevi	-9736
▁kukkalatvan	-9737
▁kullallensa	-9738
▁kultaiselle	-9739
▁kunnollista	-9740
▁kuolkahansa	-9741
▁kuuntelivat	-9742
▁kymmenennen	-9743
▁kynnykseltä	-9744
▁källeröinen	-9745
▁leukaluusta	-9746
▁lietsehensä	-9747
▁loitsimahan	-9748
▁luonnotarta	-9749
▁lähentelihe	-9750
▁maailmoille	-9751
▁matelemahan	-9752
▁mennäksensä	-9753
▁miekkoisien	-9754
▁mieluisahan	-9755
▁milloinkana	-9756
▁muinaisille	-9757
▁naurusuulla	-9758
▁oletteleisi	-9759
▁palelematta	-9760
▁palkkalaisi	-9761
▁pientarelta	-9762
▁pihlajainen	-9763
▁puolikkohon	-9764
▁pyyhkijäksi	-9765
▁päästäkseni	-9766
▁päästäksesi	-9767
▁rikottelevi	-9768
▁rinnoillesi	-9769
▁salvoksissa	-9770
▁seistessäni	-9771
▁seurustella	-9772
▁siirteleisi	-9773
▁siirtymähän	-9774
▁silmistänsä	-9775
▁sinikeräsen	-9776
▁soittamahan	-9777
▁suistamahan	-9778
▁sulkaturkin	-9779
▁suurimmalla	-9780
▁säkenevällä	-9781
▁tasaterällä	-9782
▁teltamoinen	-9783
▁teräsvöihin	-9784
▁toimitellen	-9785
▁tutkaimehen	-9786
▁tutkaimessa	-9787
▁täytteheksi	-9788
▁vaahterisen	-9789
▁vaakalinnun	-9790
▁vaapukkahan	-9791
▁vaeltamassa	-9792
▁valittelevi	-9793
▁venosehensa	-9794
▁ventovieras	-9795
▁vesikivelle	-9796
▁vesipisarat	-9797
▁vierähtäisi	-9798
▁viirunaaman	-9799
▁viljamättäh	-9800
▁vyöteleikse	-9801
▁vähäväkisen	-9802
▁Kullervoisen	-9803
▁huotrastansa	-9804
▁kaikenlaiset	-9805
▁kajahtelivat	-9806
▁kasvoiltansa	-9807
▁katettakahan	-9808
▁keihäsvartta	-9809
▁kirvesvartta	-9810
▁kohottimeksi	-9811
▁kumottamasta	-9812
▁lakaisijaksi	-9813
▁lehettömäksi	-9814
▁levähtämättä	-9815
▁likasijoille	-9816
▁likistämähän	-9817
▁lähteäksensä	-9818
▁merelliseltä	-9819
▁nimettömälle	-9820
▁noustaksensa	-9821
▁pakolliseksi	-9822
▁piharikoilla	-9823
▁pääksytysten	-9824
▁rinnoillensa	-9825
▁rinnoiltansa	-9826
▁sarkakauhtan	-9827
▁sirottamahan	-9828
▁tavottamahan	-9829
▁teräksisehen	-9830
▁teräksisille	-9831
▁teräsnenillä	-9832
▁tuonnemmaksi	-9833
▁työnteleisin	-9834
▁uvantolainen	-9835
▁uvantolaisen	-9836
▁vaivannoissa	-9837
▁vajottajalle	-9838
▁vatsantäyttä	-9839
▁aikaellaksesi	-9840
▁autuaallisten	-9841
▁havaitsematta	-9842
▁hernevartisen	-9843
▁kintahattomin	-9844
▁kohotteleikse	-9845
▁kultakangasta	-9846
▁mahtipontisen	-9847
▁murkinaisiksi	-9848
▁puhasteleikse	-9849
▁suvantolaisen	-9850
▁vaatevarpahan	-9851
▁liinalinnuista	-9852
▁kaaputellakseni	-9853
▁kääperöittelevi	-9854
▁valtavanhempasi	-9855
Ny	-9856
Pa	-9857
Pi	-9858
Ty	-9859
hu	-9860
lt	-9861
ru	-9862
su	-9863
vy	-9864
Hoi	-9865
Kas	-9866
Koh	-9867
Kos	-9868
Kyt	-9869
Men	-9870
Pal	-9871
Pit	-9872
Puh	-9873
Sit	-9874
Syl	-9875
Syö	-9876
Tar	-9877
Teh	-9878
Tun	-9879
Var	-9880
ahi	-9881
aik	-9882
arm	-9883
ase	-9884
ass	-9885
eet	-9886
ehu	-9887
ekk	-9888
ena	-9889
epä	-9890
get	-9891
het	-9892
hit	-9893
hkä	-9894
iky	-9895
iso	-9896
itk	-9897
ito	-9898
iän	-9899
Juo	-9900
Poi	-9901
ehi	-9902
jot	-9903
kes	-9904
kky	-9905
kkö	-9906
kuk	-9907
kyt	-9908
kös	-9909
las	-9910
lmi	-9911
lät	-9912
mea	-9913
muj	-9914
omp	-9915
one	-9916
ork	-9917
ost	-9918
ote	-9919
pes	-9920
pir	-9921
päl	-9922
ria	-9923
rin	-9924
riv	-9925
rke	-9926
ruo	-9927
sel	-9928
ske	-9929
ski	-9930
sku	-9931
suk	-9932
tik	-9933
tiä	-9934
tuk	-9935
tur	-9936
umi	-9937
umä	-9938
vuo	-9939
yet	-9940
yin	-9941
ysy	-9942
yyh	-9943
yän	-9944
ähk	-9945
ämm	-9946
äst	-9947
▁In	-9948
▁Mu	-9949
▁Na	-9950
▁Po	-9951
▁Ui	-9952
▁my	-9953
▁än	-9954
▁är	-9955
Aita	-9956
Kolm	-9957
Kuol	-9958
Lien	-9959
Mikä	-9960
Noin	-9961
Sinä	-9962
Sitä	-9963
Ukko	-9964
ahit	-9965
ahka	-9966
ainn	-9967
ajan	-9968
anki	-9969
anna	-9970
arah	-9971
eavi	-9972
ehto	-9973
emet	-9974
ento	-9975
erto	-9976
etin	-9977
evut	-9978
hini	-9979
hois	-9980
ikal	-9981
ikku	-9982
iloa	-9983
iloh	-9984
inna	-9985
isih	-9986
iske	-9987
itup	-9988
itut	-9989
ival	-9990
iver	-9991
kale	-9992
kene	-9993
keos	-9994
kiel	-9995
kihe	-9996
kinä	-9997
kkil	-9998
kkiä	-9999
Eip	-10000
ijo	-10001
ora	-10002
etkö	-10003
ipar	-10004
itkö	-10005
koia	-10006
korv	-10007
ksia	-10008
kunn	-10009
kuon	-10010
kyvä	-10011
kävi	-10012
kösi	-10013
luon	-10014
mata	-10015
meni	-10016
mmet	-10017
mmon	-10018
moan	-10019
moni	-10020
mpui	-10021
oeli	-10022
okka	-10023
onet	-10024
onne	-10025
orvi	-10026
otan	-10027
otin	-10028
otko	-10029
otse	-10030
otul	-10031
pitä	-10032
ppui	-10033
päin	-10034
pätö	-10035
rmyn	-10036
saha	-10037
sell	-10038
sian	-10039
säni	-10040
taja	-10041
toni	-10042
tteh	-10043
tuja	-10044
tuos	-10045
tyen	-10046
tänä	-10047
uann	-10048
uolt	-10049
uone	-10050
uora	-10051
uria	-10052
urma	-10053
usan	-10054
usut	-10055
uten	-10056
utin	-10057
vaiv	-10058
voit	-10059
yksi	-10060
ynen	-10061
yönä	-10062
yörr	-10063
änke	-10064
äsnä	-10065
äter	-10066
öset	-10067
öyti	-10068
▁Hiv	-10069
▁Kan	-10070
▁Kil	-10071
▁Kur	-10072
▁Lei	-10073
▁Mat	-10074
▁Näh	-10075
▁Per	-10076
▁Sel	-10077
▁Sil	-10078
▁Tuk	-10079
▁Vei	-10080
▁Ven	-10081
▁Ver	-10082
▁Veä	-10083
▁Vis	-10084
▁Voi	-10085
▁akk	-10086
▁alk	-10087
▁apa	-10088
▁asu	-10089
▁aur	-10090
▁ets	-10091
▁hap	-10092
▁hau	-10093
▁hik	-10094
▁hoh	-10095
▁hut	-10096
▁hyö	-10097
▁ill	-10098
▁isk	-10099
tea	-10100
tte	-10101
iham	-10102
posi	-10103
äret	-10104
▁Hev	-10105
▁Hor	-10106
▁ist	-10107
▁jak	-10108
▁jol	-10109
▁jor	-10110
▁kup	-10111
▁käh	-10112
▁käk	-10113
▁lak	-10114
▁lim	-10115
▁lit	-10116
▁lor	-10117
▁lot	-10118
▁luh	-10119
▁lyl	-10120
▁mua	-10121
▁nai	-10122
▁nau	-10123
▁nok	-10124
▁nut	-10125
▁näe	-10126
▁oks	-10127
▁olk	-10128
▁oot	-10129
▁ora	-10130
▁ori	-10131
▁oro	-10132
▁oto	-10133
▁pai	-10134
▁pii	-10135
▁pou	-10136
▁pui	-10137
▁puo	-10138
▁pär	-10139
▁rai	-10140
▁ran	-10141
▁reh	-10142
▁ryt	-10143
▁sij	-10144
▁sio	-10145
▁soh	-10146
▁syr	-10147
▁tir	-10148
▁tom	-10149
▁tou	-10150
▁tär	-10151
▁uik	-10152
▁ura	-10153
▁via	-10154
▁vin	-10155
Kenen	-10156
Kenpä	-10157
Kukas	-10158
Kunpa	-10159
Kuule	-10160
Laula	-10161
Läksi	-10162
Malta	-10163
Mihin	-10164
Oisin	-10165
ahamp	-10166
ahien	-10167
ahoit	-10168
akana	-10169
alall	-10170
alasi	-10171
annat	-10172
annin	-10173
arien	-10174
arven	-10175
asina	-10176
ataos	-10177
atkoi	-10178
ehena	-10179
ehtin	-10180
eksiä	-10181
elija	-10182
emmet	-10183
emoit	-10184
ennus	-10185
etten	-10186
ettua	-10187
ettär	-10188
eällä	-10189
golle	-10190
haisi	-10191
hinsa	-10192
hintä	-10193
iassa	-10194
ihini	-10195
ihmat	-10196
imeni	-10197
imenn	-10198
inauh	-10199
Kuka	-10200
mätä	-10201
skin	-10202
taru	-10203
▁Use	-10204
▁irv	-10205
▁läv	-10206
Missä	-10207
Poiku	-10208
ehtia	-10209
inevi	-10210
innot	-10211
inäni	-10212
isesi	-10213
istet	-10214
istyn	-10215
jiksi	-10216
jouko	-10217
jältä	-10218
jänen	-10219
kaele	-10220
kaeli	-10221
kahat	-10222
kahuh	-10223
kaisu	-10224
kasia	-10225
katto	-10226
kenin	-10227
kenpä	-10228
kiksi	-10229
kisin	-10230
kisti	-10231
kkana	-10232
kkasi	-10233
koavi	-10234
koili	-10235
konen	-10236
kunne	-10237
käeli	-10238
kättä	-10239
ltäni	-10240
lähän	-10241
messa	-10242
metta	-10243
mpani	-10244
musta	-10245
mäksi	-10246
nassa	-10247
oaisi	-10248
oksia	-10249
osiko	-10250
ostan	-10251
ovimm	-10252
palla	-10253
paloa	-10254
pehet	-10255
piika	-10256
pinot	-10257
ppoja	-10258
punsa	-10259
puuna	-10260
päänä	-10261
ralla	-10262
rauta	-10263
rella	-10264
rkkoi	-10265
räite	-10266
salla	-10267
sensa	-10268
sillä	-10269
stäsi	-10270
sukka	-10271
tehet	-10272
telta	-10273
telty	-10274
teltä	-10275
tenpa	-10276
tetty	-10277
tilah	-10278
tistä	-10279
tonet	-10280
tosen	-10281
tteli	-10282
tähän	-10283
täkkö	-10284
uhusi	-10285
uisna	-10286
ukana	-10287
uoksi	-10288
uonna	-10289
uortu	-10290
uraha	-10291
varsa	-10292
ventä	-10293
viani	-10294
viltä	-10295
vonko	-10296
vovan	-10297
väkeä	-10298
yestä	-10299
Piä	-10300
Kave	-10301
asvä	-10302
emiä	-10303
kahl	-10304
teta	-10305
ynni	-10306
yssä	-10307
▁hep	-10308
▁säk	-10309
▁tee	-10310
▁yhy	-10311
kasin	-10312
kemme	-10313
miltä	-10314
oimat	-10315
oitte	-10316
päivi	-10317
pääsi	-10318
yisin	-10319
änäki	-10320
öillä	-10321
▁Ajat	-10322
▁Enpä	-10323
▁Imat	-10324
▁Jouk	-10325
▁Kaat	-10326
▁Kata	-10327
▁Liit	-10328
▁Myös	-10329
▁Paha	-10330
▁Pesi	-10331
▁Puol	-10332
▁Saks	-10333
▁Sekä	-10334
▁Siir	-10335
▁Siit	-10336
▁Sill	-10337
▁Sini	-10338
▁Suol	-10339
▁Tuom	-10340
▁Veit	-10341
▁Vetä	-10342
▁Vier	-10343
▁Viet	-10344
▁aamu	-10345
▁ahki	-10346
▁alet	-10347
▁alim	-10348
▁anke	-10349
▁anoi	-10350
▁arvi	-10351
▁asem	-10352
▁auvo	-10353
▁avar	-10354
▁eell	-10355
▁elot	-10356
▁emäh	-10357
▁enpä	-10358
▁evän	-10359
▁evät	-10360
▁haap	-10361
▁haen	-10362
▁hais	-10363
▁hauo	-10364
▁heim	-10365
▁here	-10366
▁hies	-10367
▁hihn	-10368
▁hiip	-10369
▁häät	-10370
▁ikih	-10371
▁iman	-10372
▁irti	-10373
▁isoa	-10374
▁isot	-10375
▁jaks	-10376
▁jala	-10377
▁joll	-10378
▁jonk	-10379
▁jous	-10380
▁juut	-10381
▁jyvä	-10382
▁jäin	-10383
▁kaah	-10384
▁kaha	-10385
▁kalj	-10386
▁kamm	-10387
▁kapi	-10388
▁kasi	-10389
▁kehä	-10390
▁kiro	-10391
▁kita	-10392
▁koan	-10393
▁kohu	-10394
▁kops	-10395
▁koul	-10396
▁kuil	-10397
▁kuis	-10398
▁kulm	-10399
lös	-10400
Siin	-10401
rama	-10402
ruos	-10403
vuja	-10404
▁Sep	-10405
asena	-10406
astia	-10407
iheät	-10408
isihe	-10409
sijoa	-10410
▁Ensi	-10411
▁Lämm	-10412
▁Pois	-10413
▁help	-10414
▁kunp	-10415
▁kupo	-10416
▁kuut	-10417
▁kyns	-10418
▁käyv	-10419
▁lais	-10420
▁laji	-10421
▁lask	-10422
▁leht	-10423
▁leik	-10424
▁leuk	-10425
▁liej	-10426
▁loin	-10427
▁luit	-10428
▁lupa	-10429
▁lynn	-10430
▁maaj	-10431
▁miet	-10432
▁mist	-10433
▁muik	-10434
▁muis	-10435
▁mäen	-10436
▁nais	-10437
▁naon	-10438
▁nauk	-10439
▁naul	-10440
▁nimi	-10441
▁niuk	-10442
▁noen	-10443
▁nopp	-10444
▁näin	-10445
▁onki	-10446
▁onpa	-10447
▁orin	-10448
▁oroa	-10449
▁ouon	-10450
▁pahn	-10451
▁paim	-10452
▁pall	-10453
▁palv	-10454
▁panu	-10455
▁pauh	-10456
▁paul	-10457
▁piel	-10458
▁puhe	-10459
▁pull	-10460
▁päit	-10461
▁raat	-10462
▁rais	-10463
▁raps	-10464
▁repi	-10465
▁repä	-10466
▁rien	-10467
▁rips	-10468
▁ruoi	-10469
▁rusa	-10470
▁ruun	-10471
▁räim	-10472
▁saus	-10473
▁savi	-10474
▁silp	-10475
▁soma	-10476
▁somp	-10477
▁sore	-10478
▁sort	-10479
▁suis	-10480
▁suki	-10481
▁sull	-10482
▁suoj	-10483
▁suot	-10484
▁suru	-10485
▁surv	-10486
▁syet	-10487
▁sykk	-10488
▁syle	-10489
▁syöj	-10490
▁taia	-10491
▁taki	-10492
▁tupi	-10493
▁tupr	-10494
▁turp	-10495
▁uiks	-10496
▁uina	-10497
▁ussa	-10498
▁usta	-10499
Akat	-10500
ivir	-10501
▁aav	-10502
karan	-10503
kelpo	-10504
keävi	-10505
tutin	-10506
▁Kunp	-10507
▁Tuho	-10508
▁huoh	-10509
▁joss	-10510
▁nuoh	-10511
▁ovia	-10512
▁pors	-10513
▁port	-10514
▁vael	-10515
▁vajo	-10516
▁vapa	-10517
▁vart	-10518
▁veik	-10519
▁veng	-10520
▁veät	-10521
▁viat	-10522
▁viin	-10523
▁vyön	-10524
▁väkä	-10525
▁väär	-10526
▁yrit	-10527
Kaikki	-10528
Kellen	-10529
Kiitän	-10530
Niinpä	-10531
Tuolla	-10532
ahilta	-10533
ahinen	-10534
ahutat	-10535
ahutin	-10536
alampi	-10537
alassa	-10538
alatar	-10539
arauat	-10540
ariksi	-10541
arista	-10542
arjele	-10543
asehen	-10544
aselle	-10545
astihe	-10546
attane	-10547
avahan	-10548
eheltä	-10549
ehesta	-10550
ehtivi	-10551
ehutta	-10552
elijan	-10553
elohon	-10554
ematto	-10555
emättä	-10556
enistä	-10557
enteli	-10558
erissä	-10559
erosta	-10560
estani	-10561
etkana	-10562
ettäjä	-10563
ettävi	-10564
evässä	-10565
ihista	-10566
ikauet	-10567
ikiksi	-10568
ikkini	-10569
iksesi	-10570
iksien	-10571
ilintu	-10572
illesi	-10573
iloksi	-10574
imikkö	-10575
imille	-10576
imista	-10577
imässä	-10578
imättä	-10579
inkana	-10580
isenki	-10581
isensä	-10582
isinki	-10583
isinkö	-10584
isinta	-10585
issäsi	-10586
istäni	-10587
itusta	-10588
itähän	-10589
itäime	-10590
itänsä	-10591
iverta	-10592
jahani	-10593
joissa	-10594
kangas	-10595
keaksi	-10596
kierto	-10597
koinen	-10598
koisen	-10599
ijän	-10600
veet	-10601
golla	-10602
puita	-10603
rehta	-10604
tynyt	-10605
äisnä	-10606
▁kiho	-10607
▁otus	-10608
▁sivu	-10609
▁syli	-10610
▁tarh	-10611
▁unen	-10612
▁unia	-10613
aisena	-10614
koissa	-10615
koppel	-10616
kseksi	-10617
kuulla	-10618
kynnen	-10619
laisen	-10620
lemmen	-10621
llisnä	-10622
luisen	-10623
maalta	-10624
maassa	-10625
minnan	-10626
mäistä	-10627
olasta	-10628
oloita	-10629
omihin	-10630
oronen	-10631
osille	-10632
osista	-10633
ottama	-10634
penkul	-10635
peästi	-10636
pioksi	-10637
puihin	-10638
puiset	-10639
päänsä	-10640
päässä	-10641
sijani	-10642
suuhun	-10643
talona	-10644
tanter	-10645
tehena	-10646
teuisi	-10647
toaisi	-10648
ukalta	-10649
ukkana	-10650
ukkasi	-10651
ukujen	-10652
uloita	-10653
umista	-10654
ununna	-10655
urissa	-10656
ussasi	-10657
ustaja	-10658
uttani	-10659
uttasi	-10660
utusta	-10661
uueksi	-10662
uville	-10663
vaiset	-10664
vaksia	-10665
varret	-10666
vitjat	-10667
vyössä	-10668
ymyttä	-10669
yvihin	-10670
ähältä	-10671
älläki	-10672
ännevi	-10673
▁Ampui	-10674
▁Hauki	-10675
▁Hyvin	-10676
▁Illan	-10677
▁Itkin	-10678
▁Jäipä	-10679
▁Jänis	-10680
▁Kalat	-10681
▁Kauan	-10682
▁Konsa	-10683
▁Kunpa	-10684
▁Kutsu	-10685
▁Kuura	-10686
▁Kylmi	-10687
▁Laula	-10688
▁Liiti	-10689
▁Lyöte	-10690
▁Nevan	-10691
▁Oisit	-10692
▁Paljo	-10693
▁Pieni	-10694
▁Pihla	-10695
▁Pisan	-10696
▁Pyörr	-10697
▁Pääsi	-10698
▁Rauta	-10699
▁oso	-10700
Ennen	-10701
jävät	-10702
kunen	-10703
kunut	-10704
ltani	-10705
nätti	-10706
paise	-10707
▁Korv	-10708
▁Kuut	-10709
▁apea	-10710
▁appa	-10711
▁hera	-10712
▁huis	-10713
▁huur	-10714
▁kenp	-10715
▁osan	-10716
▁rahe	-10717
▁sara	-10718
▁utua	-10719
elensä	-10720
elevan	-10721
elevät	-10722
ijoita	-10723
iseinä	-10724
llisna	-10725
ostani	-10726
purnun	-10727
▁Sanat	-10728
▁Sarao	-10729
▁Savon	-10730
▁Sisar	-10731
▁Taoit	-10732
▁Tulin	-10733
▁Tulit	-10734
▁Tuoll	-10735
▁Tuoss	-10736
▁Vähän	-10737
▁ajama	-10738
▁aleni	-10739
▁alima	-10740
▁annat	-10741
▁antel	-10742
▁antia	-10743
▁armot	-10744
▁arvat	-10745
▁asuva	-10746
▁eellä	-10747
▁eleli	-10748
▁eletä	-10749
▁eloni	-10750
▁eläjä	-10751
▁emona	-10752
▁entis	-10753
▁erkan	-10754
▁etemp	-10755
▁etten	-10756
▁hajoa	-10757
▁halea	-10758
▁haluv	-10759
▁hattu	-10760
▁havat	-10761
▁havul	-10762
▁heleä	-10763
▁hersk	-10764
▁hiisi	-10765
▁hoila	-10766
▁häätä	-10767
▁ikeni	-10768
▁ilmat	-10769
▁ilokä	-10770
▁ilovi	-10771
▁iltoa	-10772
▁isken	-10773
▁iskun	-10774
▁isänn	-10775
▁itkua	-10776
▁itkun	-10777
▁iäksi	-10778
▁jalot	-10779
▁joisi	-10780
▁jonne	-10781
▁josko	-10782
▁jouko	-10783
▁juoen	-10784
▁järvi	-10785
▁kaaps	-10786
▁kaarn	-10787
▁kaikk	-10788
▁kaipa	-10789
▁kaits	-10790
▁kakun	-10791
▁kalke	-10792
▁kalua	-10793
▁kanoa	-10794
▁kanto	-10795
▁kapeh	-10796
▁kasta	-10797
▁kasvo	-10798
▁kasvu	-10799
tune	-10800
ähtyi	-10801
änehe	-10802
▁Avun	-10803
▁Iätä	-10804
▁avoi	-10805
▁kapl	-10806
▁nuot	-10807
▁pyyn	-10808
▁rehe	-10809
Päästä	-10810
keävän	-10811
okossa	-10812
timora	-10813
ytäksi	-10814
▁Enemp	-10815
▁Laulu	-10816
▁Puita	-10817
▁appel	-10818
▁astun	-10819
▁hanka	-10820
▁hoiva	-10821
▁jouti	-10822
▁kapah	-10823
▁katon	-10824
▁keheä	-10825
▁kehjo	-10826
▁kelkk	-10827
▁kelle	-10828
▁kenkä	-10829
▁kerit	-10830
▁kerra	-10831
▁kesäv	-10832
▁kiero	-10833
▁kivun	-10834
▁kokat	-10835
▁kokea	-10836
▁kokka	-10837
▁kokoa	-10838
▁komea	-10839
▁korko	-10840
▁korsi	-10841
▁korvo	-10842
▁kosen	-10843
▁kosto	-10844
▁kostu	-10845
▁kukan	-10846
▁kukko	-10847
▁kuksi	-10848
▁kukut	-10849
▁kulea	-10850
▁kulmi	-10851
▁kului	-10852
▁kumpi	-10853
▁kunpa	-10854
▁kuolo	-10855
▁kuona	-10856
▁kuopa	-10857
▁kuore	-10858
▁kutoa	-10859
▁kuuja	-10860
▁kylin	-10861
▁kyliä	-10862
▁kylyt	-10863
▁kylyä	-10864
▁kystä	-10865
▁kytke	-10866
▁käpyl	-10867
▁käret	-10868
▁käske	-10869
▁kätke	-10870
▁kätki	-10871
▁kävit	-10872
▁käypä	-10873
▁käämi	-10874
▁laain	-10875
▁lahet	-10876
▁lahoa	-10877
▁lahon	-10878
▁lajia	-10879
▁latoa	-10880
▁latoi	-10881
▁lauan	-10882
▁lauat	-10883
▁lausi	-10884
▁lehvä	-10885
▁leika	-10886
▁leipo	-10887
▁leuat	-10888
▁liehu	-10889
▁lupas	-10890
▁luuli	-10891
▁luuta	-10892
▁luuti	-10893
▁lykki	-10894
▁löipä	-10895
▁maani	-10896
▁maien	-10897
▁mehil	-10898
▁meneh	-10899
Mie	-10900
Nyyr	-10901
etso	-10902
ainni	-10903
miäsi	-10904
potar	-10905
▁Auka	-10906
▁Käsi	-10907
▁Mäet	-10908
▁etso	-10909
▁noiu	-10910
▁nähn	-10911
▁omia	-10912
▁sarj	-10913
tunaki	-10914
usella	-10915
ynynnä	-10916
▁kosia	-10917
▁lahja	-10918
▁menen	-10919
▁meriä	-10920
▁mesin	-10921
▁munia	-10922
▁muria	-10923
▁mustu	-10924
▁märän	-10925
▁naise	-10926
▁napoa	-10927
▁nenin	-10928
▁niinp	-10929
▁nimeä	-10930
▁nimit	-10931
▁nokka	-10932
▁nouan	-10933
▁nouat	-10934
▁näkem	-10935
▁näytä	-10936
▁ohjat	-10937
▁oksan	-10938
▁olija	-10939
▁omani	-10940
▁ongen	-10941
▁oppia	-10942
▁orpoa	-10943
▁orsia	-10944
▁otson	-10945
▁pahen	-10946
▁pahin	-10947
▁pakah	-10948
▁panko	-10949
▁panun	-10950
▁parja	-10951
▁parku	-10952
▁pavun	-10953
▁pense	-10954
▁pensi	-10955
▁pereh	-10956
▁pereä	-10957
▁perit	-10958
▁petti	-10959
▁pieno	-10960
▁pihat	-10961
▁pihet	-10962
▁piile	-10963
▁pilas	-10964
▁pitel	-10965
▁piuko	-10966
▁piätä	-10967
▁pohjo	-10968
▁pohke	-10969
▁polki	-10970
▁polku	-10971
▁poron	-10972
▁puhta	-10973
▁puhui	-10974
▁puien	-10975
▁puist	-10976
▁pyytö	-10977
▁pyöri	-10978
▁pääty	-10979
▁pöytä	-10980
▁raiat	-10981
▁rajut	-10982
▁rauha	-10983
▁rauka	-10984
▁reikä	-10985
▁reiän	-10986
▁rekeä	-10987
▁riemu	-10988
▁rikon	-10989
▁ruman	-10990
▁ruoan	-10991
▁rutto	-10992
▁ruvet	-10993
▁saaja	-10994
▁saako	-10995
▁saama	-10996
▁saava	-10997
▁saipa	-10998
▁salam	-10999
Sule	-11000
mean	-11001
Tokko	-11002
ertav	-11003
kehia	-11004
okset	-11005
▁Muur	-11006
▁Onko	-11007
▁Unto	-11008
▁hirt	-11009
▁pyhä	-11010
▁voie	-11011
iviltä	-11012
kullat	-11013
luilla	-11014
▁hepoa	-11015
▁lohko	-11016
▁melto	-11017
▁savua	-11018
▁sekeh	-11019
▁sievä	-11020
▁siima	-11021
▁silki	-11022
▁sille	-11023
▁silma	-11024
▁simps	-11025
▁sivua	-11026
▁somat	-11027
▁sukea	-11028
▁sukel	-11029
▁sukoa	-11030
▁sulla	-11031
▁suora	-11032
▁suori	-11033
▁suotu	-11034
▁surra	-11035
▁susia	-11036
▁syker	-11037
▁syvät	-11038
▁syänn	-11039
▁syöen	-11040
▁säter	-11041
▁tahto	-11042
▁takan	-11043
▁talma	-11044
▁talut	-11045
▁talvi	-11046
▁taoit	-11047
▁tapoa	-11048
▁taput	-11049
▁tarin	-11050
▁tarpo	-11051
▁tereä	-11052
▁terin	-11053
▁teriä	-11054
▁terät	-11055
▁tikka	-11056
▁tohti	-11057
▁tulin	-11058
▁tuloa	-11059
▁tuore	-11060
▁tuuti	-11061
▁typer	-11062
▁tyvin	-11063
▁työsi	-11064
▁tähyä	-11065
▁tältä	-11066
▁ulkoa	-11067
▁ulvoi	-11068
▁uneni	-11069
▁untel	-11070
▁utuna	-11071
▁vahat	-11072
▁vahti	-11073
▁vajan	-11074
▁valoi	-11075
▁vanki	-11076
▁varin	-11077
▁varoa	-11078
▁veris	-11079
▁veriä	-11080
▁verko	-11081
▁vihat	-11082
▁viher	-11083
▁vilua	-11084
▁voima	-11085
▁vuoen	-11086
▁vyöni	-11087
▁väkin	-11088
▁völle	-11089
▁yöhyt	-11090
▁ääret	-11091
▁öillä	-11092
Ellöspä	-11093
Kotihin	-11094
Mistäpä	-11095
Parempi	-11096
Silloin	-11097
ahaikse	-11098
aloille	-11099
▁Ra	-11100
▁Ri	-11101
Etkö	-11102
äppi	-11103
Paljo	-11104
kauet	-11105
▁auet	-11106
Tuosta	-11107
asauna	-11108
elemat	-11109
entävi	-11110
läinen	-11111
tänevi	-11112
ytähän	-11113
▁Mieli	-11114
▁hauku	-11115
▁kamal	-11116
▁marha	-11117
▁munan	-11118
▁pauke	-11119
▁saare	-11120
▁suuni	-11121
▁viini	-11122
▁väkiv	-11123
ahukset	-11124
aloisen	-11125
aloissa	-11126
astuisi	-11127
attaren	-11128
attihin	-11129
ehtivät	-11130
elkämme	-11131
ellaita	-11132
ellenki	-11133
ellytti	-11134
ellänsä	-11135
eltaisi	-11136
eltänsä	-11137
emiehet	-11138
ennalta	-11139
ennehet	-11140
evuutta	-11141
ikkojen	-11142
ikoiksi	-11143
ikosken	-11144
ikuisen	-11145
ikäiset	-11146
iltansa	-11147
impahan	-11148
inainen	-11149
ingittä	-11150
isinesi	-11151
issansa	-11152
istelen	-11153
itäikse	-11154
jahutti	-11155
jalkoja	-11156
jasehen	-11157
jelohon	-11158
kaellen	-11159
kahaksi	-11160
kahalla	-11161
kastani	-11162
kehesta	-11163
kemista	-11164
kerelle	-11165
kiellut	-11166
kittane	-11167
kivellä	-11168
kkaisen	-11169
kkaiset	-11170
kkueltu	-11171
koaisin	-11172
koloita	-11173
komahan	-11174
kottane	-11175
kuhunki	-11176
kytellä	-11177
mäkehen	-11178
mätänsä	-11179
oinansa	-11180
oitansa	-11181
oitteli	-11182
ojaista	-11183
olaisen	-11184
ollamme	-11185
ommalle	-11186
onnalta	-11187
orihman	-11188
orjaksi	-11189
ottaria	-11190
ottavan	-11191
ottuasi	-11192
oviertä	-11193
piikana	-11194
piännät	-11195
rettuna	-11196
rytteli	-11197
satahan	-11198
tahansa	-11199
Kumm	-11200
▁...	-11201
Antoi	-11202
Tuoni	-11203
Voipa	-11204
poasi	-11205
rauni	-11206
verit	-11207
öyhät	-11208
▁Iske	-11209
▁luks	-11210
mmästi	-11211
▁Satoi	-11212
▁hiilo	-11213
▁kauha	-11214
▁kupit	-11215
▁kääkä	-11216
▁noust	-11217
▁pajun	-11218
▁pajut	-11219
▁sijoi	-11220
▁sirkk	-11221
iksensä	-11222
tajalle	-11223
teheltä	-11224
tehensä	-11225
tehesta	-11226
tehesti	-11227
tehilla	-11228
tehille	-11229
tehissa	-11230
telemme	-11231
telijan	-11232
terestä	-11233
tiaiset	-11234
tolassa	-11235
tomalle	-11236
tyminen	-11237
tynehen	-11238
tänenki	-11239
täviltä	-11240
tävässä	-11241
tömästä	-11242
uisiksi	-11243
ukoissa	-11244
uksensa	-11245
uksilla	-11246
uksinen	-11247
uksissa	-11248
ulainen	-11249
unaiset	-11250
uroiksi	-11251
ustansa	-11252
ustossa	-11253
uttaisi	-11254
uttajat	-11255
uttamat	-11256
uttelen	-11257
uttelet	-11258
uuttasi	-11259
vahutti	-11260
varahan	-11261
varteni	-11262
venosen	-11263
verinen	-11264
veräjän	-11265
vetehen	-11266
yläinen	-11267
äksestä	-11268
ättelen	-11269
▁Heitän	-11270
▁Hornan	-11271
▁Itseki	-11272
▁Jäivät	-11273
▁Kuinka	-11274
▁Kuului	-11275
▁Käännä	-11276
▁Lenteä	-11277
▁Liitti	-11278
▁Läksit	-11279
▁Miehet	-11280
▁Nousit	-11281
▁Oisiko	-11282
▁Paista	-11283
▁Ruotus	-11284
▁Saivat	-11285
▁Soitto	-11286
▁Taivas	-11287
▁Toivon	-11288
▁Tukela	-11289
▁Veikko	-11290
▁Veikon	-11291
▁Veivät	-11292
▁aholle	-11293
▁aikasi	-11294
▁aisasi	-11295
▁aisoja	-11296
▁ajelet	-11297
▁alassa	-11298
▁allani	-11299
Muut	-11300
upur	-11301
▁Tok	-11302
Lähes	-11303
Piteä	-11304
Sinne	-11305
ongat	-11306
pitoa	-11307
tännä	-11308
uvani	-11309
▁Hara	-11310
▁Juos	-11311
▁Tupa	-11312
▁lips	-11313
▁lyps	-11314
▁orav	-11315
▁säps	-11316
▁teps	-11317
Niinkö	-11318
ilöitä	-11319
pitoja	-11320
psahti	-11321
▁Oisko	-11322
▁ajane	-11323
▁epäpä	-11324
▁kamar	-11325
▁kinah	-11326
▁koppa	-11327
▁kylpe	-11328
▁lukki	-11329
▁neljä	-11330
▁penun	-11331
Tuotapa	-11332
imäisnä	-11333
ustelet	-11334
uttelin	-11335
uuttani	-11336
▁Kaaloi	-11337
▁ammuit	-11338
▁ankara	-11339
▁annoin	-11340
▁antane	-11341
▁apajas	-11342
▁arveli	-11343
▁astian	-11344
▁astiat	-11345
▁asuisi	-11346
▁aumoja	-11347
▁ehosti	-11348
▁eikäpä	-11349
▁elelin	-11350
▁elikkä	-11351
▁eläisi	-11352
▁elättä	-11353
▁emolla	-11354
▁emolta	-11355
▁esinnä	-11356
▁haimen	-11357
▁halaja	-11358
▁halean	-11359
▁haolla	-11360
▁harava	-11361
▁harmoa	-11362
▁haukka	-11363
▁heitty	-11364
▁helevi	-11365
▁helkki	-11366
▁helman	-11367
▁hevois	-11368
▁hiihän	-11369
▁hiihät	-11370
▁hiivoa	-11371
▁hirmun	-11372
▁hoikan	-11373
▁hoikat	-11374
▁hoilat	-11375
▁hopear	-11376
▁housut	-11377
▁hullut	-11378
▁huolit	-11379
▁huulin	-11380
▁huusin	-11381
▁ilolla	-11382
▁ilossa	-11383
▁iltana	-11384
▁imehet	-11385
▁isolta	-11386
▁isossa	-11387
▁isosti	-11388
▁istuen	-11389
▁istuin	-11390
▁itseni	-11391
▁jakele	-11392
▁jaloja	-11393
▁jalomm	-11394
▁jaolle	-11395
▁juoman	-11396
▁juotta	-11397
▁jäisen	-11398
▁jäällä	-11399
Kävi	-11400
ykkä	-11401
Eläpä	-11402
ilkit	-11403
ahutit	-11404
östäni	-11405
▁aivot	-11406
▁kyyin	-11407
▁käynn	-11408
▁mität	-11409
▁naima	-11410
▁remua	-11411
▁soien	-11412
etyinen	-11413
kkäisen	-11414
perähän	-11415
▁Poimin	-11416
▁haukia	-11417
▁hiottu	-11418
▁honkia	-11419
▁jouhen	-11420
▁jäässä	-11421
▁kaason	-11422
▁kaheks	-11423
▁kaihon	-11424
▁kaivan	-11425
▁kaivat	-11426
▁kalhot	-11427
▁kaljan	-11428
▁kaljat	-11429
▁kallon	-11430
▁kalman	-11431
▁kanasi	-11432
▁kannet	-11433
▁kantan	-11434
▁kaotan	-11435
▁kapalo	-11436
▁kapusi	-11437
▁karata	-11438
▁karhin	-11439
▁karjah	-11440
▁karjui	-11441
▁kassan	-11442
▁katsoa	-11443
▁kaukal	-11444
▁kaunot	-11445
▁kautol	-11446
▁keihon	-11447
▁keiret	-11448
▁keiton	-11449
▁keitot	-11450
▁keitto	-11451
▁kertoa	-11452
▁keräsi	-11453
▁kierti	-11454
▁kierän	-11455
▁kimpun	-11456
▁kirjat	-11457
▁kiusan	-11458
▁kohisi	-11459
▁koitta	-11460
▁koitti	-11461
▁koivin	-11462
▁kokeos	-11463
▁kokkol	-11464
▁kolasi	-11465
▁kolkko	-11466
▁kolkot	-11467
▁kolmin	-11468
▁koltus	-11469
▁komean	-11470
▁korenn	-11471
▁korpit	-11472
▁koskia	-11473
▁kostui	-11474
▁kotosi	-11475
▁kotvan	-11476
▁koukun	-11477
▁kouran	-11478
▁kovien	-11479
▁kuivia	-11480
▁kulean	-11481
▁kuleta	-11482
▁kulisi	-11483
▁kultah	-11484
▁kumisi	-11485
▁kunnon	-11486
▁kuokan	-11487
▁kuolet	-11488
▁kuolla	-11489
▁kuoppa	-11490
▁kuoret	-11491
▁kutevi	-11492
▁kutoja	-11493
▁kutsul	-11494
▁kuuenn	-11495
▁kuujan	-11496
▁kuulin	-11497
▁kuulit	-11498
▁kuulle	-11499
Kaik	-11500
apion	-11501
▁äreä	-11502
Kaitse	-11503
Saajan	-11504
iköltä	-11505
löistä	-11506
▁Lintu	-11507
▁hieho	-11508
▁hirve	-11509
▁opast	-11510
▁ratoa	-11511
▁ratus	-11512
▁sikeä	-11513
▁sopua	-11514
▁utala	-11515
Miksipä	-11516
assansa	-11517
astossa	-11518
illensä	-11519
kottavi	-11520
▁Kasvat	-11521
▁hieroa	-11522
▁hieroi	-11523
▁huuhta	-11524
▁kourus	-11525
▁kuller	-11526
▁kutrit	-11527
▁kuuman	-11528
▁kuumia	-11529
▁kuusia	-11530
▁kuusin	-11531
▁kuusta	-11532
▁kylmeä	-11533
▁kylmiä	-11534
▁kynnät	-11535
▁kyrmyn	-11536
▁kytket	-11537
▁kyynäs	-11538
▁kärppä	-11539
▁kärpän	-11540
▁kärven	-11541
▁käteni	-11542
▁käärin	-11543
▁käärme	-11544
▁laelta	-11545
▁laioin	-11546
▁laiton	-11547
▁laitta	-11548
▁lampiv	-11549
▁langat	-11550
▁laottu	-11551
▁lapoja	-11552
▁lapsia	-11553
▁latvat	-11554
▁lautan	-11555
▁lehmeä	-11556
▁lehmäs	-11557
▁leipeä	-11558
▁leipoi	-11559
▁lempiv	-11560
▁liinah	-11561
▁liiton	-11562
▁liitot	-11563
▁linnat	-11564
▁liukui	-11565
▁loitte	-11566
▁lyökse	-11567
▁läikkä	-11568
▁lämmin	-11569
▁länget	-11570
▁maarah	-11571
▁maiksi	-11572
▁maista	-11573
▁maksat	-11574
▁manata	-11575
▁marjat	-11576
▁matavi	-11577
▁matkat	-11578
▁matkoi	-11579
▁meessä	-11580
▁menijä	-11581
▁meteli	-11582
▁miekal	-11583
▁mielij	-11584
▁mieluh	-11585
▁muraja	-11586
▁muskul	-11587
▁muulla	-11588
▁muutti	-11589
▁männyt	-11590
▁määrät	-11591
▁napoja	-11592
▁neinnä	-11593
▁neljin	-11594
▁neulan	-11595
▁neuvoa	-11596
▁neuvot	-11597
▁niinkö	-11598
▁niitty	-11599
Mintä	-11600
Sanoi	-11601
Sanon	-11602
auvon	-11603
▁Kust	-11604
▁Olut	-11605
▁alli	-11606
▁hukan	-11607
▁humal	-11608
▁järkä	-11609
▁kopan	-11610
▁riski	-11611
▁risut	-11612
▁taopa	-11613
▁tyreh	-11614
lattiat	-11615
panolle	-11616
▁kaotin	-11617
▁lyhyen	-11618
▁mutien	-11619
▁noilta	-11620
▁noinpa	-11621
▁nostan	-11622
▁nousko	-11623
▁nuolia	-11624
▁nurmet	-11625
▁näihin	-11626
▁olalle	-11627
▁olilla	-11628
▁olisin	-11629
▁olisit	-11630
▁omansa	-11631
▁opetti	-11632
▁opissa	-11633
▁orjani	-11634
▁osaksi	-11635
▁osanne	-11636
▁osatto	-11637
▁otavaa	-11638
▁otavan	-11639
▁ovehen	-11640
▁ovelta	-11641
▁paasia	-11642
▁paikat	-11643
▁pajuja	-11644
▁paksut	-11645
▁palata	-11646
▁palavi	-11647
▁palele	-11648
▁paleli	-11649
▁paljon	-11650
▁paloja	-11651
▁panisi	-11652
▁parkin	-11653
▁penkin	-11654
▁pennut	-11655
▁pensah	-11656
▁pesevi	-11657
▁petoja	-11658
▁pieltä	-11659
▁pihlaj	-11660
▁pihoja	-11661
▁piihin	-11662
▁piiles	-11663
▁piimät	-11664
▁piirtä	-11665
▁piosta	-11666
▁pirtit	-11667
▁pohjat	-11668
▁poiken	-11669
▁poroja	-11670
▁portit	-11671
▁portti	-11672
▁puhuja	-11673
▁puhuvi	-11674
▁puikon	-11675
▁pukevi	-11676
▁punaky	-11677
▁purasi	-11678
▁purevi	-11679
▁purija	-11680
▁purret	-11681
▁purtil	-11682
▁putken	-11683
▁puukko	-11684
▁päähyt	-11685
▁pääsen	-11686
▁pääset	-11687
▁päätti	-11688
▁raetta	-11689
▁rahoja	-11690
▁rakoja	-11691
▁raksin	-11692
▁rastit	-11693
▁rasvan	-11694
▁rikoit	-11695
▁riutun	-11696
▁roikki	-11697
▁rumana	-11698
▁ruohot	-11699
Heitä	-11700
Katso	-11701
marja	-11702
orton	-11703
vesiä	-11704
▁särp	-11705
Vakava	-11706
heinän	-11707
ikarja	-11708
inunpa	-11709
tiinun	-11710
▁Minun	-11711
▁arkku	-11712
▁mylle	-11713
▁romua	-11714
▁särki	-11715
▁vikoa	-11716
Mieleni	-11717
asalmet	-11718
immälle	-11719
▁hautoi	-11720
▁laetto	-11721
▁lisäsi	-11722
▁louhet	-11723
▁ojenti	-11724
▁ovilta	-11725
▁ruoska	-11726
▁ruunat	-11727
▁ruutut	-11728
▁saaman	-11729
▁saamat	-11730
▁saamme	-11731
▁saanen	-11732
▁saanet	-11733
▁saaret	-11734
▁saatat	-11735
▁saimme	-11736
▁sainki	-11737
▁sakean	-11738
▁sakeni	-11739
▁salata	-11740
▁salmet	-11741
▁salvoi	-11742
▁samota	-11743
▁sanani	-11744
▁sataki	-11745
▁savuja	-11746
▁seistä	-11747
▁selitä	-11748
▁siintä	-11749
▁siivet	-11750
▁siivin	-11751
▁sijasi	-11752
▁sinipi	-11753
▁sitele	-11754
▁sitäki	-11755
▁sitänä	-11756
▁siukui	-11757
▁siveän	-11758
▁soista	-11759
▁solmit	-11760
▁sopani	-11761
▁sopisi	-11762
▁sormea	-11763
▁sormil	-11764
▁sormus	-11765
▁sorran	-11766
▁sorsas	-11767
▁sorsat	-11768
▁sortui	-11769
▁sotket	-11770
▁suasta	-11771
▁sueksi	-11772
▁suista	-11773
▁suistu	-11774
▁sukkoa	-11775
▁sukset	-11776
▁suojoa	-11777
▁suolan	-11778
▁suonia	-11779
▁suonta	-11780
▁suorat	-11781
▁susien	-11782
▁suurin	-11783
▁suuruh	-11784
▁synkeä	-11785
▁syämen	-11786
▁syänkä	-11787
▁syökse	-11788
▁syötän	-11789
▁säilyi	-11790
▁säällä	-11791
▁taasen	-11792
▁tahota	-11793
▁taittu	-11794
▁taivot	-11795
▁takais	-11796
▁taljoi	-11797
▁tammet	-11798
▁tapoin	-11799
▁Hope	-11800
▁remu	-11801
Oletko	-11802
▁antim	-11803
▁hempe	-11804
▁käpäs	-11805
▁siula	-11806
▁tytöt	-11807
Annapas	-11808
kurikat	-11809
timiltä	-11810
▁asuvat	-11811
▁karsas	-11812
▁kiukoa	-11813
▁kolaja	-11814
▁konnat	-11815
▁korpia	-11816
▁käyvän	-11817
▁maksoi	-11818
▁ruumis	-11819
▁tarkan	-11820
▁tarvon	-11821
▁tauloa	-11822
▁teentä	-11823
▁tehtah	-11824
▁teiltä	-11825
▁teissä	-11826
▁teljot	-11827
▁telkki	-11828
▁teloja	-11829
▁tervar	-11830
▁tervas	-11831
▁tervoa	-11832
▁tiesit	-11833
▁tietty	-11834
▁tiheät	-11835
▁toeksi	-11836
▁toetki	-11837
▁tointa	-11838
▁toisia	-11839
▁toisih	-11840
▁toukat	-11841
▁tuhkas	-11842
▁tuhkia	-11843
▁tuhoni	-11844
▁tuiret	-11845
▁tulvan	-11846
▁tuohen	-11847
▁tuohta	-11848
▁tuojan	-11849
▁tuojoa	-11850
▁tuomet	-11851
▁tuomit	-11852
▁tuonet	-11853
▁turkki	-11854
▁turmel	-11855
▁tuskan	-11856
▁tuttua	-11857
▁tuuria	-11858
▁tyhjeä	-11859
▁tyhjiä	-11860
▁työnsä	-11861
▁työssä	-11862
▁täytti	-11863
▁uhalla	-11864
▁uneksi	-11865
▁unennä	-11866
▁unille	-11867
▁unohti	-11868
▁utaren	-11869
▁utaret	-11870
▁uupune	-11871
▁vaajan	-11872
▁vaarta	-11873
▁vahvat	-11874
▁vainov	-11875
▁vaippo	-11876
▁vaivut	-11877
▁valion	-11878
▁valvoa	-11879
▁vankat	-11880
▁varava	-11881
▁varjon	-11882
▁varman	-11883
▁varone	-11884
▁varvat	-11885
▁varven	-11886
▁vasara	-11887
▁veljeä	-11888
▁venyjä	-11889
▁verkko	-11890
▁vesiha	-11891
▁vesika	-11892
▁vetele	-11893
▁vetoja	-11894
▁vetäne	-11895
▁vierit	-11896
▁viilti	-11897
▁viisti	-11898
▁vilata	-11899
▁atr	-11900
luuta	-11901
▁päre	-11902
▁hatun	-11903
▁jonki	-11904
▁noitu	-11905
Otsonen	-11906
Tulonen	-11907
ilöissä	-11908
yksenti	-11909
▁Herran	-11910
▁Tahtoi	-11911
▁aavoja	-11912
▁akalta	-11913
▁kiurun	-11914
▁noitui	-11915
▁ontelo	-11916
▁paeten	-11917
▁pieksä	-11918
▁rohkea	-11919
▁syösti	-11920
▁teiren	-11921
▁tekisi	-11922
▁vehnät	-11923
▁villan	-11924
▁vinkui	-11925
▁vitjat	-11926
▁voiker	-11927
▁voilla	-11928
▁voille	-11929
▁vuorta	-11930
▁vuotas	-11931
▁vuotel	-11932
▁vyöltä	-11933
▁vyöstä	-11934
▁väeksi	-11935
▁väeltä	-11936
▁väljät	-11937
▁värjät	-11938
▁väätty	-11939
▁ylemmä	-11940
▁ylenin	-11941
▁ylenti	-11942
▁ylinnä	-11943
▁yrittä	-11944
▁äitini	-11945
Kolmasti	-11946
Mintähen	-11947
Nyyrikki	-11948
Tarvonko	-11949
Ututyttö	-11950
antajani	-11951
asalmien	-11952
attelihe	-11953
attuansa	-11954
elemässä	-11955
eltaessa	-11956
empiansa	-11957
ennuisen	-11958
essäkänä	-11959
etessäni	-11960
ilemähän	-11961
impainen	-11962
ineheksi	-11963
isemahan	-11964
iseville	-11965
isevistä	-11966
isilläni	-11967
isopesta	-11968
istäikse	-11969
itseikse	-11970
ittajata	-11971
javainen	-11972
joillesi	-11973
kankahia	-11974
karkaisu	-11975
kellaite	-11976
kkumahan	-11977
koitteli	-11978
kutellen	-11979
kyläinen	-11980
käisestä	-11981
oksainen	-11982
ottajata	-11983
ottelija	-11984
otulelta	-11985
puolehen	-11986
pökkelön	-11987
sillehen	-11988
skasella	-11989
tahirren	-11990
teleivät	-11991
teloille	-11992
tokankah	-11993
ttumahan	-11994
uttajata	-11995
▁Elkätte	-11996
▁Ennätti	-11997
▁Itkenpä	-11998
▁Itsensä	-11999
Mato	-12000
Tupa	-12001
ousu	-12002
kärsä	-12003
▁kähä	-12004
Päivän	-12005
Vannon	-12006
maloin	-12007
ttoman	-12008
ähämpi	-12009
▁nyker	-12010
▁oteta	-12011
▁sorru	-12012
▁ärjyi	-12013
Siksipä	-12014
tehyisi	-12015
uruelet	-12016
▁Juoksi	-12017
▁Työnnä	-12018
▁akkoja	-12019
▁jouset	-12020
▁kulmal	-12021
▁leppäh	-12022
▁lojuvi	-12023
▁luutoa	-12024
▁mentyä	-12025
▁nuotat	-12026
▁nännit	-12027
▁reutoa	-12028
▁ukolle	-12029
▁vasama	-12030
▁vyöriv	-12031
kymmentä	-12032
▁Juohtui	-12033
▁Kuulkot	-12034
▁Kuuluvi	-12035
▁Laitapa	-12036
▁Liekkui	-12037
▁Luojani	-12038
▁Luojasi	-12039
▁Minnekä	-12040
▁Mitenpä	-12041
▁Osmotar	-12042
▁Puhurin	-12043
▁Tahikka	-12044
▁Taittoi	-12045
▁Tapasip	-12046
▁Vastasi	-12047
▁Venäjän	-12048
▁Virohon	-12049
▁ahoilta	-12050
▁ainehet	-12051
▁airuhut	-12052
▁akoilla	-12053
▁akoille	-12054
▁alakärs	-12055
▁anneksi	-12056
▁apeutui	-12057
▁asettui	-12058
▁asuntoa	-12059
▁avaimet	-12060
▁avaimia	-12061
▁eestäni	-12062
▁ehtoisa	-12063
▁eloilla	-12064
▁emäpuun	-12065
▁epäpätö	-12066
▁etsivän	-12067
▁hajalla	-12068
▁hankoja	-12069
▁hartiol	-12070
▁haukina	-12071
▁hauteli	-12072
▁havulla	-12073
▁hevolla	-12074
▁hevoset	-12075
▁hiihteä	-12076
▁hiilien	-12077
▁hikehen	-12078
▁hirsikö	-12079
▁hitusen	-12080
▁hiukset	-12081
▁honkais	-12082
▁hopeani	-12083
▁huiskit	-12084
▁hyppäsi	-12085
▁hyville	-12086
▁hyvissä	-12087
▁hyvistä	-12088
▁hävitti	-12089
▁ikimenn	-12090
▁ilmalta	-12091
▁ilmival	-12092
▁ilmojen	-12093
▁iloista	-12094
▁iloitse	-12095
▁iltamme	-12096
▁isoiksi	-12097
▁itkenet	-12098
▁itkenyt	-12099
Kysyn	-12100
Käypä	-12101
Tietä	-12102
Tieän	-12103
kkali	-12104
Toisin	-12105
iköstä	-12106
▁Huoli	-12107
▁Hämeh	-12108
▁Härkä	-12109
▁Seulo	-12110
▁Tammi	-12111
▁Yöllä	-12112
▁apaja	-12113
▁asian	-12114
▁hepoh	-12115
▁häjyn	-12116
▁maire	-12117
▁monet	-12118
▁niiet	-12119
▁orpol	-12120
▁päärm	-12121
▁säykk	-12122
▁tihua	-12123
▁uupui	-12124
▁älykk	-12125
ilöiksi	-12126
▁hajosi	-12127
▁hajota	-12128
▁hyypyn	-12129
▁kotini	-12130
▁käpyjä	-12131
▁manner	-12132
▁nahkas	-12133
▁satalu	-12134
▁silajo	-12135
▁vaelti	-12136
▁väljiä	-12137
▁Mieleni	-12138
▁ahjolla	-12139
▁asuivat	-12140
▁aukaise	-12141
▁aukaisi	-12142
▁haastat	-12143
▁hurstin	-12144
▁itkevän	-12145
▁jauhoja	-12146
▁juokset	-12147
▁jälkimä	-12148
▁järähti	-12149
▁kaapsah	-12150
▁kaikkia	-12151
▁kaipasi	-12152
▁kaislan	-12153
▁kajotti	-12154
▁kaksivi	-12155
▁kalaksi	-12156
▁kalapar	-12157
▁kalaset	-12158
▁kallion	-12159
▁kamalan	-12160
▁kapusta	-12161
▁karjani	-12162
▁karsina	-12163
▁kasakat	-12164
▁kasakka	-12165
▁kasvoit	-12166
▁katajat	-12167
▁katalat	-12168
▁katkoit	-12169
▁katsovi	-12170
▁kauhean	-12171
▁kaunosi	-12172
▁kavahti	-12173
▁kavetta	-12174
▁kekosen	-12175
▁kerinne	-12176
▁keritsi	-12177
▁kerroin	-12178
▁kerälle	-12179
▁keskima	-12180
▁kesäksi	-12181
▁keväinä	-12182
▁kieleni	-12183
▁kielesi	-12184
▁kiiättä	-12185
▁kilahti	-12186
▁kilvoin	-12187
▁kipunat	-12188
▁kisahan	-12189
▁kiuruna	-12190
▁kohisev	-12191
▁koikkui	-12192
▁koirasi	-12193
▁koivaha	-12194
▁koivuja	-12195
▁kokalla	-12196
▁kokkona	-12197
▁kokolta	-12198
▁korento	-12199
▁Löi	-12200
▁ryy	-12201
Kylän	-12202
Minkä	-12203
yttyä	-12204
▁ange	-12205
▁houk	-12206
▁röyh	-12207
sulhon	-12208
vihkon	-12209
▁Kivet	-12210
▁Säret	-12211
▁Tunge	-12212
▁eukot	-12213
▁huntu	-12214
▁naitu	-12215
llispan	-12216
▁hunnut	-12217
▁iltaru	-12218
▁kiivas	-12219
▁lammit	-12220
▁puuska	-12221
▁veikot	-12222
Kyllikki	-12223
Poikueni	-12224
empäiset	-12225
▁Hiiessä	-12226
▁kivitup	-12227
▁korjasi	-12228
▁korkean	-12229
▁korkeus	-12230
▁korolla	-12231
▁korotta	-12232
▁korpima	-12233
▁korvani	-12234
▁korvien	-12235
▁kotikan	-12236
▁kovaksi	-12237
▁kovalla	-12238
▁kovassa	-12239
▁kovihin	-12240
▁kovilta	-12241
▁kujahan	-12242
▁kujalla	-12243
▁kukkuos	-12244
▁kukkura	-12245
▁kukotta	-12246
▁kukulle	-12247
▁kuletti	-12248
▁kulkija	-12249
▁kulloin	-12250
▁kulohon	-12251
▁kultala	-12252
▁kuluksi	-12253
▁kululla	-12254
▁kumohon	-12255
▁kuolioa	-12256
▁kuonana	-12257
▁kutomat	-12258
▁kutovan	-12259
▁kuuella	-12260
▁kuuhuet	-12261
▁kuulevi	-12262
▁kuvansa	-12263
▁kuvussa	-12264
▁kuvusta	-12265
▁kylelle	-12266
▁kylessä	-12267
▁kylälle	-12268
▁kyselet	-12269
▁kysellä	-12270
▁kysynyt	-12271
▁kyynärä	-12272
▁käsiksi	-12273
▁käsimel	-12274
▁käsistä	-12275
▁kätensä	-12276
▁laaitta	-12277
▁lajiper	-12278
▁lapatta	-12279
▁lastasi	-12280
▁latohon	-12281
▁laulann	-12282
▁lauleli	-12283
▁lauloit	-12284
▁lauttoa	-12285
▁lehahti	-12286
▁leikkiä	-12287
▁lihansa	-12288
▁lihavat	-12289
▁liikuit	-12290
▁likellä	-12291
▁lintuja	-12292
▁lintuna	-12293
▁litisty	-12294
▁lomahan	-12295
▁lotaisi	-12296
▁luisten	-12297
▁lukuhun	-12298
▁lupasin	-12299
Muistan	-12300
▁Heitti	-12301
▁Keitti	-12302
▁Tempoi	-12303
▁akalle	-12304
▁evähiä	-12305
▁evähät	-12306
▁lakson	-12307
▁lepäsi	-12308
▁mätkyi	-12309
▁rauhoa	-12310
▁romuen	-12311
▁taarin	-12312
▁tempoi	-12313
▁veijon	-12314
▁veisto	-12315
▁Kaataos	-12316
▁Muistan	-12317
▁hakatta	-12318
▁hotaisi	-12319
▁imeiset	-12320
▁kamanan	-12321
▁kujaset	-12322
▁kukkien	-12323
▁lupasit	-12324
▁luullut	-12325
▁lähtekö	-12326
▁lähtöni	-12327
▁läjänen	-12328
▁länkämö	-12329
▁maahasi	-12330
▁maannut	-12331
▁mahutta	-12332
▁malossa	-12333
▁manalta	-12334
▁maoilla	-12335
▁marjana	-12336
▁markoin	-12337
▁melkeän	-12338
▁menette	-12339
▁menisit	-12340
▁menoksi	-12341
▁meriloh	-12342
▁metisin	-12343
▁miekkoa	-12344
▁mitenkä	-12345
▁mitättö	-12346
▁monennä	-12347
▁muistat	-12348
▁munasen	-12349
▁munassa	-12350
▁muretta	-12351
▁muruksi	-12352
▁männikö	-12353
▁navalta	-12354
▁neitten	-12355
▁nenistä	-12356
▁niemien	-12357
▁niemyen	-12358
▁niveltä	-12359
▁norolla	-12360
▁nousevi	-12361
▁nurmien	-12362
▁näkijät	-12363
▁ohjaksi	-12364
▁ohjassa	-12365
▁oikeana	-12366
▁oikeata	-12367
▁ojavarr	-12368
▁olallen	-12369
▁ollessa	-12370
▁oloista	-12371
▁oluelta	-12372
▁oraviku	-12373
▁orjaksi	-12374
▁otsonen	-12375
▁ottanut	-12376
▁pahatta	-12377
▁pahempi	-12378
▁pahkoit	-12379
▁pajalle	-12380
▁pajatta	-12381
▁pakenen	-12382
▁pakinan	-12383
▁pakotti	-12384
▁palanen	-12385
▁palelem	-12386
▁palella	-12387
▁paljoki	-12388
▁parahia	-12389
▁paranne	-12390
▁partaki	-12391
▁peltosi	-12392
▁perehen	-12393
▁perältä	-12394
▁peräytä	-12395
▁pesetti	-12396
▁pesähän	-12397
▁piilten	-12398
▁pilkkoa	-12399
Kaivo	-12400
Osasi	-12401
▁Mont	-12402
▁Ohra	-12403
Lasken	-12404
urohot	-12405
▁Voiti	-12406
▁läkäh	-12407
▁ojenn	-12408
Annikki	-12409
ivyöllä	-12410
kelilla	-12411
▁häpesi	-12412
▁härkeä	-12413
▁kovera	-12414
▁mursun	-12415
▁paloat	-12416
▁päräjä	-12417
▁tukeva	-12418
jemmälle	-12419
▁aiaksia	-12420
▁ampujat	-12421
▁konsana	-12422
▁murehin	-12423
▁pimeten	-12424
▁pirttin	-12425
▁pisintä	-12426
▁pitelen	-12427
▁poikasi	-12428
▁poimisi	-12429
▁pojalta	-12430
▁polvien	-12431
▁porotti	-12432
▁povella	-12433
▁povessa	-12434
▁povesta	-12435
▁puhujan	-12436
▁puhuvat	-12437
▁punalle	-12438
▁purtesi	-12439
▁pääskyn	-12440
▁rajasta	-12441
▁rakehet	-12442
▁raketta	-12443
▁rakohon	-12444
▁rekirat	-12445
▁retukan	-12446
▁rumille	-12447
▁runsaha	-12448
▁ruoalta	-12449
▁ruoskin	-12450
▁rutosti	-12451
▁saamani	-12452
▁saatuja	-12453
▁salavih	-12454
▁salohon	-12455
▁salpoja	-12456
▁samalla	-12457
▁sammalh	-12458
▁sanonut	-12459
▁satahan	-12460
▁satehen	-12461
▁savunen	-12462
▁savutto	-12463
▁seisoin	-12464
▁seisota	-12465
▁selille	-12466
▁selvänä	-12467
▁selästä	-12468
▁sepolta	-12469
▁siikana	-12470
▁siikasa	-12471
▁sijahan	-12472
▁sijassa	-12473
▁sikojen	-12474
▁silittä	-12475
▁simassa	-12476
▁sinisot	-12477
▁sinussa	-12478
▁sioille	-12479
▁sirusen	-12480
▁sisaret	-12481
▁sisältä	-12482
▁sivuhun	-12483
▁sotakes	-12484
▁sovissa	-12485
▁sovussa	-12486
▁suistui	-12487
▁sukassa	-12488
▁sukesit	-12489
▁sukkasi	-12490
▁sukkula	-12491
▁sukuasi	-12492
▁sukuhun	-12493
▁sulalle	-12494
▁suliksi	-12495
▁sulilta	-12496
▁sulkasi	-12497
▁suorihe	-12498
▁surulla	-12499
euvot	-12500
köhöt	-12501
suonet	-12502
▁Vanha	-12503
▁voine	-12504
▁Ottavi	-12505
▁Vienan	-12506
▁Vuotit	-12507
▁hietap	-12508
▁huveks	-12509
▁koprun	-12510
▁kääten	-12511
▁muhaja	-12512
▁nauhan	-12513
▁puitua	-12514
▁rauoin	-12515
▁reutoi	-12516
▁siunoa	-12517
lippahan	-12518
polviset	-12519
▁aukieli	-12520
▁isommat	-12521
▁jäsenet	-12522
▁kajavan	-12523
▁kuplina	-12524
▁majatto	-12525
▁nälkäni	-12526
▁pitänyt	-12527
▁rekensä	-12528
▁riivoit	-12529
▁sukukun	-12530
▁sutoset	-12531
▁synkkiä	-12532
▁synnyin	-12533
▁sysistä	-12534
▁syvästä	-12535
▁säätämä	-12536
▁tahansa	-12537
▁taikoja	-12538
▁taitoin	-12539
▁tapahut	-12540
▁tapasit	-12541
▁tapella	-12542
▁taputti	-12543
▁tehessä	-12544
▁terällä	-12545
▁toukoja	-12546
▁tuhaksi	-12547
▁tuletto	-12548
▁tulosen	-12549
▁tuotana	-12550
▁tupanen	-12551
▁turmiot	-12552
▁turskan	-12553
▁tyhjänä	-12554
▁tyrskyn	-12555
▁tyttöjä	-12556
▁tyttöni	-12557
▁tähiksi	-12558
▁tähystä	-12559
▁tänneki	-12560
▁uiksenn	-12561
▁uimahan	-12562
▁uitteli	-12563
▁uutimen	-12564
▁vaahtea	-12565
▁vaikean	-12566
▁vainion	-12567
▁vainiot	-12568
▁vajalla	-12569
▁valahan	-12570
▁valitsi	-12571
▁valittu	-12572
▁valitut	-12573
▁valkeat	-12574
▁valuisi	-12575
▁vammoja	-12576
▁vannoit	-12577
▁varanne	-12578
▁varatto	-12579
▁varottu	-12580
▁varsoin	-12581
▁vasamat	-12582
▁vasaran	-12583
▁vastasä	-12584
▁vastata	-12585
▁veijoni	-12586
▁veisteä	-12587
▁veistän	-12588
▁veljeni	-12589
▁vellinä	-12590
▁venehin	-12591
▁venoset	-12592
▁venytti	-12593
▁verensä	-12594
▁vesissä	-12595
▁vesistä	-12596
▁vetelen	-12597
▁vetivät	-12598
▁vetävät	-12599
Menin	-12600
▁kitk	-12601
▁mehu	-12602
Tunnen	-12603
ompana	-12604
▁käpäl	-12605
▁tuolt	-12606
aseissa	-12607
▁Kipumä	-12608
▁hyrehi	-12609
▁parsku	-12610
Kostohon	-12611
▁pelästy	-12612
▁simatil	-12613
▁veäikse	-12614
▁vierevi	-12615
▁vierimä	-12616
▁viestit	-12617
▁viiasta	-12618
▁viieltä	-12619
▁viikate	-12620
▁viivyit	-12621
▁viluhun	-12622
▁vilusta	-12623
▁viritän	-12624
▁virstan	-12625
▁virtana	-12626
▁virtten	-12627
▁visusti	-12628
▁vitsoin	-12629
▁voiteli	-12630
▁vyöllis	-12631
▁välihin	-12632
▁välitse	-12633
▁väsynyt	-12634
▁väännin	-12635
▁ylennyt	-12636
▁äitittä	-12637
▁äärellä	-12638
Kalevatar	-12639
Kuolkohon	-12640
Tuuittele	-12641
Vakavampi	-12642
ahtakohon	-12643
ahteleisi	-12644
aikoinani	-12645
ainniekka	-12646
altamahan	-12647
attaresta	-12648
attarilta	-12649
ehtamahan	-12650
elleheksi	-12651
ellessani	-12652
elliseksi	-12653
ennehissä	-12654
ettomalla	-12655
ettomihin	-12656
ikarjahan	-12657
istunehen	-12658
ittelijan	-12659
ittämässä	-12660
kauhtanat	-12661
muotoinen	-12662
ottavaksi	-12663
ottomalle	-12664
ovimmalle	-12665
uonehessa	-12666
uttajaksi	-12667
uttamahan	-12668
ystelevät	-12669
yttämästä	-12670
yttämättä	-12671
▁Joukolan	-12672
▁Karjalan	-12673
▁Kolmasti	-12674
▁Lyylikki	-12675
▁Läksivät	-12676
▁Mentihin	-12677
▁Mielikki	-12678
▁Pyörrytä	-12679
▁Tehkämme	-12680
▁Tuonetar	-12681
▁Tuostapa	-12682
▁Vesikyyn	-12683
▁Viekätte	-12684
▁aaltohon	-12685
▁ahavalle	-12686
▁aikojani	-12687
▁ainoisin	-12688
▁ainoista	-12689
▁aittojen	-12690
▁ajetahan	-12691
▁aletessa	-12692
▁annakana	-12693
▁antajata	-12694
▁arkivaat	-12695
▁armahasi	-12696
▁armonani	-12697
▁arvaella	-12698
▁avukseni	-12699
▁Löyti	-12700
▁Ootko	-12701
▁Pojat	-12702
▁huora	-12703
▁läsnä	-12704
▁vänke	-12705
Varjele	-12706
Virkkoi	-12707
ikaloja	-12708
ysyissä	-12709
▁Pauann	-12710
▁astuos	-12711
▁lemmet	-12712
▁puolla	-12713
▁rastia	-12714
▁tyynni	-12715
▁yhtänä	-12716
▁yhymme	-12717
hoisampi	-12718
joukosta	-12719
kyväistä	-12720
ramaalla	-12721
▁Isosiko	-12722
▁hauasta	-12723
▁hiemoit	-12724
▁kotilah	-12725
▁kyventä	-12726
▁käkesin	-12727
▁lokiksi	-12728
▁lätäkkö	-12729
▁muuraha	-12730
▁pettäjä	-12731
▁rämäksi	-12732
▁siniham	-12733
▁syviltä	-12734
▁ulvovan	-12735
asväliltä	-12736
päivinäni	-12737
vaivoissa	-12738
▁eessänsä	-12739
▁eistyisi	-12740
▁elköhönp	-12741
▁emäntäsi	-12742
▁ennenkin	-12743
▁epäillyt	-12744
▁epäkelpo	-12745
▁eränetso	-12746
▁etelästä	-12747
▁haahella	-12748
▁haittoja	-12749
▁hallassa	-12750
▁hampahan	-12751
▁hampahin	-12752
▁hangella	-12753
▁harjalle	-12754
▁harjasta	-12755
▁haukkuvi	-12756
▁havannut	-12757
▁heittihe	-12758
▁helmiruo	-12759
▁helpehiä	-12760
▁helyihin	-12761
▁henkäeli	-12762
▁hiilikan	-12763
▁himmesti	-12764
▁hirveätä	-12765
▁hongista	-12766
▁honkahan	-12767
▁honkihin	-12768
▁hopealle	-12769
▁hopeassa	-12770
▁hopeasta	-12771
▁hukkunut	-12772
▁huolelle	-12773
▁huoliani	-12774
▁huomenen	-12775
▁hurmehin	-12776
▁hurmetta	-12777
▁hylkehen	-12778
▁hyvyylle	-12779
▁ikävissä	-12780
▁ilmankin	-12781
▁ilmoilta	-12782
▁ilmoinen	-12783
▁istuikse	-12784
▁isäntäsi	-12785
▁itseniki	-12786
▁jalkapöy	-12787
▁jaloihin	-12788
▁jaloissa	-12789
▁jokaisen	-12790
▁joutavan	-12791
▁juomiset	-12792
▁juurelle	-12793
▁jäntehen	-12794
▁jäsenten	-12795
▁jäämähän	-12796
▁kaatunut	-12797
▁kaihossa	-12798
▁kaikkien	-12799
▁köyhät	-12800
▁Ilpotar	-12801
▁myllerö	-12802
▁pajupur	-12803
▁Kyytäksi	-12804
▁antelema	-12805
▁kaikutta	-12806
▁kainalon	-12807
▁kaioissa	-12808
▁kaivosta	-12809
▁kalaisen	-12810
▁kalanevä	-12811
▁kalhaisi	-12812
▁kaloille	-12813
▁kaluiksi	-12814
▁kanaista	-12815
▁kanervat	-12816
▁kankeata	-12817
▁kannettu	-12818
▁kantelen	-12819
▁kantosen	-12820
▁karistin	-12821
▁karvojen	-12822
▁kaskessa	-12823
▁kasvanut	-12824
▁katehien	-12825
▁katkaise	-12826
▁katkeavi	-12827
▁katkieli	-12828
▁kaulalle	-12829
▁kaunihit	-12830
▁kehreämä	-12831
▁kelkalla	-12832
▁kesäisen	-12833
▁keväimen	-12834
▁kevätkar	-12835
▁kielelle	-12836
▁kieleltä	-12837
▁kielipal	-12838
▁kiistoin	-12839
▁kinnasta	-12840
▁kohautti	-12841
▁koitteli	-12842
▁kokkoasi	-12843
▁kolmanna	-12844
▁kolmansi	-12845
▁kolmatta	-12846
▁kontiona	-12847
▁korjanen	-12848
▁korkeata	-12849
▁korpinot	-12850
▁korppien	-12851
▁korvalla	-12852
▁korvalle	-12853
▁korviani	-12854
▁koskevan	-12855
▁kotonani	-12856
▁kourilla	-12857
▁kuivalle	-12858
▁kuivilla	-12859
▁kulkevia	-12860
▁kullalle	-12861
▁kullassa	-12862
▁kullenki	-12863
▁kulmille	-12864
▁kultaleh	-12865
▁kultatur	-12866
▁kunnahan	-12867
▁kunniata	-12868
▁kuohujen	-12869
▁kuraksen	-12870
▁kutsuttu	-12871
▁kuuhutta	-12872
▁kuumista	-12873
▁kuunteli	-12874
▁kuusista	-12875
▁kylmässä	-12876
▁kylmästä	-12877
▁kylvämiä	-12878
▁kyntämiä	-12879
▁kälykset	-12880
▁kämmenet	-12881
▁käytyäni	-12882
▁käänteli	-12883
▁kääntihe	-12884
▁kääntyvi	-12885
▁laatiani	-12886
▁lainehet	-12887
▁laioilla	-12888
▁laitahan	-12889
▁laiturin	-12890
▁lampahan	-12891
▁lapsetta	-12892
▁latvahan	-12893
▁latvasta	-12894
▁laulamme	-12895
▁laulelin	-12896
▁lehvälle	-12897
▁leikkeli	-12898
▁lengolle	-12899
▁lentohon	-12900
▁lepikköä	-12901
▁lihoilta	-12902
▁lihoista	-12903
▁liikkuva	-12904
▁liikkuvi	-12905
▁linnassa	-12906
▁linnulta	-12907
▁lintunen	-12908
▁lintuset	-12909
▁lintusia	-12910
▁luomalta	-12911
▁läksitte	-12912
▁lämmitti	-12913
▁läävähän	-12914
▁maammosi	-12915
▁mahtavan	-12916
▁majoilla	-12917
▁manteren	-12918
▁matalana	-12919
▁matkalla	-12920
▁matkansa	-12921
▁matoisen	-12922
▁mentyäni	-12923
▁metsihin	-12924
▁miehille	-12925
▁mielensä	-12926
▁mielessä	-12927
▁mieliksi	-12928
▁miniäksi	-12929
▁muinenki	-12930
▁mujuissa	-12931
▁murkinan	-12932
▁muruista	-12933
▁mustakul	-12934
▁mustasen	-12935
▁nainehen	-12936
▁nainehet	-12937
▁naisetta	-12938
▁navoilla	-12939
▁neioista	-12940
▁neitoset	-12941
▁neljänne	-12942
▁neulojen	-12943
▁niemellä	-12944
▁niskahan	-12945
▁nokkoasi	-12946
▁nostalti	-12947
▁nuotalle	-12948
▁nurmehen	-12949
▁nähtyäni	-12950
▁ohraiset	-12951
▁olkapään	-12952
▁orahille	-12953
▁orihilla	-12954
▁ouoillen	-12955
▁pahemman	-12956
▁pahimmat	-12957
▁pahoilta	-12958
▁pahoissa	-12959
▁paikalle	-12960
▁paikalta	-12961
▁painuisi	-12962
▁pajuilla	-12963
▁paksuksi	-12964
▁paksumpi	-12965
▁palstoin	-12966
▁palvoavi	-12967
▁parahana	-12968
▁parvesta	-12969
▁patvinen	-12970
▁pauhoavi	-12971
▁peseikse	-12972
▁petäjätä	-12973
▁pieniltä	-12974
▁pihlajan	-12975
▁piilopir	-12976
▁piimänsä	-12977
▁piinansa	-12978
▁piitämiä	-12979
▁pilkkoja	-12980
▁pitkihin	-12981
▁pitkille	-12982
▁pitkäksi	-12983
▁pitkästä	-12984
▁pituutta	-12985
▁pohjahan	-12986
▁pohkeata	-12987
▁poikaset	-12988
▁poikitse	-12989
▁poloiset	-12990
▁poltettu	-12991
▁polveani	-12992
▁polvensa	-12993
▁porstuan	-12994
▁poskilta	-12995
▁potkaisi	-12996
▁puikutti	-12997
▁puimahan	-12998
▁pulmonen	-12999
▁punertav	-13000
▁puolella	-13001
▁purjehen	-13002
▁purkaeli	-13003
▁purresta	-13004
▁purtehen	-13005
▁puutunna	-13006
▁päivissä	-13007
▁päivistä	-13008
▁pääliltä	-13009
▁pääsemät	-13010
▁pääsisin	-13011
▁päässäni	-13012
▁päätyvän	-13013
▁raatajan	-13014
▁rahkehen	-13015
▁raivohon	-13016
▁raivoksi	-13017
▁rakennat	-13018
▁rakkiasi	-13019
▁rantahan	-13020
▁rastahat	-13021
▁rauhassa	-13022
▁rautaruk	-13023
▁rautojen	-13024
▁reppänän	-13025
▁reuoikse	-13026
▁rikkehiä	-13027
▁rikkoihe	-13028
▁rikoille	-13029
▁rutimora	-13030
▁saakamme	-13031
▁saamasta	-13032
▁saamille	-13033
▁saarelle	-13034
▁saatavia	-13035
▁saavalle	-13036
▁saipuata	-13037
▁saloilta	-13038
▁sammalia	-13039
▁sanaisen	-13040
▁sangassa	-13041
▁sanoihin	-13042
▁sanoivat	-13043
▁seinältä	-13044
▁seipähän	-13045
▁seisonta	-13046
▁selvältä	-13047
▁sepponsa	-13048
▁seulalla	-13049
▁siemenen	-13050
▁siemeniä	-13051
▁siementä	-13052
▁siikasia	-13053
▁siipensä	-13054
▁siiviksi	-13055
▁siiville	-13056
▁siivolla	-13057
▁sillaksi	-13058
▁silmähän	-13059
▁simainen	-13060
▁sinuista	-13061
▁sivallan	-13062
▁soitteli	-13063
▁soivaksi	-13064
▁solmiele	-13065
▁solmuhun	-13066
▁somemmat	-13067
▁sopenkul	-13068
▁soreasti	-13069
▁sormille	-13070
▁sukeutui	-13071
▁sukkulan	-13072
▁sukuansa	-13073
▁sulkansa	-13074
▁sulkasia	-13075
▁sulkoasi	-13076
▁suloinen	-13077
▁suojaksi	-13078
▁suoniset	-13079
▁suorihit	-13080
▁sureksit	-13081
▁surmatta	-13082
▁suuhunsa	-13083
▁suurella	-13084
▁suurelta	-13085
▁suuresta	-13086
▁suurissa	-13087
▁suussani	-13088
▁suvannon	-13089
▁syänveet	-13090
▁syötyäsi	-13091
▁säkkihin	-13092
▁taattoni	-13093
▁tahtonet	-13094
▁taikinan	-13095
▁taimenia	-13096
▁taitavan	-13097
▁taitavat	-13098
▁taivasta	-13099
▁takainen	-13100
▁tallihin	-13101
▁talukset	-13102
▁talvisen	-13103
▁tammesta	-13104
▁tapparan	-13105
▁tarkasti	-13106
▁tarpaisi	-13107
▁tarpehia	-13108
▁tarvitse	-13109
▁tasaiset	-13110
▁teräksiä	-13111
▁teräsnen	-13112
▁tietäjän	-13113
▁tietäjät	-13114
▁tietämät	-13115
▁tiloille	-13116
▁tiloilta	-13117
▁tiukujen	-13118
▁toiseksi	-13119
▁toisille	-13120
▁touoille	-13121
▁tuekseni	-13122
▁tuhansin	-13123
▁tuhmasti	-13124
▁tuimista	-13125
▁tullehia	-13126
▁tungeime	-13127
▁tungeite	-13128
▁tuntenut	-13129
▁tuojaksi	-13130
▁tuomikko	-13131
▁turmelin	-13132
▁turvaksi	-13133
▁tuulelle	-13134
▁tyhjästä	-13135
▁tyttöjen	-13136
▁tytärten	-13137
▁työntävi	-13138
▁työstäsi	-13139
▁ulapoita	-13140
▁umpiluut	-13141
▁urohille	-13142
▁utarihin	-13143
▁vahingon	-13144
▁vaippoja	-13145
▁vakoelin	-13146
▁valelihe	-13147
▁valjahat	-13148
▁valmihin	-13149
▁vammojen	-13150
▁varannut	-13151
▁varikset	-13152
▁varoitti	-13153
▁varpahia	-13154
▁varpusen	-13155
▁varsinki	-13156
▁vartalon	-13157
▁vartevan	-13158
▁vaskilan	-13159
▁vaskiset	-13160
▁vatsassa	-13161
▁vehkahuh	-13162
▁vehnäsiä	-13163
▁veijoani	-13164
▁veikaten	-13165
▁veikkoni	-13166
▁veikoksi	-13167
▁vempelen	-13168
▁verkkoja	-13169
▁vesivier	-13170
▁vieläkin	-13171
▁viemähän	-13172
▁vierahat	-13173
▁vierasta	-13174
▁vierellä	-13175
▁viereltä	-13176
▁vierivät	-13177
▁viiakkoa	-13178
▁viisivan	-13179
▁viljoani	-13180
▁virkkaja	-13181
▁virrasta	-13182
▁visainen	-13183
▁voitettu	-13184
▁voivalle	-13185
▁västistä	-13186
▁völlehti	-13187
▁ylähällä	-13188
▁ylähältä	-13189
▁yläpuoli	-13190
▁ystäväni	-13191
▁älyäkänä	-13192
▁äyrähien	-13193
Lauleleisi	-13194
ellessansa	-13195
ellessänsä	-13196
emmillenki	-13197
inauhoilla	-13198
ispuolelle	-13199
itteleikse	-13200
ivertaisin	-13201
koppeloita	-13202
kuontalona	-13203
kuusosesta	-13204
mattomilta	-13205
mättömihin	-13206
mättömäksi	-13207
päivälläki	-13208
uohtehista	-13209
▁Haravoipi	-13210
▁Istuiksen	-13211
▁Katajatar	-13212
▁Kipumäkeä	-13213
▁Kullervon	-13214
▁Laulelevi	-13215
▁Lentelevi	-13216
▁Luojahani	-13217
▁Manalasta	-13218
▁Muistatko	-13219
▁Orjapiika	-13220
▁Palvoinen	-13221
▁Palvoisen	-13222
▁Pohetahan	-13223
▁Untamolan	-13224
▁Vetehinen	-13225
▁aalloilta	-13226
▁aalloissa	-13227
▁aalloista	-13228
▁aaltoihin	-13229
▁aamusilla	-13230
▁ahomailla	-13231
▁aiastettu	-13232
▁ajatukset	-13233
▁alaisihin	-13234
▁aluksehen	-13235
▁aluksella	-13236
▁antajaksi	-13237
▁antimuori	-13238
▁armahaksi	-13239
▁askelilla	-13240
▁askelille	-13241
▁astumassa	-13242
▁astumille	-13243
▁atrioiksi	-13244
▁eilisenki	-13245
▁emännältä	-13246
▁ennenkänä	-13247
▁ennätteli	-13248
▁ennättävi	-13249
▁entistäsi	-13250
▁halkiella	-13251
▁hapsihini	-13252
▁haravahan	-13253
▁haravoipi	-13254
▁hautelevi	-13255
▁heimoansa	-13256
▁heläjävät	-13257
▁hepohuone	-13258
▁hienoista	-13259
▁hierelevi	-13260
▁hietaharj	-13261
▁hirveänsä	-13262
▁huokaelet	-13263
▁huotrasta	-13264
▁hyreksien	-13265
▁hätäillyt	-13266
▁hätäpäivä	-13267
▁ihastutti	-13268
▁ihoamahan	-13269
▁ikenihisi	-13270
▁ikirunoja	-13271
▁ilmoillen	-13272
▁ilovirret	-13273
▁iltaseksi	-13274
▁iltasella	-13275
▁iskenynnä	-13276
▁istumassa	-13277
▁istumasta	-13278
▁istumatta	-13279
▁isännältä	-13280
▁itkeväksi	-13281
▁jalkoihin	-13282
▁jokivesiä	-13283
▁joutuessa	-13284
▁juoakseni	-13285
▁juoaksesi	-13286
▁juoksulle	-13287
▁juoleutta	-13288
▁juotuansa	-13289
▁juuttahat	-13290
▁kaaetahan	-13291
▁kaatelevi	-13292
▁kahmaloin	-13293
▁kajahusta	-13294
▁kajahutti	-13295
▁kalahauin	-13296
▁kalasauna	-13297
▁kallistua	-13298
▁kalpimeni	-13299
▁kannoitte	-13300
▁kanssansa	-13301
▁kantelevi	-13302
▁kaottanut	-13303
▁kapehesta	-13304
▁karahutin	-13305
▁karjoansa	-13306
▁karkelevi	-13307
▁karvalall	-13308
▁kasvanevi	-13309
▁katehesen	-13310
▁katkeaisi	-13311
▁kauheampi	-13312
▁kavahutti	-13313
▁kerallasi	-13314
▁kerskaeli	-13315
▁kevätkäkö	-13316
▁kiiättävi	-13317
▁kirjaella	-13318
▁kirjokann	-13319
▁kirjokorj	-13320
▁kohottavi	-13321
▁kohtoaisi	-13322
▁kokkapuut	-13323
▁kokoelevi	-13324
▁kolkkaeli	-13325
▁kolkkihin	-13326
▁korkeassa	-13327
▁kuiskaeli	-13328
▁kukkuelin	-13329
▁kukkuessa	-13330
▁kukkulata	-13331
▁kulkiessa	-13332
▁kullaisna	-13333
▁kultiansa	-13334
▁kunnekana	-13335
▁kunnialla	-13336
▁kunniansa	-13337
▁kuolemasi	-13338
▁kuolemata	-13339
▁kuollehen	-13340
▁kupehelta	-13341
▁kurjaisen	-13342
▁kylväjätä	-13343
▁kynsiänsä	-13344
▁kypenihin	-13345
▁kyynelesi	-13346
▁käpymäkeä	-13347
▁käsissäni	-13348
▁kätkyehen	-13349
▁käyessäni	-13350
▁käyessäsi	-13351
▁laaittuna	-13352
▁laajimman	-13353
▁laajoilla	-13354
▁laitioita	-13355
▁laivoansa	-13356
▁lakkapuun	-13357
▁lampiveet	-13358
▁lapsinesi	-13359
▁laulaessa	-13360
▁laulajani	-13361
▁laulakana	-13362
▁laulanevi	-13363
▁lauseheni	-13364
▁lausuella	-13365
▁leikkaeli	-13366
▁leikkoavi	-13367
▁leppäisen	-13368
▁levitteli	-13369
▁liikahuta	-13370
▁linnuille	-13371
▁lipeäistä	-13372
▁lohisiksi	-13373
▁loukahuta	-13374
▁luikahuta	-13375
▁lumpehina	-13376
▁luomatoin	-13377
▁luottehia	-13378
▁luustossa	-13379
▁lyöäksesi	-13380
▁löyhäytti	-13381
▁maaemihin	-13382
▁maaemästä	-13383
▁maalliset	-13384
▁maammoasi	-13385
▁maammonsa	-13386
▁maistelit	-13387
▁makaelevi	-13388
▁marjaseni	-13389
▁matkoihin	-13390
▁melkeässä	-13391
▁mentyänsä	-13392
▁mentäessä	-13393
▁metisehen	-13394
▁miehinesi	-13395
▁mielevänä	-13396
▁miestänsä	-13397
▁mittaeltu	-13398
▁muhkeutta	-13399
▁muinaista	-13400
▁murehisin	-13401
▁murskaksi	-13402
▁mäkipäitä	-13403
▁mäntyisen	-13404
▁naistenki	-13405
▁nauraisin	-13406
▁neuloilla	-13407
▁nielijätä	-13408
▁notkeasti	-13409
▁ohramaina	-13410
▁ojavieret	-13411
▁oksillani	-13412
▁oksilleni	-13413
▁olkisella	-13414
▁onkehensa	-13415
▁osattuasi	-13416
▁otavaisen	-13417
▁paikoilla	-13418
▁paksummat	-13419
▁palaville	-13420
▁pantaessa	-13421
▁parahille	-13422
▁parempana	-13423
▁pauloitta	-13424
▁pehmeäksi	-13425
▁perehesen	-13426
▁pereäkänä	-13427
▁peränpitä	-13428
▁pestyille	-13429
▁piikojani	-13430
▁pilkkehen	-13431
▁pistelevi	-13432
▁pitelämpi	-13433
▁poimijata	-13434
▁poloisten	-13435
▁porttojen	-13436
▁puhumalla	-13437
▁puhumatta	-13438
▁punapuola	-13439
▁purtehesi	-13440
▁puuttunut	-13441
▁päitsensä	-13442
▁päällensä	-13443
▁päästyäni	-13444
▁päästyäsi	-13445
▁raatuilla	-13446
▁rakentele	-13447
▁raukeaksi	-13448
▁rauniolle	-13449
▁rautaista	-13450
▁rautakahl	-13451
▁rekehensä	-13452
▁riisujata	-13453
▁riitelevi	-13454
▁rinnuksia	-13455
▁ruotaisen	-13456
▁saalihini	-13457
▁saataessa	-13458
▁saautella	-13459
▁saneleisi	-13460
▁sanojansa	-13461
▁sarjahamp	-13462
▁satalauta	-13463
▁satasilmä	-13464
▁sauvoansa	-13465
▁seitsemiä	-13466
▁sekehissä	-13467
▁siirtihen	-13468
▁silkkiset	-13469
▁silloiksi	-13470
▁sisareksi	-13471
▁sisaruesi	-13472
▁siuotteli	-13473
▁sorajouhi	-13474
▁sotaväkeä	-13475
▁suistanet	-13476
▁sukapäitä	-13477
▁suovieret	-13478
▁sykysyllä	-13479
▁syyllistä	-13480
▁syöäkseni	-13481
▁särkenevi	-13482
▁säteriset	-13483
▁taattonsa	-13484
▁taitajata	-13485
▁takanansa	-13486
▁takomahan	-13487
▁tarpoimet	-13488
▁tarpojata	-13489
▁tervaisen	-13490
▁tervaksia	-13491
▁tiettäviä	-13492
▁tinapäitä	-13493
▁toinenkin	-13494
▁toisialla	-13495
▁toistansa	-13496
▁tukkahani	-13497
▁tukkueltu	-13498
▁tullakana	-13499
▁tuntijata	-13500
▁tuotaessa	-13501
▁turvanani	-13502
▁tuskautui	-13503
▁tutkaimia	-13504
▁tuuitella	-13505
▁tyttärien	-13506
▁tyttöjäni	-13507
▁tyttöänsä	-13508
▁tyyräellä	-13509
▁uhkaellen	-13510
▁ulapoille	-13511
▁utuisehen	-13512
▁utuisilla	-13513
▁uutimehen	-13514
▁vaaitahan	-13515
▁vaaitella	-13516
▁vaarnojen	-13517
▁vaaroihin	-13518
▁vahasella	-13519
▁vaikeasti	-13520
▁vainiolle	-13521
▁vaivaisen	-13522
▁vaivaiset	-13523
▁valahutti	-13524
▁valkeasta	-13525
▁vanhenevi	-13526
▁variksien	-13527
▁varpelait	-13528
▁vartijana	-13529
▁vasaralla	-13530
▁vastaisen	-13531
▁veitsensä	-13532
▁veljekset	-13533
▁veljeksiä	-13534
▁veljeänsä	-13535
▁venehellä	-13536
▁venehesen	-13537
▁venehessä	-13538
▁verevälle	-13539
▁verkkonsa	-13540
▁veräjissä	-13541
▁veteleite	-13542
▁vetonenki	-13543
▁viallista	-13544
▁vienoilla	-13545
▁vietävätä	-13546
▁vieäksesi	-13547
▁viploista	-13548
▁vähämieli	-13549
▁väkärauan	-13550
▁yheksillä	-13551
▁yheksällä	-13552
▁yheksästi	-13553
▁yhytysten	-13554
▁yksinänsä	-13555
▁ylemmäksi	-13556
▁ylimäinen	-13557
▁ylimäistä	-13558
▁yllättävi	-13559
▁ympärille	-13560
▁ärjähteli	-13561
Katseleikse	-13562
Tietäisinkö	-13563
kirjavainen	-13564
korvallinen	-13565
selkäisestä	-13566
▁Jumalahani	-13567
▁Karjalasta	-13568
▁Kipuvuoren	-13569
▁Manalainen	-13570
▁Marjatalla	-13571
▁Marjatalle	-13572
▁Metsolassa	-13573
▁Mittelivät	-13574
▁Pauannetta	-13575
▁Pienikiksi	-13576
▁Pihlajatar	-13577
▁Saraojalta	-13578
▁Soutelevat	-13579
▁Sylkytteli	-13580
▁Teräksestä	-13581
▁aamuisiksi	-13582
▁aikoinansa	-13583
▁ainokaista	-13584
▁aitallista	-13585
▁aivinaisen	-13586
▁ajattelihe	-13587
▁ajohevosen	-13588
▁alasimella	-13589
▁alentajata	-13590
▁ammuntahan	-13591
▁anelematta	-13592
▁annitoinna	-13593
▁anottaessa	-13594
▁armotointa	-13595
▁armottoman	-13596
▁arveleisin	-13597
▁arvellessa	-13598
▁asetaiksen	-13599
▁asetetuksi	-13600
▁asettelevi	-13601
▁astujaista	-13602
▁aukottoman	-13603
▁eleäksemme	-13604
▁elinajalla	-13605
▁elämätänsä	-13606
▁elättäjäni	-13607
▁ennättäisi	-13608
▁etempänäki	-13609
▁haastelevi	-13610
▁haimentavi	-13611
▁hallitsevi	-13612
▁hampahista	-13613
▁harjaellut	-13614
▁hartioihin	-13615
▁hartioilta	-13616
▁havulinnan	-13617
▁heiluvilla	-13618
▁heinikossa	-13619
▁helpehestä	-13620
▁heltehesti	-13621
▁hengähtävi	-13622
▁hengännevi	-13623
▁hietiköltä	-13624
▁hinkalosta	-13625
▁hongikossa	-13626
▁hulikkojen	-13627
▁huokaellen	-13628
▁huolimahan	-13629
▁huonehista	-13630
▁huonehutta	-13631
▁huopimalla	-13632
▁huopimatta	-13633
▁hurmehista	-13634
▁hyppimähän	-13635
▁häilymähän	-13636
▁hätäpäivät	-13637
▁häätämähän	-13638
▁ikihyväksi	-13639
▁ikkunoilla	-13640
▁ikkunoille	-13641
▁ikävissäni	-13642
▁iljangolla	-13643
▁ilokivelle	-13644
▁imantehena	-13645
▁istuimille	-13646
▁itsestänsä	-13647
▁jaksamahan	-13648
▁jalkojensa	-13649
▁jalommatki	-13650
▁jauhamassa	-13651
▁jonnekunne	-13652
▁joukkiossa	-13653
▁joutelevat	-13654
▁jumaloissa	-13655
▁juohattavi	-13656
▁juoksevata	-13657
▁juoneheksi	-13658
▁juotavaksi	-13659
▁jännistihe	-13660
▁jättänynnä	-13661
▁kaatakseni	-13662
▁kaatamasta	-13663
▁kaatukohon	-13664
▁kaheksilla	-13665
▁kahlehissa	-13666
▁kainalotse	-13667
▁kaivanunna	-13668
▁kaivatahan	-13669
▁kakkaroita	-13670
▁kaksiöisnä	-13671
▁kalaparvea	-13672
▁kalkutella	-13673
▁kalkuttavi	-13674
▁kaluamahan	-13675
▁kananmunia	-13676
▁kanervikko	-13677
▁kankahassa	-13678
▁kankahilta	-13679
▁kankahista	-13680
▁kannatteli	-13681
▁kannettuna	-13682
▁kantajaksi	-13683
▁kantajasta	-13684
▁kantamalla	-13685
▁kantelehen	-13686
▁kaplukassa	-13687
▁kappalehet	-13688
▁kappaleita	-13689
▁karjanruos	-13690
▁karjapiian	-13691
▁karkelossa	-13692
▁kartanoita	-13693
▁kartanolta	-13694
▁karvoihisi	-13695
▁kassapäitä	-13696
▁kassapäänä	-13697
▁kastumatta	-13698
▁kasvanehet	-13699
▁kasvantasi	-13700
▁katajainen	-13701
▁katajaisen	-13702
▁katkemahan	-13703
▁katoamasta	-13704
▁katsojaksi	-13705
▁katsomatta	-13706
▁kattilahan	-13707
▁kaulanhelm	-13708
▁kaunihinki	-13709
▁kaunihinta	-13710
▁kauramaina	-13711
▁kautokenkä	-13712
▁keitetähän	-13713
▁keksimistä	-13714
▁keksimättä	-13715
▁kellarissa	-13716
▁kellarista	-13717
▁kengitetty	-13718
▁keskilaaun	-13719
▁kesäoravan	-13720
▁kiehumassa	-13721
▁kielelleni	-13722
▁kiikutteli	-13723
▁kiirehesti	-13724
▁kinterestä	-13725
▁kirjavassa	-13726
▁kirjokorja	-13727
▁kiskomahan	-13728
▁kiukahassa	-13729
▁kivilöihin	-13730
▁koikutteli	-13731
▁kokonaista	-13732
▁kontioille	-13733
▁korvasella	-13734
▁kosjomahan	-13735
▁koskemahan	-13736
▁koskemalla	-13737
▁kostamatta	-13738
▁kotipitoja	-13739
▁kourihinsa	-13740
▁kuilumahan	-13741
▁kujavieret	-13742
▁kukkapäitä	-13743
▁kulkematta	-13744
▁kulmiltani	-13745
▁kultavyötä	-13746
▁kumminkana	-13747
▁kumotakana	-13748
▁kumppalina	-13749
▁kunnioiksi	-13750
▁kuohumilla	-13751
▁kuolemasta	-13752
▁kurkiaisen	-13753
▁kutsutahan	-13754
▁kuulijoita	-13755
▁kuulumassa	-13756
▁kuulununna	-13757
▁kuuluvilla	-13758
▁kuusikossa	-13759
▁kuusinensa	-13760
▁kyllältäsi	-13761
▁kyläkunnan	-13762
▁kynsihinsä	-13763
▁kyntämättä	-13764
▁kyrmyniska	-13765
▁kytömäellä	-13766
▁kyyneleitä	-13767
▁käkeävälle	-13768
▁käppyrähän	-13769
▁laaullinen	-13770
▁laiehtivan	-13771
▁laitumelle	-13772
▁laivahansa	-13773
▁lakkimahan	-13774
▁lakkipäitä	-13775
▁lapsimahan	-13776
▁laskematta	-13777
▁lasketella	-13778
▁laskettuna	-13779
▁laskijaksi	-13780
▁laskimille	-13781
▁laukkiotsa	-13782
▁laulamille	-13783
▁laulantata	-13784
▁lauleleisi	-13785
▁lauletahan	-13786
▁lautasilla	-13787
▁leikatahan	-13788
▁leimahutti	-13789
▁lepeämättä	-13790
▁leukaluuta	-13791
▁liepeheltä	-13792
▁liepehille	-13793
▁liepehiltä	-13794
▁liikahutti	-13795
▁liikutelta	-13796
▁lintusille	-13797
▁liukumahan	-13798
▁lohiapajat	-13799
▁lohikaloja	-13800
▁lomatusten	-13801
▁lonkaellut	-13802
▁loukahutti	-13803
▁luikutusta	-13804
▁luksutteli	-13805
▁lumivaaran	-13806
▁lumpehiksi	-13807
▁luontelihe	-13808
▁luotehelta	-13809
▁luotehessa	-13810
▁luutimahan	-13811
▁lyötäväksi	-13812
▁lähtehillä	-13813
▁lähtemähän	-13814
▁lähtenynnä	-13815
▁läikytteli	-13816
▁läilyvihin	-13817
▁lämpymyttä	-13818
▁länsituuli	-13819
▁läylentävi	-13820
▁maavarahan	-13821
▁maksamahan	-13822
▁makujuomat	-13823
▁manterelle	-13824
▁marjanvart	-13825
▁mennäkseni	-13826
▁mennäksesi	-13827
▁miehisessä	-13828
▁miehuueksi	-13829
▁miekkoansa	-13830
▁mielehensä	-13831
▁mielelläni	-13832
▁murtumatta	-13833
▁muutaltihe	-13834
▁naljasilmä	-13835
▁naurettuna	-13836
▁naurihista	-13837
▁neitosensa	-13838
▁neljäntenä	-13839
▁neuvomahan	-13840
▁nostimille	-13841
▁nouantahan	-13842
▁nousematta	-13843
▁nousemista	-13844
▁nukkumasta	-13845
▁nukkunehen	-13846
▁nuorempani	-13847
▁nuoruuesta	-13848
▁näkemiänsä	-13849
▁ohjaksissa	-13850
▁ojelvoinen	-13851
▁ojelvoista	-13852
▁olettelevi	-13853
▁olkapäitse	-13854
▁olkileivän	-13855
▁ollaksensa	-13856
▁ollessansa	-13857
▁oluemmille	-13858
▁orjallensa	-13859
▁otavaisten	-13860
▁otettavasi	-13861
▁paateroita	-13862
▁paistakana	-13863
▁pajupehkon	-13864
▁pajupehkot	-13865
▁pakkumatta	-13866
▁palavoista	-13867
▁paremmanki	-13868
▁parkumahan	-13869
▁partahalle	-13870
▁patvaskani	-13871
▁perimäisen	-13872
▁petäjäinen	-13873
▁piehtaroia	-13874
▁piilokkali	-13875
▁pilkattuna	-13876
▁pilkotahan	-13877
▁pillojansa	-13878
▁pintehestä	-13879
▁pitelijätä	-13880
▁pitkävilla	-13881
▁piukovaksi	-13882
▁pohjapuuta	-13883
▁pohjukassa	-13884
▁poimimahan	-13885
▁polkemahan	-13886
▁poloisesta	-13887
▁poloisilta	-13888
▁portahalla	-13889
▁poskipäitä	-13890
▁potkimahan	-13891
▁puhtehessa	-13892
▁puikkoihin	-13893
▁punakypärä	-13894
▁puolellasi	-13895
▁puolellesi	-13896
▁purkajaksi	-13897
▁purkamahan	-13898
▁purkamatta	-13899
▁purtehensa	-13900
▁putoelivat	-13901
▁pyyhätteli	-13902
▁pyyäntähän	-13903
▁pyörähellä	-13904
▁pyörähtihe	-13905
▁pyörähytti	-13906
▁päivinänsä	-13907
▁pääkurikat	-13908
▁päällispan	-13909
▁pääsomihin	-13910
▁päätymistä	-13911
▁raavahille	-13912
▁rahankarva	-13913
▁rahkehella	-13914
▁rajuamahan	-13915
▁rannikolle	-13916
▁ratsahille	-13917
▁raukumahan	-13918
▁rautanäppi	-13919
▁rekosehesi	-13920
▁reutoaikse	-13921
▁rinnaltani	-13922
▁rinnuksesi	-13923
▁riukuttele	-13924
▁rumanakana	-13925
▁ruokorinta	-13926
▁ruvetkamme	-13927
▁satahavuja	-13928
▁satalatvan	-13929
▁seipähiksi	-13930
▁seipähältä	-13931
▁seisotahan	-13932
▁seisotettu	-13933
▁sieltäkänä	-13934
▁siikaseksi	-13935
▁siikasille	-13936
▁siivomatta	-13937
▁siivottuna	-13938
▁sijallensa	-13939
▁silmilläni	-13940
▁silmiltäni	-13941
▁silmänluon	-13942
▁sinisilkit	-13943
▁sisiliskot	-13944
▁sormestani	-13945
▁sortanunna	-13946
▁sortumahan	-13947
▁sotapurren	-13948
▁soutamalla	-13949
▁soutimilla	-13950
▁suettaessa	-13951
▁sukeamalta	-13952
▁sulhosihin	-13953
▁suorittava	-13954
▁suorittele	-13955
▁surettavia	-13956
▁syntyväksi	-13957
▁syöneheksi	-13958
▁syöttämäni	-13959
▁säpsähtihe	-13960
▁taattoseni	-13961
▁taikinahan	-13962
▁taipalella	-13963
▁taitajaksi	-13964
▁taitavasti	-13965
▁taivosista	-13966
▁takasalvan	-13967
▁takasalvat	-13968
▁talvikauet	-13969
▁tanterilta	-13970
▁tapahtuisi	-13971
▁tappamahan	-13972
▁tappamatta	-13973
▁tappelevat	-13974
▁tarkempata	-13975
▁tasaiselle	-13976
▁tasapäihin	-13977
▁tavoitteli	-13978
▁tepsuttele	-13979
▁terhenistä	-13980
▁tervehyttä	-13981
▁teräksestä	-13982
▁teräksinen	-13983
▁tietämättä	-13984
▁tippumatta	-13985
▁toisihimme	-13986
▁tuikuttaja	-13987
▁tuikutteli	-13988
▁tulikipuna	-13989
▁tulikulkun	-13990
▁tuliporton	-13991
▁tummenteli	-13992
▁tuntematto	-13993
▁tuollakana	-13994
▁tuomariksi	-13995
▁tuorehensa	-13996
▁tupestansa	-13997
▁tuppurihin	-13998
▁turmeleisi	-13999
▁tutkittane	-14000
▁tuuittajan	-14001
▁tuulematta	-14002
▁tuulottavi	-14003
▁tuuritteli	-14004
▁tynnyrihin	-14005
▁työlähässä	-14006
▁työntelihe	-14007
▁tähyämässä	-14008
▁ulkotöille	-14009
▁umpilammit	-14010
▁uurtehessa	-14011
▁vaakalintu	-14012
▁vaalimahan	-14013
▁vaapotteli	-14014
▁vaapukkana	-14015
▁vaapukoita	-14016
▁vaartaisin	-14017
▁vaimoloita	-14018
▁vaivuttele	-14019
▁vakkasehen	-14020
▁vakkasesta	-14021
▁valjastele	-14022
▁vallaltasi	-14023
▁valmistavi	-14024
▁valvattini	-14025
▁valvomahan	-14026
▁varaväkevä	-14027
▁varpahasta	-14028
▁varpelaita	-14029
▁varrelleni	-14030
▁vartalolta	-14031
▁vasaroilla	-14032
▁vasemmalla	-14033
▁vaskisilla	-14034
▁veijolleni	-14035
▁veitsiraut	-14036
▁vempeleltä	-14037
▁vempelille	-14038
▁vennotahan	-14039
▁venoseheni	-14040
▁venosehesi	-14041
▁viekumahan	-14042
▁vierahamme	-14043
▁vierahasen	-14044
▁vierehensä	-14045
▁vieremille	-14046
▁vieremillä	-14047
▁vieremistä	-14048
▁vieremässä	-14049
▁vieremästä	-14050
▁vieretämme	-14051
▁viereväksi	-14052
▁vihannalle	-14053
▁viikatetta	-14054
▁viipymättä	-14055
▁viipynynnä	-14056
▁viivytellä	-14057
▁virkkelevi	-14058
▁virrestäni	-14059
▁vuotamasta	-14060
▁ylenevälle	-14061
▁äitillensä	-14062
▁Astuessansa	-14063
▁Kalervoinen	-14064
▁Kalervoisen	-14065
▁Katseleikse	-14066
▁Saarelaista	-14067
▁Syöjättären	-14068
▁ajatuksista	-14069
▁alantehessa	-14070
▁alentakohon	-14071
▁alentamahan	-14072
▁alentamatta	-14073
▁anoppelahan	-14074
▁asemellensa	-14075
▁asuinsijani	-14076
▁aurinkoisen	-14077
▁avittamalla	-14078
▁avittamatta	-14079
▁eellimäisnä	-14080
▁epälukuisin	-14081
▁haastamahan	-14082
▁haastatella	-14083
▁hairahtaisi	-14084
▁haljakoista	-14085
▁hallikoirat	-14086
▁harvoinkana	-14087
▁hauinluisen	-14088
▁haukkumahan	-14089
▁haukkuvaksi	-14090
▁havukkainen	-14091
▁havusatahan	-14092
▁heinikkohon	-14093
▁heinävihkon	-14094
▁heitettihin	-14095
▁helmivyöllä	-14096
▁hienohelman	-14097
▁hienoiselta	-14098
▁hiihtämähän	-14099
▁hiilokselle	-14100
▁hiiloksessa	-14101
▁hirsipuuhun	-14102
▁hivuksiansa	-14103
▁huoletoinna	-14104
▁huonemiehet	-14105
▁huuhtojaksi	-14106
▁hypittelevi	-14107
▁hyryttelevi	-14108
▁hyvänimikkö	-14109
▁hyväoloinen	-14110
▁hyypynyisin	-14111
▁hämmentyisi	-14112
▁ilmivalkean	-14113
▁iltaruoiksi	-14114
▁imehtelivät	-14115
▁joutuisasti	-14116
▁juoksemasta	-14117
▁juorotuksen	-14118
▁juotettihin	-14119
▁juurruteltu	-14120
▁järyttelevi	-14121
▁jäsenihinsä	-14122
▁kaarevuutta	-14123
▁kaivotiellä	-14124
▁kalkuttelet	-14125
▁kammastuisi	-14126
▁kannannalta	-14127
▁kannantahan	-14128
▁kannettavan	-14129
▁kannikoissa	-14130
▁kantapäihin	-14131
▁kaottajaksi	-14132
▁kapahumahan	-14133
▁kappaleista	-14134
▁karjanannin	-14135
▁kaskipuiksi	-14136
▁kassapäistä	-14137
▁kasvavainen	-14138
▁kasvavaisen	-14139
▁katajikolle	-14140
▁katkennunna	-14141
▁katsannolta	-14142
▁katsantahan	-14143
▁katselkamme	-14144
▁katsottihin	-14145
▁kattiloissa	-14146
▁kaunistuisi	-14147
▁kaunoisehen	-14148
▁kaunoisessa	-14149
▁kaunoisiksi	-14150
▁kaunoisille	-14151
▁kaunokaista	-14152
▁keiretyinen	-14153
▁keitettihin	-14154
▁keittämähän	-14155
▁kiertämästä	-14156
▁kihloissasi	-14157
▁kirjoittavi	-14158
▁kirjokantta	-14159
▁kirvestänsä	-14160
▁kivikololle	-14161
▁kivitupahan	-14162
▁kohotetuksi	-14163
▁kohottelevi	-14164
▁koillisessa	-14165
▁kolmannesta	-14166
▁kolmannesti	-14167
▁korvallista	-14168
▁kotimäkehen	-14169
▁koukkuleuan	-14170
▁kouristelen	-14171
▁kourusarvet	-14172
▁kovaosainen	-14173
▁kovaosaista	-14174
▁kuikuttelen	-14175
▁kukkulaista	-14176
▁kukkuroilla	-14177
▁kulettaessa	-14178
▁kulkijoille	-14179
▁kullansolki	-14180
▁kulloinkana	-14181
▁kultaisesta	-14182
▁kultaisilta	-14183
▁kultakengän	-14184
▁kultarinnan	-14185
▁kummeksivat	-14186
▁kunnollinen	-14187
▁kunnottoman	-14188
▁kuorekokkar	-14189
▁kuuntelevat	-14190
▁kuuntelohon	-14191
▁kylvettihin	-14192
▁kyntörastas	-14193
▁kyselemättä	-14194
▁kämmentänsä	-14195
▁käpälihinsä	-14196
▁käymätöintä	-14197
▁käytettihin	-14198
▁käännyttele	-14199
▁käännytteli	-14200
▁käännähteli	-14201
▁kääntyköhön	-14202
▁käärmeheksi	-14203
▁käärmehillä	-14204
▁käärmehistä	-14205
▁laajemmille	-14206
▁laatuisampi	-14207
▁laettomahan	-14208
▁lailliseksi	-14209
▁laitapuolen	-14210
▁laksoloissa	-14211
▁lankapaulan	-14212
▁lappalaista	-14213
▁laulajoille	-14214
▁laulannasta	-14215
▁lausutellen	-14216
▁leivontahan	-14217
▁leivätyyttä	-14218
▁lempivieras	-14219
▁leppäharjun	-14220
▁leukaluuhun	-14221
▁leuoillensa	-14222
▁leuoiltansa	-14223
▁liettehestä	-14224
▁liikkuvaksi	-14225
▁liistehyisi	-14226
▁loitommaksi	-14227
▁loitommalle	-14228
▁loitsijaksi	-14229
▁loppumatoin	-14230
▁loukahtaisi	-14231
▁luikahaikse	-14232
▁lusikkaiset	-14233
▁lykkijäistä	-14234
▁lykyttelevi	-14235
▁lyömätöintä	-14236
▁lähteäkseni	-14237
▁läikkyvillä	-14238
▁läikkyvistä	-14239
▁länkilöihin	-14240
▁maammostani	-14241
▁maanalainen	-14242
▁mantereilla	-14243
▁marhaminnan	-14244
▁marjamättäh	-14245
▁matkamiestä	-14246
▁melskehistä	-14247
▁menetetyksi	-14248
▁metsämaille	-14249
▁miekallansa	-14250
▁mielellänsä	-14251
▁mieletöintä	-14252
▁molempiansa	-14253
▁muinaistasi	-14254
▁multahirren	-14255
▁mustukaista	-14256
▁muutellaita	-14257
▁muuttamatta	-14258
▁muuttelohon	-14259
▁mäntylöistä	-14260
▁määrättihin	-14261
▁naimakansan	-14262
▁naimattoman	-14263
▁naisellensa	-14264
▁naurantahan	-14265
▁noroperille	-14266
▁nostettihin	-14267
▁notkelmosta	-14268
▁nousneheksi	-14269
▁nuottaselle	-14270
▁ojentamatta	-14271
▁olovimmalle	-14272
▁oluttuvilta	-14273
▁omenuttansa	-14274
▁opastamahan	-14275
▁paateroille	-14276
▁pahansuovan	-14277
▁pahintakana	-14278
▁paistajaksi	-14279
▁paistamasta	-14280
▁paistavaksi	-14281
▁paistumahan	-14282
▁palanehille	-14283
▁palelemahan	-14284
▁palkoheinän	-14285
▁pannaksensa	-14286
▁petäjikössä	-14287
▁pienoisehen	-14288
▁pientaretta	-14289
▁pientarilla	-14290
▁pihlajaiset	-14291
▁pihtipuolen	-14292
▁piirrätteli	-14293
▁pikkaraisna	-14294
▁pikkuisessa	-14295
[...]
