<unk>	0
<s>	0
</s>	0
<PAD>	0
<UNK>	0
▁t	-0
he	-1
▁a	-2
▁the	-3
in	-4
▁s	-5
▁w	-6
nd	-7
▁o	-8
re	-9
▁h	-10
ou	-11
▁b	-12
▁and	-13
▁f	-14
er	-15
ed	-16
at	-17
ing	-18
ll	-19
it	-20
▁m	-21
▁c	-22
▁of	-23
▁l	-24
or	-25
ar	-26
en	-27
is	-28
as	-29
▁d	-30
▁to	-31
▁th	-32
▁n	-33
es	-34
▁he	-35
ro	-36
▁g	-37
id	-38
▁in	-39
an	-40
on	-41
▁'	-42
ow	-43
ad	-44
ut	-45
▁I	-46
▁be	-47
▁p	-48
▁y	-49
ot	-50
gh	-51
ld	-52
▁T	-53
me	-54
▁it	-55
▁st	-56
▁that	-57
▁sa	-58
▁was	-59
▁you	-60
ve	-61
▁u	-62
▁we	-63
le	-64
▁e	-65
ir	-66
ay	-67
▁on	-68
im	-69
ght	-70
▁S	-71
ly	-72
▁The	-73
▁his	-74
oo	-75
▁ha	-76
st	-77
ill	-78
▁said	-79
se	-80
et	-81
▁not	-82
▁A	-83
▁B	-84
▁they	-85
▁for	-86
▁as	-87
▁r	-88
ith	-89
ac	-90
ur	-91
ver	-92
▁F	-93
▁sh	-94
▁wh	-95
ee	-96
▁G	-97
al	-98
▁is	-99
and	-100
▁with	-101
il	-102
ight	-103
ain	-104
all	-105
▁H	-106
▁M	-107
ould	-108
▁re	-109
▁so	-110
ke	-111
.'	-112
am	-113
▁had	-114
ard	-115
,'	-116
ent	-117
ast	-118
ore	-119
▁at	-120
her	-121
▁him	-122
if	-123
▁an	-124
ic	-125
om	-126
th	-127
▁up	-128
▁have	-129
red	-130
▁k	-131
▁were	-132
▁but	-133
rod	-134
▁them	-135
▁all	-136
ind	-137
▁W	-138
ong	-139
▁fro	-140
ag	-141
▁`	-142
▁or	-143
rodo	-144
▁from	-145
▁le	-146
▁gre	-147
▁Frodo	-148
ess	-149
▁me	-150
▁E	-151
▁He	-152
ack	-153
▁see	-154
ch	-155
pp	-156
▁there	-157
▁fe	-158
▁now	-159
ood	-160
▁do	-161
ce	-162
nt	-163
ri	-164
▁ca	-165
▁ne	-166
▁ho	-167
▁their	-168
▁ag	-169
▁li	-170
ter	-171
▁will	-172
▁sp	-173
▁no	-174
▁But	-175
▁out	-176
ord	-177
▁R	-178
▁go	-179
▁su	-180
▁are	-181
!'	-182
ide	-183
orn	-184
▁if	-185
ome	-186
ry	-187
ound	-188
ook	-189
one	-190
▁whe	-191
own	-192
▁kn	-193
▁al	-194
▁L	-195
ough	-196
▁v	-197
ust	-198
▁ro	-199
out	-200
ark	-201
▁cl	-202
ven	-203
um	-204
▁D	-205
our	-206
▁ab	-207
▁my	-208
▁long	-209
▁by	-210
way	-211
▁Sam	-212
▁some	-213
to	-214
ers	-215
▁again	-216
▁And	-217
▁de	-218
ol	-219
hed	-220
▁came	-221
ak	-222
ond	-223
ell	-224
▁O	-225
▁P	-226
est	-227
▁this	-228
alf	-229
▁man	-230
▁could	-231
ang	-232
ther	-233
▁your	-234
▁down	-235
ass	-236
ward	-237
▁look	-238
ra	-239
▁se	-240
▁would	-241
▁great	-242
▁N	-243
▁like	-244
urn	-245
▁into	-246
andalf	-247
un	-248
pe	-249
▁Gandalf	-250
▁more	-251
▁C	-252
▁ch	-253
▁us	-254
▁can	-255
bb	-256
?'	-257
fore	-258
lf	-259
row	-260
den	-261
▁bl	-262
▁It	-263
▁back	-264
art	-265
ves	-266
▁come	-267
ire	-268
▁what	-269
ree	-270
▁been	-271
ered	-272
ings	-273
▁dark	-274
▁seem	-275
ought	-276
▁any	-277
▁com	-278
eep	-279
▁before	-280
▁then	-281
qu	-282
ck	-283
▁fl	-284
▁They	-285
▁over	-286
▁away	-287
▁one	-288
ath	-289
oll	-290
ous	-291
ion	-292
ake	-293
bbit	-294
ink	-295
tle	-296
ap	-297
ount	-298
▁pass	-299
ie	-300
▁am	-301
▁than	-302
ace	-303
▁j	-304
▁sl	-305
ant	-306
rag	-307
▁still	-308
ft	-309
▁about	-310
ipp	-311
▁know	-312
hat	-313
▁way	-314
The	-315
▁day	-316
nder	-317
▁far	-318
▁upon	-319
▁other	-320
▁sw	-321
▁did	-322
▁when	-323
ge	-324
▁last	-325
ist	-326
▁may	-327
▁hand	-328
▁many	-329
led	-330
au	-331
ne	-332
▁pl	-333
very	-334
▁too	-335
▁br	-336
▁ti	-337
lt	-338
▁_	-339
ose	-340
ate	-341
ost	-342
▁ey	-343
▁qu	-344
▁has	-345
ice	-346
ars	-347
ragorn	-348
▁gl	-349
You	-350
ick	-351
▁Aragorn	-352
ng	-353
▁light	-354
ile	-355
▁went	-356
▁must	-357
ss	-358
▁There	-359
▁tr	-360
▁even	-361
▁shall	-362
▁seemed	-363
▁wat	-364
ippin	-365
ove	-366
▁Pippin	-367
wn	-368
▁only	-369
▁hobbit	-370
▁old	-371
pt	-372
ble	-373
ade	-374
▁our	-375
erry	-376
▁time	-377
▁af	-378
▁here	-379
ite	-380
are	-381
▁under	-382
adow	-383
▁turn	-384
self	-385
▁Then	-386
▁Th	-387
▁lit	-388
▁say	-389
▁gr	-390
▁ar	-391
▁un	-392
▁looked	-393
ling	-394
rie	-395
▁thought	-396
▁its	-397
▁thr	-398
ig	-399
▁eyes	-400
us	-401
▁tw	-402
▁should	-403
▁Sh	-404
less	-405
air	-406
ive	-407
▁sm	-408
ave	-409
ady	-410
▁end	-411
li	-412
▁gu	-413
▁tre	-414
ich	-415
ish	-416
▁wor	-417
▁little	-418
ved	-419
▁night	-420
old	-421
ul	-422
ort	-423
▁where	-424
▁yet	-425
ried	-426
alk	-427
wards	-428
▁land	-429
▁think	-430
be	-431
▁off	-432
▁Merry	-433
▁while	-434
▁El	-435
▁St	-436
▁saw	-437
▁she	-438
ep	-439
▁who	-440
▁through	-441
▁en	-442
hind	-443
▁very	-444
aster	-445
▁beg	-446
▁which	-447
dden	-448
▁sil	-449
But	-450
ame	-451
ue	-452
▁str	-453
▁stood	-454
▁wind	-455
▁men	-456
▁her	-457
▁spe	-458
▁bet	-459
ift	-460
▁mu	-461
▁nor	-462
▁heard	-463
▁We	-464
ness	-465
▁road	-466
▁behind	-467
sw	-468
ountain	-469
▁dre	-470
▁ever	-471
op	-472
▁after	-473
▁hobbits	-474
ine	-475
ure	-476
▁passed	-477
thing	-478
▁shadow	-479
igh	-480
▁answ	-481
outh	-482
▁left	-483
▁vo	-484
irst	-485
ower	-486
▁fell	-487
ords	-488
▁For	-489
▁made	-490
ild	-491
▁good	-492
▁get	-493
▁stre	-494
▁well	-495
bo	-496
▁Or	-497
▁much	-498
mer	-499
▁hill	-500
▁deep	-501
ise	-502
ather	-503
▁per	-504
ollum	-505
oke	-506
▁pre	-507
owed	-508
oud	-509
ddenly	-510
ct	-511
▁call	-512
▁fall	-513
ies	-514
▁found	-515
ale	-516
▁set	-517
▁hor	-518
▁head	-519
we	-520
▁things	-521
▁Ro	-522
pan	-523
▁himself	-524
oth	-525
▁might	-526
▁first	-527
ving	-528
▁hope	-529
▁going	-530
It	-531
▁At	-532
ared	-533
▁pe	-534
▁black	-535
▁Gollum	-536
▁side	-537
ull	-538
▁own	-539
pen	-540
▁bro	-541
oom	-542
imli	-543
▁turned	-544
▁You	-545
▁find	-546
▁though	-547
eed	-548
▁Le	-549
▁Gimli	-550
▁po	-551
▁trees	-552
▁near	-553
▁heart	-554
ched	-555
▁cle	-556
ting	-557
▁lay	-558
▁Ring	-559
ider	-560
▁sun	-561
▁wall	-562
ff	-563
▁Far	-564
▁two	-565
▁ex	-566
▁seen	-567
▁In	-568
▁war	-569
▁water	-570
ance	-571
yond	-572
▁unt	-573
▁cried	-574
ilbo	-575
get	-576
ither	-577
▁soon	-578
reat	-579
▁don	-580
▁Bilbo	-581
▁need	-582
▁open	-583
▁right	-584
riend	-585
▁sle	-586
▁des	-587
em	-588
ity	-589
iver	-590
age	-591
ful	-592
▁once	-593
▁con	-594
▁fire	-595
cs	-596
ank	-597
▁sk	-598
▁ask	-599
olk	-600
olas	-601
▁feet	-602
▁above	-603
▁bec	-604
golas	-605
▁fear	-606
▁high	-607
▁beyond	-608
ere	-609
mb	-610
ear	-611
hing	-612
▁door	-613
And	-614
▁take	-615
▁Legolas	-616
▁sc	-617
▁new	-618
▁wond	-619
▁fo	-620
▁mo	-621
ci	-622
▁walk	-623
▁until	-624
▁days	-625
▁bre	-626
ince	-627
▁never	-628
▁these	-629
▁towards	-630
ange	-631
▁voice	-632
▁friend	-633
not	-634
▁ret	-635
hes	-636
▁Shire	-637
▁Mr	-638
▁ac	-639
ning	-640
▁pro	-641
▁grey	-642
eng	-643
▁white	-644
▁kne	-645
▁let	-646
▁ev	-647
▁foll	-648
ield	-649
▁Men	-650
▁rem	-651
▁tell	-652
▁round	-653
▁suddenly	-654
▁bo	-655
▁wa	-656
▁those	-657
▁got	-658
▁such	-659
ross	-660
aking	-661
▁stone	-662
▁sat	-663
ountains	-664
pped	-665
We	-666
ken	-667
az	-668
▁part	-669
▁slow	-670
oub	-671
hen	-672
imb	-673
▁arm	-674
amir	-675
▁dis	-676
▁face	-677
▁Is	-678
▁how	-679
▁ind	-680
ten	-681
▁felt	-682
▁took	-683
iff	-684
ory	-685
▁hu	-686
▁wood	-687
▁Faramir	-688
sel	-689
▁gone	-690
▁began	-691
sed	-692
▁rid	-693
▁mind	-694
▁return	-695
ened	-696
▁hel	-697
▁answered	-698
uman	-699
▁mom	-700
▁moment	-701
▁rest	-702
aruman	-703
▁"	-704
ung	-705
int	-706
ouse	-707
omir	-708
▁put	-709
oromir	-710
▁others	-711
ready	-712
▁hear	-713
▁king	-714
▁sound	-715
▁words	-716
other	-717
▁just	-718
▁cour	-719
▁folk	-720
▁Orcs	-721
ail	-722
anc	-723
able	-724
▁indeed	-725
▁la	-726
▁bel	-727
ondor	-728
▁hard	-729
ering	-730
▁cannot	-731
▁Boromir	-732
pany	-733
ween	-734
▁make	-735
▁small	-736
ach	-737
▁path	-738
▁clear	-739
▁spoke	-740
▁Saruman	-741
ished	-742
▁since	-743
▁spr	-744
gether	-745
▁Gondor	-746
▁Y	-747
▁green	-748
▁between	-749
rown	-750
les	-751
el	-752
hap	-753
rand	-754
agg	-755
▁cr	-756
▁master	-757
ears	-758
ally	-759
▁against	-760
▁east	-761
so	-762
▁So	-763
side	-764
▁clo	-765
▁few	-766
▁stro	-767
▁hands	-768
aces	-769
▁Roh	-770
▁keep	-771
▁sleep	-772
ught	-773
av	-774
ily	-775
Well	-776
▁another	-777
sh	-778
▁Wh	-779
ool	-780
▁ru	-781
most	-782
▁stand	-783
▁Elves	-784
▁coming	-785
uck	-786
▁As	-787
▁run	-788
▁among	-789
▁el	-790
▁evil	-791
ence	-792
ions	-793
▁wish	-794
▁Lord	-795
▁U	-796
▁fair	-797
▁world	-798
▁air	-799
▁lau	-800
tain	-801
▁want	-802
▁ground	-803
▁already	-804
▁guess	-805
▁speak	-806
ip	-807
ses	-808
rode	-809
▁enough	-810
rider	-811
▁nothing	-812
iz	-813
▁K	-814
raw	-815
▁knew	-816
here	-817
▁cold	-818
▁help	-819
▁without	-820
▁dead	-821
▁leave	-822
▁along	-823
ordor	-824
▁thing	-825
▁fee	-826
▁Mordor	-827
▁Ent	-828
▁lea	-829
▁wide	-830
▁hills	-831
ron	-832
What	-833
▁ran	-834
▁name	-835
orning	-836
▁climb	-837
▁south	-838
▁If	-839
▁sn	-840
▁omer	-841
ney	-842
▁hour	-843
▁oden	-844
▁Strider	-845
ier	-846
ment	-847
▁also	-848
No	-849
▁wonder	-850
▁strange	-851
▁together	-852
▁es	-853
▁tra	-854
▁north	-855
▁sword	-856
ey	-857
▁fur	-858
▁asked	-859
▁called	-860
▁most	-861
▁wear	-862
▁place	-863
▁What	-864
▁morning	-865
▁ear	-866
▁slowly	-867
▁darkness	-868
▁something	-869
▁sky	-870
▁tall	-871
▁quick	-872
▁looking	-873
▁bes	-874
war	-875
▁grow	-876
land	-877
▁sig	-878
ourney	-879
▁count	-880
▁better	-881
▁silent	-882
oubt	-883
▁ste	-884
▁When	-885
▁dr	-886
▁bat	-887
▁drew	-888
▁west	-889
▁horse	-890
▁rode	-891
▁journey	-892
▁ad	-893
▁Now	-894
▁brought	-895
my	-896
dle	-897
▁swift	-898
eth	-899
▁His	-900
▁son	-901
▁grew	-902
▁bit	-903
▁mar	-904
▁less	-905
▁Rohan	-906
▁least	-907
ped	-908
ching	-909
iders	-910
▁mountains	-911
umb	-912
▁grass	-913
well	-914
▁gave	-915
▁gold	-916
▁doubt	-917
▁years	-918
ret	-919
ople	-920
▁app	-921
▁wait	-922
imp	-923
▁lo	-924
▁ser	-925
anger	-926
▁ago	-927
▁sec	-928
▁talk	-929
▁every	-930
▁house	-931
▁three	-932
light	-933
▁beside	-934
▁hur	-935
▁red	-936
▁Be	-937
▁Nor	-938
▁forward	-939
ape	-940
arn	-941
▁done	-942
▁mean	-943
rond	-944
▁dist	-945
fe	-946
ien	-947
▁West	-948
▁alone	-949
Yes	-950
▁No	-951
▁wr	-952
ied	-953
illed	-954
ud	-955
▁pr	-956
▁rose	-957
▁tree	-958
oun	-959
▁kind	-960
▁ke	-961
▁Mor	-962
▁sing	-963
▁almost	-964
haps	-965
ious	-966
▁mist	-967
▁plain	-968
▁Com	-969
▁use	-970
▁walls	-971
▁Riders	-972
▁longer	-973
ows	-974
head	-975
▁does	-976
▁ston	-977
▁stream	-978
orm	-979
ening	-980
▁cloud	-981
▁battle	-982
▁course	-983
▁Ho	-984
▁soft	-985
▁Elrond	-986
▁remain	-987
ins	-988
There	-989
▁That	-990
▁foot	-991
▁half	-992
imes	-993
arrow	-994
▁rock	-995
▁power	-996
selves	-997
▁River	-998
▁people	-999
He	-1000
▁heav	-1001
▁strong	-1002
▁aw	-1003
aken	-1004
▁hid	-1005
▁fore	-1006
▁pale	-1007
▁car	-1008
tered	-1009
▁lead	-1010
▁list	-1011
▁On	-1012
ices	-1013
rying	-1014
ever	-1015
▁Tree	-1016
That	-1017
memb	-1018
▁gate	-1019
urp	-1020
alley	-1021
ently	-1022
▁enem	-1023
▁give	-1024
▁halt	-1025
▁friends	-1026
ief	-1027
atter	-1028
▁City	-1029
▁close	-1030
▁silver	-1031
▁All	-1032
▁Min	-1033
▁told	-1034
▁shadows	-1035
ird	-1036
▁ter	-1037
Th	-1038
ated	-1039
▁low	-1040
▁happ	-1041
▁ring	-1042
▁streng	-1043
but	-1044
▁both	-1045
▁full	-1046
▁further	-1047
▁cur	-1048
owing	-1049
iness	-1050
▁across	-1051
lo	-1052
per	-1053
arer	-1054
▁mid	-1055
▁Great	-1056
ab	-1057
▁(	-1058
ash	-1059
iet	-1060
Then	-1061
▁lost	-1062
▁song	-1063
▁rememb	-1064
▁agol	-1065
▁North	-1066
ways	-1067
▁held	-1068
oor	-1069
▁Sm	-1070
ying	-1071
▁lord	-1072
▁ride	-1073
▁supp	-1074
▁Iseng	-1075
▁peril	-1076
▁bus	-1077
▁esc	-1078
▁lar	-1079
▁valley	-1080
▁jo	-1081
pect	-1082
▁orc	-1083
beard	-1084
▁guard	-1085
ons	-1086
iled	-1087
▁feel	-1088
▁Isengard	-1089
▁strength	-1090
ase	-1091
ged	-1092
ater	-1093
▁care	-1094
▁sign	-1095
▁wild	-1096
▁field	-1097
▁ed	-1098
▁gat	-1099
▁news	-1100
▁maybe	-1101
▁underst	-1102
ern	-1103
▁Se	-1104
▁hold	-1105
▁Minas	-1106
amp	-1107
ife	-1108
nemy	-1109
▁ris	-1110
▁Enemy	-1111
▁Hobbit	-1112
▁answer	-1113
▁bright	-1114
▁walked	-1115
▁Company	-1116
▁Yet	-1117
▁yes	-1118
ised	-1119
▁comes	-1120
▁danger	-1121
▁perhaps	-1122
▁bur	-1123
▁tow	-1124
▁burn	-1125
▁Shadow	-1126
▁followed	-1127
▁home	-1128
▁save	-1129
bur	-1130
ghed	-1131
▁sit	-1132
irith	-1133
▁arms	-1134
▁work	-1135
▁Treebeard	-1136
ats	-1137
ror	-1138
▁Tom	-1139
▁won	-1140
cious	-1141
▁King	-1142
▁glad	-1143
▁laid	-1144
▁broken	-1145
auron	-1146
eneth	-1147
enethor	-1148
ted	-1149
▁ent	-1150
aring	-1151
▁Dark	-1152
▁learn	-1153
▁Sauron	-1154
▁laughed	-1155
▁Denethor	-1156
te	-1157
men	-1158
▁same	-1159
▁either	-1160
alad	-1161
▁hast	-1162
ty	-1163
▁led	-1164
▁meet	-1165
▁step	-1166
▁heavy	-1167
▁Master	-1168
gs	-1169
▁Su	-1170
▁sight	-1171
▁bu	-1172
▁East	-1173
▁bank	-1174
▁forg	-1175
▁horn	-1176
▁pres	-1177
▁sprang	-1178
ached	-1179
▁point	-1180
aped	-1181
▁cut	-1182
▁dim	-1183
▁sent	-1184
▁short	-1185
▁leaves	-1186
▁ahead	-1187
▁start	-1188
▁became	-1189
▁caught	-1190
ene	-1191
ock	-1192
iles	-1193
▁One	-1194
▁stay	-1195
▁stars	-1196
▁young	-1197
▁gi	-1198
ully	-1199
▁Bree	-1200
▁Lady	-1201
▁word	-1202
▁South	-1203
▁river	-1204
▁To	-1205
▁else	-1206
▁food	-1207
▁themselves	-1208
ause	-1209
▁acc	-1210
izard	-1211
▁Gate	-1212
▁lift	-1213
▁quiet	-1214
▁horses	-1215
ru	-1216
▁This	-1217
▁being	-1218
▁seems	-1219
▁halted	-1220
▁voices	-1221
▁anything	-1222
If	-1223
Wh	-1224
▁Bl	-1225
amed	-1226
ined	-1227
▁coun	-1228
▁rien	-1229
▁compan	-1230
▁fallen	-1231
fter	-1232
mand	-1233
vell	-1234
▁cry	-1235
▁Road	-1236
▁lands	-1237
▁large	-1238
▁watch	-1239
▁filled	-1240
day	-1241
ereg	-1242
▁none	-1243
▁cloak	-1244
▁always	-1245
▁silence	-1246
▁serv	-1247
▁below	-1248
▁shout	-1249
▁times	-1250
▁rather	-1251
▁returned	-1252
gg	-1253
▁why	-1254
fully	-1255
▁Ents	-1256
▁With	-1257
▁each	-1258
▁hall	-1259
▁hung	-1260
▁breath	-1261
▁secret	-1262
▁understand	-1263
▁Not	-1264
▁mis	-1265
▁ord	-1266
▁top	-1267
▁Some	-1268
▁bring	-1269
▁known	-1270
▁often	-1271
▁country	-1272
▁evening	-1273
aff	-1274
king	-1275
hered	-1276
▁used	-1277
▁dream	-1278
▁taken	-1279
▁V	-1280
ches	-1281
▁gle	-1282
▁edge	-1283
▁whis	-1284
▁Black	-1285
▁death	-1286
ump	-1287
▁ra	-1288
tern	-1289
▁mem	-1290
ivend	-1291
▁moon	-1292
ivendell	-1293
app	-1294
▁best	-1295
▁quite	-1296
▁stones	-1297
▁company	-1298
▁Rivendell	-1299
amb	-1300
ures	-1301
▁Let	-1302
▁cre	-1303
▁move	-1304
eneath	-1305
▁Tower	-1306
▁matter	-1307
ott	-1308
warf	-1309
▁bed	-1310
▁thick	-1311
▁Tirith	-1312
oon	-1313
ots	-1314
▁An	-1315
ible	-1316
▁cho	-1317
▁dri	-1318
▁rec	-1319
▁running	-1320
▁standing	-1321
raid	-1322
▁van	-1323
▁host	-1324
▁line	-1325
▁begin	-1326
▁cross	-1327
▁lad	-1328
▁lie	-1329
ndred	-1330
▁fing	-1331
▁sure	-1332
▁dread	-1333
awn	-1334
▁ow	-1335
ales	-1336
▁adv	-1337
ouble	-1338
▁climbed	-1339
▁Suddenly	-1340
_,	-1341
dy	-1342
ery	-1343
ues	-1344
cept	-1345
▁ere	-1346
▁Even	-1347
▁real	-1348
▁miles	-1349
▁ready	-1350
▁weary	-1351
▁forgot	-1352
▁reached	-1353
yn	-1354
med	-1355
▁Do	-1356
▁gaz	-1357
▁rep	-1358
▁wand	-1359
▁hidden	-1360
▁Gl	-1361
▁eat	-1362
▁hundred	-1363
Now	-1364
▁Al	-1365
▁Elf	-1366
▁bent	-1367
▁owyn	-1368
▁till	-1369
ls	-1370
ping	-1371
▁eye	-1372
▁deal	-1373
▁tale	-1374
▁doors	-1375
▁earth	-1376
▁remember	-1377
cl	-1378
su	-1379
▁cliff	-1380
▁stair	-1381
▁expect	-1382
▁living	-1383
▁command	-1384
ans	-1385
ets	-1386
ining	-1387
▁cast	-1388
▁kept	-1389
▁peace	-1390
▁woods	-1391
▁chance	-1392
▁quickly	-1393
▁che	-1394
▁ref	-1395
eared	-1396
▁Come	-1397
▁bear	-1398
▁draw	-1399
▁Brand	-1400
▁Galad	-1401
▁places	-1402
▁wizard	-1403
▁turning	-1404
ked	-1405
aint	-1406
leas	-1407
▁four	-1408
▁After	-1409
▁beneath	-1410
▁co	-1411
▁fad	-1412
▁quest	-1413
▁follow	-1414
▁lifted	-1415
▁spring	-1416
▁forgotten	-1417
▁te	-1418
▁Sun	-1419
▁swe	-1420
▁late	-1421
▁mess	-1422
▁roll	-1423
arewell	-1424
▁afraid	-1425
▁rising	-1426
▁swiftly	-1427
ts	-1428
hel	-1429
ner	-1430
uin	-1431
▁free	-1432
▁aside	-1433
▁falling	-1434
irc	-1435
ren	-1436
ames	-1437
rief	-1438
▁End	-1439
ertain	-1440
▁enemy	-1441
ps	-1442
xt	-1443
rim	-1444
▁im	-1445
fort	-1446
▁dra	-1447
▁eas	-1448
▁slop	-1449
▁year	-1450
▁White	-1451
▁mouth	-1452
▁trouble	-1453
▁Bag	-1454
▁imp	-1455
arden	-1456
▁legs	-1457
▁star	-1458
▁stra	-1459
overed	-1460
▁memory	-1461
▁counsel	-1462
ead	-1463
▁em	-1464
ides	-1465
idge	-1466
lend	-1467
▁dro	-1468
ation	-1469
▁bore	-1470
▁diff	-1471
▁hair	-1472
▁within	-1473
▁because	-1474
▁remained	-1475
ilt	-1476
res	-1477
They	-1478
read	-1479
▁Man	-1480
▁drink	-1481
▁forth	-1482
▁wound	-1483
ia	-1484
pl	-1485
ants	-1486
▁sad	-1487
cient	-1488
orrow	-1489
▁love	-1490
▁tong	-1491
▁sudden	-1492
▁Mountains	-1493
So	-1494
aw	-1495
oose	-1496
▁She	-1497
▁bar	-1498
▁pon	-1499
▁rel	-1500
▁sto	-1501
▁leng	-1502
▁life	-1503
▁Moria	-1504
▁forest	-1505
▁narrow	-1506
▁growing	-1507
▁present	-1508
▁straight	-1509
Not	-1510
ded	-1511
▁sum	-1512
▁cont	-1513
▁fail	-1514
▁fast	-1515
▁safe	-1516
▁beast	-1517
▁creat	-1518
▁gloom	-1519
▁forget	-1520
arad	-1521
ayed	-1522
part	-1523
▁Gre	-1524
▁tou	-1525
owers	-1526
▁craw	-1527
▁loud	-1528
▁given	-1529
▁speed	-1530
▁desire	-1531
▁escape	-1532
▁fields	-1533
▁eastward	-1534
mon	-1535
▁er	-1536
Come	-1537
sing	-1538
anged	-1539
estern	-1540
▁belie	-1541
▁steep	-1542
▁become	-1543
▁opened	-1544
▁ancient	-1545
▁Sea	-1546
▁tor	-1547
▁disc	-1548
▁empt	-1549
▁lies	-1550
▁faint	-1551
▁smoke	-1552
ye	-1553
For	-1554
eds	-1555
man	-1556
rows	-1557
ured	-1558
▁fin	-1559
▁mut	-1560
▁tun	-1561
▁vis	-1562
▁Mark	-1563
▁dest	-1564
▁doom	-1565
▁true	-1566
▁shape	-1567
▁father	-1568
▁nearly	-1569
▁getting	-1570
▁singing	-1571
▁How	-1572
▁att	-1573
▁bow	-1574
▁ill	-1575
ipped	-1576
▁capt	-1577
▁heal	-1578
▁next	-1579
▁fight	-1580
▁Brandy	-1581
▁myself	-1582
▁mountain	-1583
leep	-1584
▁met	-1585
▁leag	-1586
▁live	-1587
▁rain	-1588
▁surp	-1589
▁bowed	-1590
▁tales	-1591
▁trust	-1592
▁golden	-1593
▁hearts	-1594
▁length	-1595
of	-1596
uth	-1597
▁Ar	-1598
This	-1599
tory	-1600
▁try	-1601
night	-1602
ouses	-1603
rible	-1604
▁dear	-1605
▁pack	-1606
warves	-1607
▁crack	-1608
▁knows	-1609
▁clouds	-1610
▁hardly	-1611
▁mighty	-1612
▁really	-1613
▁softly	-1614
▁unless	-1615
▁shining	-1616
ax	-1617
yed	-1618
riel	-1619
▁Old	-1620
▁Here	-1621
▁stir	-1622
▁yell	-1623
▁faces	-1624
▁vanished	-1625
Do	-1626
ned	-1627
nded	-1628
▁fig	-1629
ongue	-1630
▁fled	-1631
▁hunt	-1632
▁shut	-1633
▁dwell	-1634
▁destro	-1635
gl	-1636
ger	-1637
ided	-1638
ring	-1639
▁Bagg	-1640
▁bird	-1641
▁pool	-1642
▁broke	-1643
▁window	-1644
▁passing	-1645
▁Galadriel	-1646
oot	-1647
ckon	-1648
aught	-1649
icked	-1650
▁circ	-1651
▁pain	-1652
▁lying	-1653
▁tower	-1654
▁travell	-1655
▁precious	-1656
▁companions	-1657
ges	-1658
▁dec	-1659
▁res	-1660
ating	-1661
▁bord	-1662
▁hide	-1663
▁room	-1664
tering	-1665
▁broad	-1666
▁neither	-1667
▁outside	-1668
▁stopped	-1669
▁suppose	-1670
arp	-1671
aut	-1672
vel	-1673
▁mur	-1674
▁tid	-1675
▁read	-1676
▁empty	-1677
▁floor	-1678
▁steps	-1679
▁errand	-1680
▁inside	-1681
▁riding	-1682
▁comfort	-1683
▁happened	-1684
ush	-1685
ison	-1686
wood	-1687
▁int	-1688
thanc	-1689
▁purp	-1690
▁send	-1691
▁thro	-1692
▁gates	-1693
▁gather	-1694
▁nearer	-1695
!_	-1696
like	-1697
▁ble	-1698
▁fac	-1699
▁Fore	-1700
▁poss	-1701
▁break	-1702
▁front	-1703
▁noise	-1704
▁surpr	-1705
▁troub	-1706
▁Hobbits	-1707
▁Orthanc	-1708
its	-1709
bour	-1710
eech	-1711
ssed	-1712
▁pur	-1713
▁smo	-1714
ashed	-1715
iling	-1716
▁dawn	-1717
▁mark	-1718
▁thin	-1719
tongue	-1720
▁Their	-1721
▁gleam	-1722
▁heads	-1723
▁shore	-1724
▁moving	-1725
▁certain	-1726
ced	-1727
▁slo	-1728
▁spo	-1729
▁tro	-1730
ildur	-1731
ndeed	-1732
▁nice	-1733
▁weap	-1734
▁beaut	-1735
▁guest	-1736
▁moved	-1737
▁except	-1738
▁slopes	-1739
▁tidings	-1740
,"	-1741
dom	-1742
ugg	-1743
ages	-1744
atch	-1745
▁fly	-1746
▁lan	-1747
ights	-1748
▁corn	-1749
▁goes	-1750
▁sear	-1751
▁Forest	-1752
▁guessed	-1753
▁walking	-1754
_.	-1755
ix	-1756
ks	-1757
cho	-1758
uff	-1759
aves	-1760
ives	-1761
ldom	-1762
▁Cap	-1763
▁shr	-1764
iddle	-1765
immer	-1766
▁aware	-1767
▁whole	-1768
eregond	-1769
▁Captain	-1770
▁gathered	-1771
All	-1772
arm	-1773
ries	-1774
▁Morg	-1775
▁ears	-1776
▁holl	-1777
terbur	-1778
umbled	-1779
▁chief	-1780
▁crown	-1781
▁doing	-1782
▁hours	-1783
▁names	-1784
▁story	-1785
▁tired	-1786
▁tried	-1787
▁bitter	-1788
▁Baggins	-1789
▁opening	-1790
▁sitting	-1791
▁Beregond	-1792
bl	-1793
lc	-1794
hold	-1795
wise	-1796
where	-1797
▁Deep	-1798
▁fool	-1799
▁whom	-1800
angers	-1801
▁pleas	-1802
▁shone	-1803
▁worse	-1804
▁Anduin	-1805
▁burden	-1806
Let	-1807
fax	-1808
rom	-1809
ably	-1810
akes	-1811
▁desp	-1812
▁prom	-1813
▁stoo	-1814
▁later	-1815
▁enemies	-1816
▁feeling	-1817
▁learned	-1818
▁Butterbur	-1819
ens	-1820
fall	-1821
ines	-1822
▁Mir	-1823
▁big	-1824
▁gra	-1825
▁gro	-1826
▁sir	-1827
▁wis	-1828
▁snow	-1829
▁wise	-1830
▁Still	-1831
▁Before	-1832
▁closed	-1833
▁borders	-1834
▁passage	-1835
▁wondered	-1836
▁listening	-1837
bs	-1838
aim	-1839
ary	-1840
ense	-1841
enty	-1842
ship	-1843
▁reg	-1844
▁unc	-1845
thern	-1846
▁Worm	-1847
▁bare	-1848
▁city	-1849
▁fort	-1850
▁hurt	-1851
▁past	-1852
▁poor	-1853
▁roof	-1854
▁Where	-1855
▁haste	-1856
▁ought	-1857
▁garden	-1858
▁leagues	-1859
▁watched	-1860
▁Mountain	-1861
▁distance	-1862
▁westward	-1863
▁yourself	-1864
▁Shadowfax	-1865
."	-1866
▁Q	-1867
ald	-1868
ime	-1869
Here	-1870
▁ass	-1871
▁hon	-1872
▁squ	-1873
ction	-1874
▁echo	-1875
▁huge	-1876
▁neck	-1877
ounted	-1878
▁faded	-1879
▁laugh	-1880
▁slope	-1881
▁tunne	-1882
▁change	-1883
▁easter	-1884
▁seldom	-1885
▁Isildur	-1886
▁dangerous	-1887
ele	-1888
for	-1889
top	-1890
▁bad	-1891
▁del	-1892
▁Fang	-1893
▁died	-1894
▁lean	-1895
▁ruin	-1896
▁sharp	-1897
▁tongue	-1898
▁whether	-1899
▁appeared	-1900
▁muttered	-1901
use	-1902
▁By	-1903
aybe	-1904
ding	-1905
ents	-1906
vish	-1907
▁Why	-1908
▁que	-1909
▁sea	-1910
▁Dead	-1911
▁Took	-1912
▁leap	-1913
▁orcs	-1914
▁rate	-1915
▁says	-1916
▁reach	-1917
▁table	-1918
▁asleep	-1919
▁deadly	-1920
▁middle	-1921
▁reckon	-1922
▁greater	-1923
▁stepped	-1924
▁travellers	-1925
sp	-1926
ces	-1927
ike	-1928
the	-1929
eleb	-1930
▁fou	-1931
▁une	-1932
nding	-1933
oured	-1934
ually	-1935
under	-1936
▁dism	-1937
▁drag	-1938
▁vast	-1939
hapter	-1940
iously	-1941
▁chair	-1942
▁proud	-1943
▁stret	-1944
▁terror	-1945
▁trying	-1946
ards	-1947
ging	-1948
▁fam	-1949
▁sur	-1950
▁flat	-1951
▁ways	-1952
▁crept	-1953
▁drawn	-1954
▁sever	-1955
▁rolled	-1956
▁Fangorn	-1957
▁believe	-1958
▁changed	-1959
▁fingers	-1960
▁shouted	-1961
._	-1962
ms	-1963
ays	-1964
how	-1965
rat	-1966
rew	-1967
resh	-1968
▁eag	-1969
▁joy	-1970
amber	-1971
lands	-1972
▁Moon	-1973
▁blue	-1974
▁blind	-1975
▁boats	-1976
▁early	-1977
▁pursu	-1978
▁staff	-1979
▁stony	-1980
Chapter	-1981
▁Middle	-1982
▁depart	-1983
▁leaped	-1984
▁swords	-1985
▁distant	-1986
▁several	-1987
▁windows	-1988
▁business	-1989
▁creature	-1990
,_	-1991
ult	-1992
▁ax	-1993
Where	-1994
ained	-1995
▁Many	-1996
▁bott	-1997
▁warm	-1998
▁brown	-1999
▁shield	-2000
▁thrust	-2001
▁burning	-2002
▁eastern	-2003
▁western	-2004
▁speaking	-2005
▁beginning	-2006
Why	-2007
als	-2008
cil	-2009
▁Im	-2010
road	-2011
▁dev	-2012
▁fit	-2013
▁fle	-2014
▁rum	-2015
earth	-2016
▁clad	-2017
▁conc	-2018
▁foul	-2019
▁grim	-2020
▁loom	-2021
▁pier	-2022
▁appro	-2023
▁elven	-2024
▁slept	-2025
▁truth	-2026
▁flowed	-2027
▁guests	-2028
▁itself	-2029
▁lights	-2030
▁purpose	-2031
▁slipped	-2032
▁talking	-2033
▁tonight	-2034
ze	-2035
▁i	-2036
aid	-2037
der	-2038
iful	-2039
ired	-2040
pered	-2041
ushed	-2042
▁Buck	-2043
▁boat	-2044
▁char	-2045
▁main	-2046
▁ship	-2047
▁sort	-2048
▁welc	-2049
▁writ	-2050
▁Dwarf	-2051
▁flame	-2052
▁circle	-2053
▁raised	-2054
▁spoken	-2055
▁wished	-2056
▁captain	-2057
▁drawing	-2058
▁thinking	-2059
▁Wormtongue	-2060
ote	-2061
▁Up	-2062
▁Gam	-2063
▁Gor	-2064
▁hot	-2065
▁arch	-2066
▁glit	-2067
lendil	-2068
▁child	-2069
▁gazed	-2070
▁stead	-2071
recious	-2072
▁Morgul	-2073
▁sighed	-2074
▁taking	-2075
▁winding	-2076
▁climbing	-2077
▁troubled	-2078
▁Mu	-2079
irth	-2080
▁Out	-2081
▁def	-2082
▁lot	-2083
inter	-2084
▁From	-2085
▁Loth	-2086
▁Will	-2087
▁ruff	-2088
▁bound	-2089
▁ended	-2090
▁merry	-2091
▁anyway	-2092
▁burned	-2093
▁honour	-2094
▁making	-2095
▁waters	-2096
▁dreadful	-2097
▁destroyed	-2098
enn	-2099
lls	-2100
▁Qu	-2101
▁Sl	-2102
▁ve	-2103
ived	-2104
ress	-2105
thil	-2106
▁wro	-2107
▁Gold	-2108
▁Grey	-2109
▁Well	-2110
▁cool	-2111
▁defe	-2112
▁didn	-2113
▁heir	-2114
▁keen	-2115
▁mine	-2116
▁murm	-2117
▁stri	-2118
▁Celeb	-2119
▁knees	-2120
▁lived	-2121
▁midst	-2122
▁paths	-2123
▁ruffi	-2124
▁Though	-2125
▁second	-2126
▁started	-2127
▁waiting	-2128
azg	-2129
gil	-2130
▁Go	-2131
▁Gr	-2132
▁My	-2133
welt	-2134
▁Ugl	-2135
▁bid	-2136
▁min	-2137
▁vie	-2138
▁dire	-2139
▁deeds	-2140
▁dwarf	-2141
▁lower	-2142
▁choice	-2143
▁corner	-2144
▁saying	-2145
▁chamber	-2146
▁shoulder	-2147
▁whatever	-2148
▁beautiful	-2149
▁gathering	-2150
up	-2151
How	-2152
ask	-2153
kes	-2154
▁Down	-2155
▁amaz	-2156
▁dare	-2157
▁hole	-2158
cially	-2159
▁dwelt	-2160
▁kings	-2161
▁bridge	-2162
▁likely	-2163
▁needed	-2164
▁Elendil	-2165
▁despair	-2166
▁Hobbiton	-2167
▁servants	-2168
Is	-2169
cc	-2170
Yet	-2171
set	-2172
ault	-2173
oved	-2174
▁aid	-2175
▁mus	-2176
▁val	-2177
▁Soon	-2178
▁blew	-2179
▁born	-2180
▁gift	-2181
▁prep	-2182
▁seek	-2183
▁birds	-2184
▁slain	-2185
▁sweet	-2186
▁hollow	-2187
▁strugg	-2188
▁tunnel	-2189
▁crossed	-2190
▁terrible	-2191
▁shoulders	-2192
▁1	-2193
Don	-2194
mit	-2195
rin	-2196
une	-2197
▁Of	-2198
adel	-2199
▁Hel	-2200
▁ang	-2201
▁anx	-2202
▁ban	-2203
▁inv	-2204
▁isn	-2205
affer	-2206
times	-2207
▁book	-2208
▁busy	-2209
anches	-2210
itadel	-2211
othing	-2212
▁Ithil	-2213
▁built	-2214
▁queer	-2215
eregrin	-2216
▁bottom	-2217
▁labour	-2218
▁report	-2219
▁covered	-2220
▁leading	-2221
▁quietly	-2222
ew	-2223
▁J	-2224
ait	-2225
▁fa	-2226
apes	-2227
ized	-2228
▁die	-2229
▁tur	-2230
▁vic	-2231
isted	-2232
▁Wood	-2233
▁amid	-2234
▁easy	-2235
▁heed	-2236
▁luck	-2237
▁pill	-2238
ention	-2239
inking	-2240
▁alive	-2241
▁blade	-2242
▁blood	-2243
▁songs	-2244
▁storm	-2245
▁choose	-2246
▁figure	-2247
▁speech	-2248
▁yellow	-2249
▁Dwarves	-2250
▁Peregrin	-2251
▁branches	-2252
▁farewell	-2253
▁everything	-2254
Be	-2255
ple	-2256
usk	-2257
aled	-2258
ones	-2259
▁Sil	-2260
▁inn	-2261
▁mad	-2262
eered	-2263
ments	-2264
▁Entw	-2265
▁body	-2266
▁fier	-2267
▁kill	-2268
▁pity	-2269
▁show	-2270
▁Rider	-2271
▁brief	-2272
▁chill	-2273
▁realm	-2274
▁delight	-2275
▁weather	-2276
▁expected	-2277
▁northern	-2278
clo	-2279
now	-2280
oss	-2281
▁Pr	-2282
arsh	-2283
ason	-2284
bbed	-2285
▁age	-2286
▁ast	-2287
▁axe	-2288
▁sme	-2289
▁wol	-2290
icult	-2291
irrim	-2292
▁Land	-2293
▁Only	-2294
▁Wild	-2295
▁espe	-2296
▁five	-2297
▁mail	-2298
▁Stone	-2299
▁cover	-2300
▁haven	-2301
▁roads	-2302
▁shapes	-2303
▁stirred	-2304
▁Precious	-2305
▁Rohirrim	-2306
▁northward	-2307
uel	-2308
you	-2309
▁Br	-2310
Good	-2311
ters	-2312
agrat	-2313
bably	-2314
oused	-2315
▁Hill	-2316
▁Slow	-2317
▁blow	-2318
▁case	-2319
▁clut	-2320
▁iron	-2321
▁leaf	-2322
▁mile	-2323
▁pony	-2324
▁vill	-2325
ousand	-2326
randir	-2327
▁meant	-2328
▁mound	-2329
▁seven	-2330
▁sheer	-2331
▁sides	-2332
▁disapp	-2333
▁hungry	-2334
▁Shagrat	-2335
▁account	-2336
▁willing	-2337
ithrandir	-2338
▁steadily	-2339
▁difficult	-2340
▁whispered	-2341
▁southwards	-2342
dd	-2343
Who	-2344
bad	-2345
ors	-2346
▁hat	-2347
▁pau	-2348
▁wra	-2349
anced	-2350
asped	-2351
▁Half	-2352
▁Helm	-2353
▁Nazg	-2354
▁beat	-2355
▁camp	-2356
▁numb	-2357
▁reve	-2358
▁glimp	-2359
▁touch	-2360
▁trail	-2361
▁gently	-2362
▁spread	-2363
▁stared	-2364
▁entered	-2365
▁glimmer	-2366
▁history	-2367
▁listened	-2368
▁question	-2369
▁ruffians	-2370
▁surprise	-2371
▁thousand	-2372
▁especially	-2373
Al	-2374
My	-2375
wh	-2376
aked	-2377
angu	-2378
folk	-2379
gend	-2380
▁eff	-2381
▁fir	-2382
iding	-2383
▁dusk	-2384
▁grie	-2385
▁hood	-2386
▁Three	-2387
▁falls	-2388
▁march	-2389
▁stern	-2390
▁wrong	-2391
▁Indeed	-2392
▁breast	-2393
▁feared	-2394
▁fellow	-2395
▁listen	-2396
▁smiled	-2397
▁sooner	-2398
▁towers	-2399
▁crawled	-2400
▁differe	-2401
▁weapons	-2402
▁probably	-2403
▁weariness	-2404
ny	-2405
gee	-2406
ign	-2407
iss	-2408
buck	-2409
cked	-2410
fast	-2411
▁hed	-2412
▁spl	-2413
asure	-2414
uring	-2415
▁Coun	-2416
▁Horn	-2417
▁Nine	-2418
▁belt	-2419
▁fact	-2420
▁lane	-2421
▁rang	-2422
ashion	-2423
outher	-2424
▁grief	-2425
▁grown	-2426
▁roots	-2427
▁third	-2428
▁trick	-2429
▁whose	-2430
▁wings	-2431
▁Gamgee	-2432
▁Slowly	-2433
▁failed	-2434
▁flying	-2435
▁houses	-2436
▁legend	-2437
▁ponies	-2438
▁wisdom	-2439
▁carried	-2440
▁escaped	-2441
▁somehow	-2442
▁sunlight	-2443
To	-2444
eel	-2445
▁Ch	-2446
▁Sp	-2447
▁Sw	-2448
▁ma	-2449
cher	-2450
udge	-2451
wind	-2452
▁Bom	-2453
▁Don	-2454
aldir	-2455
anted	-2456
ories	-2457
pping	-2458
▁seat	-2459
perate	-2460
▁cries	-2461
▁eager	-2462
▁shook	-2463
attered	-2464
umbling	-2465
▁Haldir	-2466
▁import	-2467
▁paused	-2468
▁riders	-2469
▁wanted	-2470
▁leaving	-2471
▁service	-2472
▁welcome	-2473
▁possible	-2474
▁thoughts	-2475
Ah	-2476
St	-2477
iv	-2478
wo	-2479
ber	-2480
ect	-2481
▁Gu	-2482
aunt	-2483
hill	-2484
olly	-2485
rees	-2486
▁Eye	-2487
▁pit	-2488
▁pol	-2489
▁sha	-2490
▁ten	-2491
▁tom	-2492
▁unf	-2493
aggot	-2494
▁Cott	-2495
▁noon	-2496
▁sang	-2497
▁stop	-2498
ations	-2499
▁Elven	-2500
▁bough	-2501
▁deser	-2502
▁order	-2503
▁today	-2504
▁track	-2505
▁trump	-2506
▁beasts	-2507
▁loomed	-2508
▁single	-2509
▁Council	-2510
▁wrought	-2511
▁sometimes	-2512
In	-2513
de	-2514
ek	-2515
ug	-2516
arl	-2517
bed	-2518
ial	-2519
ipe	-2520
▁Am	-2521
▁fr	-2522
aced	-2523
iced	-2524
ited	-2525
▁Ste	-2526
▁deb	-2527
▁hig	-2528
▁tri	-2529
kwood	-2530
water	-2531
▁broo	-2532
▁harm	-2533
▁lore	-2534
▁view	-2535
▁wore	-2536
anging	-2537
▁House	-2538
▁aloud	-2539
▁blank	-2540
▁chain	-2541
▁glint	-2542
▁grave	-2543
▁music	-2544
▁wrath	-2545
▁height	-2546
▁rumour	-2547
▁seeing	-2548
▁flowers	-2549
▁gleamed	-2550
▁however	-2551
▁Mirkwood	-2552
▁stretched	-2553
Nay	-2554
over	-2555
used	-2556
▁dry	-2557
▁sor	-2558
▁wit	-2559
aming	-2560
essed	-2561
lings	-2562
▁able	-2563
▁cree	-2564
▁foes	-2565
▁sank	-2566
▁shot	-2567
▁Under	-2568
▁brink	-2569
▁horns	-2570
▁level	-2571
▁minut	-2572
▁mists	-2573
▁sense	-2574
▁tremb	-2575
▁worth	-2576
▁Bombad	-2577
▁crying	-2578
▁deeper	-2579
▁driven	-2580
▁prison	-2581
▁showed	-2582
▁spears	-2583
▁threat	-2584
▁twenty	-2585
▁Buckland	-2586
▁horsemen	-2587
▁desperate	-2588
▁different	-2589
▁southward	-2590
▁Brandybuck	-2591
▁remembered	-2592
vo	-2593
dor	-2594
ros	-2595
body	-2596
irty	-2597
doras	-2598
▁Bill	-2599
▁Good	-2600
▁fine	-2601
▁limb	-2602
▁meal	-2603
▁pace	-2604
▁rope	-2605
▁sick	-2606
▁vain	-2607
▁woke	-2608
lessly	-2609
ushing	-2610
▁borne	-2611
▁burst	-2612
▁clean	-2613
▁enter	-2614
▁guide	-2615
▁knife	-2616
▁lords	-2617
▁rider	-2618
▁ridge	-2619
▁smell	-2620
▁space	-2621
▁advent	-2622
▁arrows	-2623
▁guards	-2624
▁hither	-2625
▁waited	-2626
▁hideous	-2627
▁keeping	-2628
▁staring	-2629
▁Celeborn	-2630
▁tomorrow	-2631
▁Mithrandir	-2632
),	-2633
Go	-2634
ai	-2635
aks	-2636
eri	-2637
hil	-2638
myn	-2639
Look	-2640
ased	-2641
ates	-2642
aths	-2643
look	-2644
that	-2645
▁Eor	-2646
▁fun	-2647
▁mal	-2648
▁occ	-2649
▁pie	-2650
Maybe	-2651
acher	-2652
chers	-2653
▁Hall	-2654
▁Very	-2655
▁clot	-2656
ceived	-2657
▁force	-2658
▁hoped	-2659
▁langu	-2660
▁lives	-2661
▁uneas	-2662
outhern	-2663
▁Cotton	-2664
▁Edoras	-2665
▁winter	-2666
▁marched	-2667
▁strangers	-2668
On	-2669
by	-2670
rel	-2671
zen	-2672
▁ur	-2673
find	-2674
lord	-2675
oles	-2676
raft	-2677
seen	-2678
wine	-2679
▁col	-2680
▁six	-2681
▁wet	-2682
onder	-2683
▁Mist	-2684
▁conf	-2685
▁fift	-2686
▁gent	-2687
▁imag	-2688
▁mere	-2689
▁rule	-2690
▁Lothl	-2691
▁dared	-2692
▁outer	-2693
▁pools	-2694
▁rocks	-2695
▁threw	-2696
▁Behind	-2697
▁Bridge	-2698
▁finger	-2699
▁fought	-2700
▁orders	-2701
▁ridden	-2702
▁roused	-2703
▁smooth	-2704
▁stroke	-2705
▁weight	-2706
▁hearing	-2707
▁stooped	-2708
▁thunder	-2709
▁Bombadil	-2710
▁Ithilien	-2711
▁children	-2712
▁laughing	-2713
▁perilous	-2714
▁watching	-2715
▁certainly	-2716
▁questions	-2717
At	-2718
ds	-2719
far	-2720
lob	-2721
unt	-2722
aged	-2723
fold	-2724
long	-2725
noon	-2726
nown	-2727
▁enc	-2728
▁pat	-2729
▁pin	-2730
berry	-2731
ortal	-2732
rance	-2733
▁Emyn	-2734
▁Fire	-2735
▁Glor	-2736
▁Your	-2737
▁expl	-2738
▁task	-2739
arshes	-2740
findel	-2741
unning	-2742
▁These	-2743
▁feast	-2744
▁signs	-2745
▁steel	-2746
▁stuff	-2747
▁Gaffer	-2748
▁effort	-2749
▁hiding	-2750
▁supper	-2751
▁allowed	-2752
▁bearing	-2753
▁blowing	-2754
▁content	-2755
▁flowing	-2756
▁victory	-2757
▁whisper	-2758
▁prepared	-2759
▁wondering	-2760
▁Glorfindel	-2761
As	-2762
oc	-2763
sit	-2764
unk	-2765
aven	-2766
burg	-2767
empt	-2768
ener	-2769
helm	-2770
iath	-2771
ilth	-2772
▁aff	-2773
▁elf	-2774
▁hoo	-2775
▁wom	-2776
ardon	-2777
ement	-2778
erest	-2779
mered	-2780
▁bell	-2781
▁drum	-2782
▁inst	-2783
▁lamp	-2784
▁plan	-2785
▁rust	-2786
erhaps	-2787
▁Quick	-2788
▁awake	-2789
▁begun	-2790
▁carry	-2791
▁claim	-2792
▁desce	-2793
▁lines	-2794
▁tears	-2795
irthday	-2796
▁Shelob	-2797
▁horror	-2798
▁pardon	-2799
▁recall	-2800
▁sorrow	-2801
▁wolves	-2802
▁calling	-2803
▁holding	-2804
▁interest	-2805
▁stronger	-2806
▁afternoon	-2807
▁breakfast	-2808
▁following	-2809
▁important	-2810
Or	-2811
rog	-2812
▁ob	-2813
airs	-2814
aved	-2815
roth	-2816
vent	-2817
▁Bal	-2818
▁flo	-2819
ceive	-2820
lease	-2821
ledge	-2822
oming	-2823
ustom	-2824
▁Long	-2825
▁Pres	-2826
▁brow	-2827
inting	-2828
▁Green	-2829
▁arrow	-2830
▁aston	-2831
▁banks	-2832
▁build	-2833
▁court	-2834
▁cruel	-2835
▁drove	-2836
▁fresh	-2837
▁holes	-2838
▁hurry	-2839
▁looks	-2840
▁prove	-2841
▁skill	-2842
▁sorry	-2843
▁store	-2844
▁swept	-2845
▁Elvish	-2846
▁advice	-2847
▁fierce	-2848
▁glance	-2849
▁throat	-2850
▁Already	-2851
▁fortune	-2852
▁messeng	-2853
▁twisted	-2854
▁stumbled	-2855
▁Presently	-2856
irt	-2857
let	-2858
ony	-2859
umn	-2860
▁Os	-2861
▁om	-2862
ints	-2863
tled	-2864
▁Dun	-2865
▁Pel	-2866
▁Thr	-2867
▁Who	-2868
▁fal	-2869
ately	-2870
ollow	-2871
rahil	-2872
▁Muil	-2873
▁blaz	-2874
▁gear	-2875
▁helm	-2876
▁hoof	-2877
▁lady	-2878
▁shud	-2879
ilight	-2880
▁Osgil	-2881
▁fires	-2882
▁older	-2883
▁parts	-2884
▁serve	-2885
▁spare	-2886
▁spell	-2887
▁stick	-2888
▁stiff	-2889
▁token	-2890
▁wield	-2891
▁search	-2892
▁stairs	-2893
▁struck	-2894
▁Imrahil	-2895
▁Nothing	-2896
▁brother	-2897
▁concern	-2898
▁fashion	-2899
▁torches	-2900
▁touched	-2901
▁southern	-2902
▁Osgiliath	-2903
▁friendship	-2904
Oh	-2905
af	-2906
gar	-2907
gor	-2908
ils	-2909
ray	-2910
uct	-2911
▁kh	-2912
Alas	-2913
Very	-2914
When	-2915
ishn	-2916
orse	-2917
osts	-2918
▁Eld	-2919
▁Its	-2920
▁Red	-2921
▁ate	-2922
▁gap	-2923
agged	-2924
inous	-2925
▁Doom	-2926
▁Upon	-2927
▁afar	-2928
▁crow	-2929
▁fold	-2930
▁nigh	-2931
▁scar	-2932
▁sway	-2933
▁terr	-2934
ancing	-2935
▁added	-2936
▁catch	-2937
▁cheer	-2938
▁halls	-2939
▁hedge	-2940
▁rings	-2941
▁teeth	-2942
▁Amroth	-2943
▁abroad	-2944
▁belong	-2945
▁gazing	-2946
▁higher	-2947
▁reason	-2948
▁remind	-2949
▁waking	-2950
▁assault	-2951
▁clearly	-2952
▁message	-2953
▁wrapped	-2954
▁written	-2955
▁fighting	-2956
▁language	-2957
▁silently	-2958
▁treacher	-2959
▁wandered	-2960
▁wandering	-2961
bag	-2962
val	-2963
wor	-2964
▁Ne	-2965
adoc	-2966
ethe	-2967
iths	-2968
oney	-2969
room	-2970
▁May	-2971
▁Yes	-2972
▁cat	-2973
▁inc	-2974
▁mer	-2975
▁mon	-2976
▁pad	-2977
▁scr	-2978
▁var	-2979
ingly	-2980
ocked	-2981
trees	-2982
▁Ford	-2983
▁Have	-2984
▁Meri	-2985
▁fill	-2986
▁gall	-2987
▁pers	-2988
▁pipe	-2989
▁pock	-2990
▁thee	-2991
▁thus	-2992
aching	-2993
bearer	-2994
onethe	-2995
▁Every	-2996
▁greet	-2997
▁inter	-2998
▁press	-2999
▁shaft	-3000
▁Grishn	-3001
▁Maggot	-3002
▁endure	-3003
▁hissed	-3004
▁leader	-3005
▁malice	-3006
▁rested	-3007
▁wholly	-3008
▁dwarves	-3009
▁glimpse	-3010
▁mounted	-3011
▁Meriadoc	-3012
▁crawling	-3013
▁finished	-3014
▁hundreds	-3015
▁promised	-3016
onetheless	-3017
▁Brandywine	-3018
gu	-3019
lad	-3020
mar	-3021
▁Ab	-3022
gain	-3023
wall	-3024
▁gar	-3025
bbits	-3026
ildor	-3027
onely	-3028
▁race	-3029
▁spir	-3030
▁spot	-3031
▁wave	-3032
▁Power	-3033
▁Rings	-3034
▁Sting	-3035
▁bones	-3036
▁breat	-3037
▁craft	-3038
▁faith	-3039
▁flash	-3040
▁gener	-3041
▁judge	-3042
▁minds	-3043
▁score	-3044
▁spear	-3045
▁stout	-3046
▁Silver	-3047
▁attack	-3048
▁boughs	-3049
▁fading	-3050
▁gentle	-3051
▁number	-3052
▁sounds	-3053
▁talked	-3054
farthing	-3055
together	-3056
▁Bywater	-3057
▁Citadel	-3058
▁Steward	-3059
▁defence	-3060
▁endless	-3061
▁figures	-3062
▁knights	-3063
▁knowing	-3064
▁noticed	-3065
▁village	-3066
▁Captains	-3067
▁horrible	-3068
▁Goldberry	-3069
▁direction	-3070
ams	-3071
hir	-3072
ids	-3073
lit	-3074
sen	-3075
ades	-3076
▁Dol	-3077
▁den	-3078
▁dut	-3079
▁pay	-3080
antly	-3081
ghter	-3082
▁Isen	-3083
▁Just	-3084
▁Over	-3085
▁Wind	-3086
▁claw	-3087
▁dell	-3088
▁dull	-3089
▁ease	-3090
▁fate	-3091
▁fish	-3092
▁hate	-3093
▁nois	-3094
▁sons	-3095
▁wing	-3096
▁Misty	-3097
▁backs	-3098
▁hoofs	-3099
▁limbs	-3100
▁loose	-3101
▁rough	-3102
▁steed	-3103
▁throw	-3104
▁twink	-3105
▁waste	-3106
▁whist	-3107
aughter	-3108
▁Gildor	-3109
▁Gorbag	-3110
▁Prince	-3111
▁cloaks	-3112
▁dismay	-3113
▁flight	-3114
▁fright	-3115
▁nights	-3116
▁pocket	-3117
▁ruined	-3118
▁cunning	-3119
▁draught	-3120
▁matters	-3121
▁parting	-3122
▁peering	-3123
▁laughter	-3124
▁marching	-3125
▁twilight	-3126
▁creatures	-3127
▁knowledge	-3128
▁afterwards	-3129
Of	-3130
ho	-3131
hy	-3132
Did	-3133
ems	-3134
gre	-3135
ize	-3136
kin	-3137
obe	-3138
ras	-3139
wed	-3140
▁'_	-3141
▁Cr	-3142
▁gn	-3143
▁Ere	-3144
▁Orc	-3145
▁rim	-3146
▁und	-3147
aimed	-3148
asion	-3149
inses	-3150
raise	-3151
▁Eorl	-3152
▁High	-3153
▁Vale	-3154
▁Wise	-3155
▁bend	-3156
▁lose	-3157
▁rich	-3158
▁stud	-3159
▁suff	-3160
apping	-3161
erable	-3162
ivered	-3163
▁Barad	-3164
▁flick	-3165
▁flung	-3166
▁party	-3167
▁saved	-3168
▁tramp	-3169
▁worst	-3170
▁anyone	-3171
▁chosen	-3172
▁distur	-3173
▁ending	-3174
▁mortal	-3175
▁picked	-3176
▁proved	-3177
▁remote	-3178
▁sought	-3179
▁strode	-3180
▁vision	-3181
▁weapon	-3182
▁willow	-3183
athertop	-3184
▁hurried	-3185
▁leaning	-3186
▁pleased	-3187
▁seeking	-3188
▁torment	-3189
▁stooping	-3190
▁struggled	-3191
▁altogether	-3192
▁glimmering	-3193
).	-3194
Sm	-3195
cy	-3196
od	-3197
ual	-3198
▁ce	-3199
aded	-3200
foot	-3201
ires	-3202
rust	-3203
▁See	-3204
▁Two	-3205
▁act	-3206
▁dee	-3207
▁fru	-3208
▁gri	-3209
▁ned	-3210
▁par	-3211
▁uns	-3212
ailed	-3213
aling	-3214
ances	-3215
aying	-3216
unged	-3217
utumn	-3218
▁Days	-3219
▁Look	-3220
▁Snow	-3221
▁arri	-3222
▁ends	-3223
▁hilt	-3224
▁hind	-3225
▁lake	-3226
▁loss	-3227
▁quar	-3228
▁sold	-3229
▁wake	-3230
▁wasn	-3231
Indeed	-3232
inging	-3233
▁Kings	-3234
▁angry	-3235
▁beard	-3236
▁bread	-3237
▁harsh	-3238
▁laden	-3239
▁menor	-3240
▁sniff	-3241
▁Houses	-3242
▁appear	-3243
▁banner	-3244
▁colour	-3245
▁deeply	-3246
▁family	-3247
▁flower	-3248
▁gallop	-3249
▁nedain	-3250
▁peered	-3251
▁shores	-3252
▁summer	-3253
▁summon	-3254
▁wouldn	-3255
▁Western	-3256
▁courage	-3257
▁curtain	-3258
▁kindled	-3259
▁madness	-3260
▁meeting	-3261
▁pressed	-3262
▁promise	-3263
▁putting	-3264
▁sounded	-3265
▁Farewell	-3266
▁birthday	-3267
▁hurrying	-3268
▁pleasant	-3269
▁watchful	-3270
▁companion	-3271
▁Weathertop	-3272
▁understood	-3273
▁disappeared	-3274
fl	-3275
jo	-3276
ann	-3277
bye	-3278
irr	-3279
ths	-3280
ued	-3281
▁Pe	-3282
▁ri	-3283
▁ut	-3284
asty	-3285
dies	-3286
erer	-3287
eyed	-3288
form	-3289
hand	-3290
held	-3291
iant	-3292
omes	-3293
osed	-3294
rant	-3295
▁Her	-3296
▁Nob	-3297
▁Rau	-3298
▁arr	-3299
▁fog	-3300
▁lur	-3301
bbing	-3302
galad	-3303
imple	-3304
▁bold	-3305
▁bran	-3306
▁cave	-3307
▁cons	-3308
▁crou	-3309
▁pour	-3310
▁repe	-3311
▁shel	-3312
▁skir	-3313
irriff	-3314
▁anger	-3315
▁doesn	-3316
▁named	-3317
▁shudd	-3318
▁smile	-3319
idently	-3320
▁Mirror	-3321
▁Rauros	-3322
▁custom	-3323
▁dreams	-3324
▁easier	-3325
▁elvish	-3326
▁having	-3327
▁naught	-3328
▁passes	-3329
▁perils	-3330
▁seized	-3331
▁stayed	-3332
▁strike	-3333
▁Samwise	-3334
▁bending	-3335
▁decided	-3336
▁healing	-3337
▁meaning	-3338
▁pillars	-3339
▁plainly	-3340
▁plunged	-3341
▁removed	-3342
▁setting	-3343
▁thither	-3344
▁Hornburg	-3345
▁Shirriff	-3346
▁gleaming	-3347
▁revealed	-3348
▁amazement	-3349
▁journeyed	-3350
bly	-3351
ril	-3352
ser	-3353
▁je	-3354
cing	-3355
dles	-3356
erny	-3357
urin	-3358
▁Nim	-3359
▁cor	-3360
▁cow	-3361
▁har	-3362
▁nod	-3363
▁row	-3364
▁vig	-3365
▁wan	-3366
apped	-3367
house	-3368
ilies	-3369
▁beer	-3370
▁cent	-3371
▁excl	-3372
▁fanc	-3373
▁lads	-3374
▁ling	-3375
▁mood	-3376
▁pick	-3377
▁pull	-3378
▁scre	-3379
though	-3380
▁Chief	-3381
▁Ferny	-3382
▁Maybe	-3383
▁drank	-3384
▁dying	-3385
▁glass	-3386
▁hasty	-3387
▁hesit	-3388
▁hosts	-3389
▁knelt	-3390
▁loved	-3391
▁overt	-3392
▁piled	-3393
▁shoot	-3394
▁spent	-3395
▁swung	-3396
▁tight	-3397
▁twice	-3398
Gandalf	-3399
▁Barrow	-3400
▁Beyond	-3401
▁Cirith	-3402
▁accord	-3403
▁barren	-3404
▁behold	-3405
▁cliffs	-3406
▁debate	-3407
▁joined	-3408
▁leaned	-3409
▁mounds	-3410
▁points	-3411
▁reluct	-3412
▁reward	-3413
▁sunset	-3414
▁unseen	-3415
▁Entwash	-3416
▁finding	-3417
▁hunting	-3418
▁kindred	-3419
▁leaping	-3420
▁pierced	-3421
▁pointed	-3422
▁Darkness	-3423
▁creeping	-3424
▁treasure	-3425
act	-3426
ags	-3427
off	-3428
und	-3429
▁De	-3430
▁id	-3431
Bagg	-3432
Your	-3433
gged	-3434
vern	-3435
what	-3436
▁Are	-3437
▁Big	-3438
▁bay	-3439
▁emb	-3440
▁loo	-3441
▁odd	-3442
▁urg	-3443
arled	-3444
avens	-3445
chief	-3446
ennor	-3447
kered	-3448
umped	-3449
▁bree	-3450
▁deed	-3451
▁firm	-3452
▁prov	-3453
▁rear	-3454
▁rise	-3455
▁sigh	-3456
▁skin	-3457
▁vale	-3458
▁warn	-3459
▁weep	-3460
▁wine	-3461
▁worn	-3462
anting	-3463
bbling	-3464
▁Guard	-3465
▁Paths	-3466
▁dimly	-3467
▁eaten	-3468
▁filth	-3469
▁marks	-3470
▁means	-3471
▁overc	-3472
▁scent	-3473
▁ships	-3474
▁upper	-3475
▁whisp	-3476
▁yours	-3477
▁Wizard	-3478
▁carved	-3479
▁events	-3480
▁kindly	-3481
▁manner	-3482
▁notice	-3483
▁openly	-3484
▁winged	-3485
▁anxious	-3486
▁cracked	-3487
▁ordered	-3488
▁pursuit	-3489
▁quicker	-3490
▁shadowy	-3491
▁tongues	-3492
▁Pelennor	-3493
▁discover	-3494
▁shouting	-3495
▁trumpets	-3496
▁lightning	-3497
▁nightfall	-3498
▁ourselves	-3499
▁discovered	-3500
Ho	-3501
co	-3502
urg	-3503
wra	-3504
ains	-3505
ench	-3506
gate	-3507
medi	-3508
outs	-3509
▁Dim	-3510
▁Mar	-3511
▁War	-3512
▁ash	-3513
▁bew	-3514
▁bol	-3515
▁bra	-3516
▁cou	-3517
▁cro	-3518
▁exc	-3519
▁ide	-3520
▁kin	-3521
▁mag	-3522
▁sta	-3523
▁unb	-3524
▁unh	-3525
erved	-3526
ience	-3527
▁Amon	-3528
▁Dike	-3529
▁Most	-3530
▁dust	-3531
▁frag	-3532
▁glow	-3533
▁hewn	-3534
▁rank	-3535
▁root	-3536
▁runs	-3537
▁shan	-3538
▁trap	-3539
▁vent	-3540
erning	-3541
gollum	-3542
pected	-3543
▁Durin	-3544
▁Harad	-3545
▁Night	-3546
▁cause	-3547
▁chall	-3548
▁delay	-3549
▁drift	-3550
▁dwind	-3551
▁eaves	-3552
▁frown	-3553
▁peaks	-3554
▁withd	-3555
▁works	-3556
ishment	-3557
▁Farmer	-3558
▁Gorgor	-3559
▁Spring	-3560
▁flames	-3561
▁island	-3562
▁lonely	-3563
▁minute	-3564
▁mostly	-3565
▁parted	-3566
▁please	-3567
▁proper	-3568
▁slaves	-3569
▁useful	-3570
▁Rangers	-3571
▁clothes	-3572
▁faintly	-3573
▁lantern	-3574
▁mention	-3575
▁mistake	-3576
▁shallow	-3577
▁slender	-3578
▁someone	-3579
▁valiant	-3580
▁daylight	-3581
▁murmured	-3582
▁withered	-3583
▁clutching	-3584
▁glittered	-3585
▁scattered	-3586
ph	-3587
eks	-3588
els	-3589
str	-3590
uss	-3591
▁Re	-3592
▁gh	-3593
▁ph	-3594
▁wo	-3595
Have	-3596
adan	-3597
ague	-3598
cted	-3599
hood	-3600
llen	-3601
lode	-3602
omin	-3603
rose	-3604
▁Any	-3605
▁Did	-3606
▁Lug	-3607
▁cup	-3608
▁ham	-3609
▁rav	-3610
▁unm	-3611
amped	-3612
attle	-3613
ister	-3614
stone	-3615
▁Ever	-3616
▁More	-3617
▁army	-3618
▁cand	-3619
▁caut	-3620
▁coll	-3621
▁flic	-3622
▁hiss	-3623
▁lips	-3624
▁mast	-3625
▁turf	-3626
▁yawn	-3627
ashing	-3628
harrow	-3629
ishing	-3630
▁Again	-3631
▁Elder	-3632
▁Water	-3633
▁apart	-3634
▁blast	-3635
▁caves	-3636
▁dozen	-3637
▁fifty	-3638
▁griev	-3639
▁smote	-3640
▁thank	-3641
▁utter	-3642
▁Warden	-3643
▁autumn	-3644
▁beheld	-3645
▁bodies	-3646
▁couldn	-3647
▁eating	-3648
▁healed	-3649
▁nearby	-3650
▁plains	-3651
▁scramb	-3652
▁shrill	-3653
▁thread	-3654
▁thrown	-3655
▁attempt	-3656
▁careful	-3657
▁clearer	-3658
▁closely	-3659
▁destroy	-3660
▁flashed	-3661
▁leather	-3662
▁ominous	-3663
▁servant	-3664
▁steeply	-3665
▁believed	-3666
▁crossing	-3667
▁departed	-3668
▁occasion	-3669
▁reported	-3670
▁shivered	-3671
▁flickered	-3672
▁moonlight	-3673
▁otherwise	-3674
▁returning	-3675
▁searching	-3676
▁somewhere	-3677
▁surprised	-3678
▁Silverlode	-3679
▁concerning	-3680
Sh	-3681
ha	-3682
tr	-3683
zz	-3684
Are	-3685
Can	-3686
One	-3687
ads	-3688
fer	-3689
▁Ep	-3690
▁rz	-3691
alth	-3692
hras	-3693
ngol	-3694
oomb	-3695
orns	-3696
rald	-3697
reed	-3698
ruin	-3699
step	-3700
▁Fat	-3701
▁ath	-3702
▁avo	-3703
▁foe	-3704
▁mot	-3705
▁thy	-3706
▁unw	-3707
These	-3708
eting	-3709
▁Away	-3710
▁Tell	-3711
▁bade	-3712
▁bite	-3713
▁bund	-3714
▁duty	-3715
▁lain	-3716
▁ones	-3717
▁ripp	-3718
▁rush	-3719
▁weak	-3720
▁whee	-3721
▁whip	-3722
▁wret	-3723
athorn	-3724
leased	-3725
looked	-3726
shadow	-3727
▁Ephel	-3728
▁Never	-3729
▁Ungol	-3730
▁chose	-3731
▁fancy	-3732
▁folly	-3733
▁fruit	-3734
▁leapt	-3735
▁nasty	-3736
▁neigh	-3737
▁paces	-3738
▁visit	-3739
▁warri	-3740
▁yield	-3741
▁Galadh	-3742
▁bushes	-3743
▁comple	-3744
▁darker	-3745
▁larger	-3746
▁louder	-3747
▁menace	-3748
▁praise	-3749
▁quiver	-3750
▁regret	-3751
▁skirts	-3752
▁uneasy	-3753
▁wander	-3754
▁wildly	-3755
▁yonder	-3756
Farewell	-3757
aradhras	-3758
▁Through	-3759
▁crowned	-3760
▁desired	-3761
▁glinted	-3762
▁greatly	-3763
▁growled	-3764
▁marvell	-3765
▁remains	-3766
▁retreat	-3767
▁ringing	-3768
▁rolling	-3769
▁settled	-3770
▁sinking	-3771
▁upwards	-3772
▁Arathorn	-3773
▁Entwives	-3774
▁captains	-3775
▁entrance	-3776
▁greatest	-3777
▁messages	-3778
▁pointing	-3779
▁Dunharrow	-3780
▁Underhill	-3781
▁according	-3782
▁answering	-3783
▁trembling	-3784
▁glittering	-3785
'.	-3786
og	-3787
asp	-3788
cks	-3789
een	-3790
isf	-3791
tty	-3792
▁Un	-3793
Only	-3794
ands	-3795
bere	-3796
cess	-3797
eren	-3798
esse	-3799
ixed	-3800
ming	-3801
rest	-3802
rier	-3803
spic	-3804
ster	-3805
umes	-3806
vels	-3807
▁Him	-3808
▁add	-3809
▁art	-3810
▁bas	-3811
▁dep	-3812
▁fav	-3813
▁ins	-3814
▁sub	-3815
athed	-3816
ising	-3817
ouded	-3818
▁Alas	-3819
▁Book	-3820
▁Dale	-3821
▁Fear	-3822
▁Hold	-3823
▁Lugb	-3824
▁Mind	-3825
▁alas	-3826
▁beds	-3827
▁clam	-3828
▁comp	-3829
▁deem	-3830
▁gull	-3831
▁jewe	-3832
▁lawn	-3833
▁miss	-3834
▁sole	-3835
▁swir	-3836
▁wept	-3837
bereth	-3838
eeping	-3839
ithril	-3840
rowned	-3841
vering	-3842
▁Balin	-3843
▁Downs	-3844
▁Fatty	-3845
▁Gates	-3846
▁Those	-3847
▁arose	-3848
▁await	-3849
▁cloth	-3850
▁final	-3851
▁flood	-3852
▁packs	-3853
▁spite	-3854
▁stuck	-3855
▁asking	-3856
▁closer	-3857
▁contin	-3858
▁farmer	-3859
▁forced	-3860
▁gasped	-3861
▁herald	-3862
▁knives	-3863
▁permit	-3864
▁pretty	-3865
▁splend	-3866
▁suspic	-3867
▁wicked	-3868
▁Perhaps	-3869
▁blocked	-3870
▁citadel	-3871
▁driving	-3872
▁dropped	-3873
▁guarded	-3874
▁hanging	-3875
▁marshes	-3876
▁pursued	-3877
▁shaking	-3878
▁smaller	-3879
▁tumbled	-3880
mediately	-3881
▁Westfold	-3882
▁actually	-3883
▁friendly	-3884
▁mischief	-3885
▁stranger	-3886
▁Something	-3887
▁household	-3888
▁adventures	-3889
▁forgetting	-3890
▁frightened	-3891
▁Westernesse	-3892
!"	-3893
no	-3894
pr	-3895
ane	-3896
lid	-3897
pes	-3898
say	-3899
uge	-3900
▁'"	-3901
▁eh	-3902
▁fu	-3903
born	-3904
cial	-3905
east	-3906
ften	-3907
oors	-3908
rupt	-3909
stre	-3910
ullo	-3911
vill	-3912
west	-3913
▁Bre	-3914
▁Can	-3915
▁Hal	-3916
▁due	-3917
▁fat	-3918
▁fen	-3919
▁fet	-3920
▁job	-3921
▁lab	-3922
▁mir	-3923
▁pri	-3924
▁ril	-3925
▁ver	-3926
arest	-3927
armed	-3928
ddled	-3929
heart	-3930
idden	-3931
rodel	-3932
round	-3933
▁Folk	-3934
▁Last	-3935
▁None	-3936
▁Time	-3937
▁dart	-3938
▁desc	-3939
▁dogs	-3940
▁drop	-3941
▁form	-3942
▁join	-3943
▁mill	-3944
▁mour	-3945
▁nose	-3946
▁tast	-3947
▁trot	-3948
elling	-3949
erness	-3950
ingled	-3951
▁About	-3952
▁Horse	-3953
▁Mount	-3954
▁Sword	-3955
▁Third	-3956
▁While	-3957
▁cleft	-3958
▁drums	-3959
▁faire	-3960
▁fears	-3961
▁funny	-3962
▁glory	-3963
▁incre	-3964
▁inner	-3965
▁liked	-3966
▁match	-3967
▁offer	-3968
▁sadly	-3969
▁shown	-3970
▁women	-3971
immered	-3972
reshold	-3973
▁Almost	-3974
▁Golden	-3975
▁Ranger	-3976
▁buried	-3977
▁ceased	-3978
▁decide	-3979
▁gladly	-3980
▁happen	-3981
▁helped	-3982
▁killed	-3983
▁mouths	-3984
▁poison	-3985
▁shiver	-3986
▁tended	-3987
▁valour	-3988
▁warned	-3989
▁Deeping	-3990
▁blessed	-3991
▁hissing	-3992
▁legends	-3993
▁lightly	-3994
▁roaring	-3995
▁sharply	-3996
▁shields	-3997
▁stories	-3998
▁telling	-3999
▁various	-4000
▁warning	-4001
▁Nimrodel	-4002
▁breaking	-4003
▁bringing	-4004
▁perished	-4005
▁somewhat	-4006
▁striding	-4007
▁wanderer	-4008
▁Caradhras	-4009
▁attention	-4010
▁breathing	-4011
▁carefully	-4012
▁commanded	-4013
▁exclaimed	-4014
▁reckoning	-4015
▁springing	-4016
▁yourselves	-4017
▁comfortable	-4018
▁thoughtfully	-4019
?"	-4020
mn	-4021
ob	-4022
ys	-4023
▁-	-4024
!_'	-4025
ety	-4026
Some	-4027
Take	-4028
clad	-4029
elve	-4030
enge	-4031
lied	-4032
mbre	-4033
rise	-4034
sell	-4035
unch	-4036
wing	-4037
▁Ber	-4038
▁Bes	-4039
▁Cur	-4040
▁Row	-4041
▁Too	-4042
▁abs	-4043
▁lap	-4044
▁opp	-4045
▁sne	-4046
ature	-4047
iance	-4048
ified	-4049
place	-4050
ville	-4051
▁Once	-4052
▁Sack	-4053
▁ages	-4054
▁boom	-4055
▁chap	-4056
▁chas	-4057
▁decl	-4058
▁idea	-4059
▁issu	-4060
▁melt	-4061
▁risk	-4062
▁slip	-4063
▁thou	-4064
▁tide	-4065
▁toes	-4066
tended	-4067
▁Often	-4068
▁Tooks	-4069
▁alarm	-4070
▁drive	-4071
▁eight	-4072
▁knock	-4073
▁naked	-4074
▁needs	-4075
▁piece	-4076
▁reeds	-4077
▁shade	-4078
▁wants	-4079
▁worry	-4080
▁People	-4081
▁amazed	-4082
▁bundle	-4083
▁charge	-4084
▁cloven	-4085
▁direct	-4086
▁favour	-4087
▁lesser	-4088
▁missed	-4089
▁pieces	-4090
▁played	-4091
▁powers	-4092
▁ravine	-4093
▁reared	-4094
▁refres	-4095
▁refuge	-4096
▁renown	-4097
▁saddle	-4098
▁satisf	-4099
▁sister	-4100
▁spared	-4101
▁stands	-4102
▁steeds	-4103
▁sullen	-4104
▁surely	-4105
▁taller	-4106
▁twelve	-4107
▁washed	-4108
▁yester	-4109
▁Healing	-4110
▁beating	-4111
▁dragged	-4112
▁explain	-4113
▁fathers	-4114
▁foolish	-4115
▁heavily	-4116
▁huddled	-4117
▁prevent	-4118
▁rightly	-4119
▁shelter	-4120
Bagginses	-4121
▁anywhere	-4122
▁breathed	-4123
▁daughter	-4124
▁floating	-4125
▁grievous	-4126
▁landlord	-4127
▁piercing	-4128
▁repeated	-4129
▁summoned	-4130
▁thickets	-4131
▁Sackville	-4132
▁blackness	-4133
▁descended	-4134
▁evidently	-4135
▁happening	-4136
▁messenger	-4137
▁shuddered	-4138
▁threshold	-4139
▁northwards	-4140
▁wilderness	-4141
Nor	-4142
any	-4143
iel	-4144
iny	-4145
key	-4146
nds	-4147
▁hm	-4148
▁pu	-4149
arth	-4150
face	-4151
fire	-4152
iest	-4153
iman	-4154
ject	-4155
liph	-4156
ners	-4157
oint	-4158
omed	-4159
peak	-4160
rill	-4161
then	-4162
▁Bol	-4163
▁Had	-4164
▁hau	-4165
▁hum	-4166
▁hut	-4167
▁lod	-4168
▁spy	-4169
▁tru	-4170
Hullo	-4171
arkey	-4172
holes	-4173
roads	-4174
roken	-4175
udged	-4176
urely	-4177
ursed	-4178
uthor	-4179
while	-4180
▁Bane	-4181
▁Barl	-4182
▁Fair	-4183
▁Give	-4184
▁Such	-4185
▁Take	-4186
▁bagg	-4187
▁dale	-4188
▁fern	-4189
▁foam	-4190
▁gaze	-4191
▁idle	-4192
▁knee	-4193
▁play	-4194
▁seas	-4195
▁sped	-4196
▁sque	-4197
▁summ	-4198
▁sund	-4199
▁tail	-4200
▁torn	-4201
▁unex	-4202
▁wagg	-4203
▁week	-4204
isible	-4205
olluin	-4206
ressed	-4207
▁Field	-4208
▁First	-4209
▁Light	-4210
▁bould	-4211
▁brows	-4212
▁calls	-4213
▁edges	-4214
▁fully	-4215
▁grows	-4216
▁prote	-4217
▁range	-4218
▁rocky	-4219
▁shift	-4220
▁shine	-4221
▁spies	-4222
▁stage	-4223
▁troll	-4224
▁vague	-4225
riendly	-4226
▁Common	-4227
▁accept	-4228
▁barrow	-4229
▁beauty	-4230
▁breeze	-4231
▁carven	-4232
▁couple	-4233
▁echoed	-4234
▁facing	-4235
▁giving	-4236
▁league	-4237
▁loudly	-4238
▁murmur	-4239
▁overth	-4240
▁ridges	-4241
▁scarce	-4242
▁scouts	-4243
▁shaken	-4244
▁solemn	-4245
▁unable	-4246
liphaunt	-4247
▁Neither	-4248
▁Ringwra	-4249
▁baggage	-4250
▁howling	-4251
▁hunters	-4252
▁planted	-4253
▁shimmer	-4254
▁streams	-4255
▁usually	-4256
▁Barliman	-4257
▁Northern	-4258
▁carrying	-4259
▁clutched	-4260
▁complete	-4261
▁consider	-4262
▁counsell	-4263
▁counsels	-4264
▁fountain	-4265
▁imagined	-4266
▁prisoner	-4267
▁released	-4268
▁startled	-4269
▁watchers	-4270
▁Halflings	-4271
▁anxiously	-4272
▁companies	-4273
▁eastwards	-4274
▁miserable	-4275
▁muttering	-4276
▁strangely	-4277
▁therefore	-4278
▁wonderful	-4279
▁Mindolluin	-4280
▁approached	-4281
▁unfriendly	-4282
▁whispering	-4283
▁approaching	-4284
▁treacherous	-4285
..	-4286
El	-4287
HE	-4288
wr	-4289
See	-4290
alm	-4291
com	-4292
gon	-4293
het	-4294
ict	-4295
wen	-4296
▁Hu	-4297
▁da	-4298
arse	-4299
bury	-4300
chie	-4301
edge	-4302
ical	-4303
illy	-4304
lemb	-4305
ript	-4306
▁Day	-4307
▁Few	-4308
▁Gil	-4309
▁Our	-4310
▁Val	-4311
▁dam	-4312
▁din	-4313
▁div	-4314
▁exp	-4315
▁inh	-4316
▁mak	-4317
▁mud	-4318
▁rhy	-4319
▁tar	-4320
ables	-4321
aches	-4322
annon	-4323
gging	-4324
icken	-4325
iment	-4326
known	-4327
▁Dern	-4328
▁Hard	-4329
▁Make	-4330
▁asse	-4331
▁file	-4332
▁fond	-4333
▁furn	-4334
▁fury	-4335
▁gnaw	-4336
▁haze	-4337
▁inqu	-4338
▁lest	-4339
▁memb	-4340
▁post	-4341
▁slay	-4342
▁spur	-4343
▁test	-4344
▁tied	-4345
▁tomb	-4346
▁wars	-4347
angled	-4348
esseng	-4349
itable	-4350
lembas	-4351
lessar	-4352
tained	-4353
▁Arwen	-4354
▁Fords	-4355
▁Other	-4356
▁Quest	-4357
▁clust	-4358
▁conqu	-4359
▁fetch	-4360
▁glare	-4361
▁goods	-4362
▁makes	-4363
▁mourn	-4364
▁noble	-4365
▁plans	-4366
▁resol	-4367
▁shrie	-4368
▁stagg	-4369
▁torch	-4370
▁tread	-4371
▁troop	-4372
▁usual	-4373
Saruman	-4374
▁Battle	-4375
▁Bergil	-4376
▁Havens	-4377
▁barred	-4378
▁beaten	-4379
▁curled	-4380
▁dearly	-4381
▁defend	-4382
▁finish	-4383
▁grimly	-4384
▁hearth	-4385
▁inform	-4386
▁jumped	-4387
▁ladder	-4388
▁letter	-4389
▁locked	-4390
▁nobody	-4391
▁pulled	-4392
▁relief	-4393
▁remark	-4394
▁rivers	-4395
▁shaped	-4396
▁simple	-4397
▁sleepy	-4398
▁thirst	-4399
▁thirty	-4400
attering	-4401
▁Quickly	-4402
▁daresay	-4403
▁drowned	-4404
▁heights	-4405
▁minutes	-4406
▁offered	-4407
▁resting	-4408
▁secrets	-4409
▁smoking	-4410
▁special	-4411
▁sunrise	-4412
▁useless	-4413
▁visible	-4414
▁warrior	-4415
▁younger	-4416
▁Dernhelm	-4417
▁Elbereth	-4418
▁Halfling	-4419
▁Southron	-4420
▁trembled	-4421
▁wherever	-4422
▁countless	-4423
▁invisible	-4424
▁stumbling	-4425
▁thousands	-4426
▁twinkling	-4427
▁yesterday	-4428
▁interested	-4429
▁astonishment	-4430
sc	-4431
esh	-4432
hip	-4433
nac	-4434
nor	-4435
oft	-4436
opy	-4437
▁Gh	-4438
avil	-4439
eded	-4440
horn	-4441
iers	-4442
keep	-4443
rent	-4444
rogo	-4445
shot	-4446
work	-4447
▁Age	-4448
▁Ang	-4449
▁Cle	-4450
▁Tro	-4451
▁daz	-4452
▁dog	-4453
▁eld	-4454
▁hem	-4455
▁kis	-4456
▁por	-4457
▁pot	-4458
▁sus	-4459
acing	-4460
arded	-4461
athom	-4462
elled	-4463
green	-4464
ition	-4465
ittle	-4466
oreth	-4467
otted	-4468
ottle	-4469
shine	-4470
unted	-4471
usion	-4472
▁Door	-4473
▁Ride	-4474
▁bind	-4475
▁bone	-4476
▁bowl	-4477
▁coat	-4478
▁fiss	-4479
▁game	-4480
▁gems	-4481
▁meat	-4482
▁nine	-4483
▁orig	-4484
▁requ	-4485
▁tear	-4486
▁town	-4487
akened	-4488
erland	-4489
liness	-4490
nother	-4491
▁Cross	-4492
▁Drogo	-4493
▁Ferry	-4494
▁Lotho	-4495
▁Seven	-4496
▁allow	-4497
▁armed	-4498
▁awoke	-4499
▁blown	-4500
▁brave	-4501
▁dirty	-4502
▁event	-4503
▁glade	-4504
▁inhab	-4505
▁lamps	-4506
▁misty	-4507
▁notes	-4508
▁pavil	-4509
▁risen	-4510
▁share	-4511
▁slipp	-4512
▁stump	-4513
▁turns	-4514
▁waved	-4515
▁yards	-4516
Nothing	-4517
athered	-4518
▁Beside	-4519
▁Speech	-4520
▁agreed	-4521
▁author	-4522
▁befall	-4523
▁centre	-4524
▁demand	-4525
▁doings	-4526
▁glowed	-4527
▁hunted	-4528
▁jagged	-4529
▁lately	-4530
▁liking	-4531
▁marked	-4532
▁motion	-4533
▁pinnac	-4534
▁poured	-4535
▁seated	-4536
▁stench	-4537
▁summit	-4538
▁Dimrill	-4539
▁Elessar	-4540
▁Marshes	-4541
▁Messeng	-4542
▁affairs	-4543
▁beloved	-4544
▁blanket	-4545
▁candles	-4546
▁charged	-4547
▁cowered	-4548
▁cutting	-4549
▁groping	-4550
▁labours	-4551
▁lighter	-4552
▁looming	-4553
▁measure	-4554
▁pouring	-4555
▁riddles	-4556
▁rushing	-4557
▁sailing	-4558
▁shouldn	-4559
▁trumpet	-4560
▁wavered	-4561
▁whither	-4562
▁wounded	-4563
▁writing	-4564
▁accursed	-4565
▁dreaming	-4566
▁halfling	-4567
▁laboured	-4568
▁memories	-4569
▁passages	-4570
▁received	-4571
▁shrouded	-4572
▁stricken	-4573
▁troubles	-4574
▁Gorgoroth	-4575
▁adventure	-4576
▁backwards	-4577
▁challenge	-4578
▁delighted	-4579
▁disturbed	-4580
▁hesitated	-4581
▁scrambled	-4582
▁whistling	-4583
▁Wilderland	-4584
▁battlement	-4585
▁messengers	-4586
▁unexpected	-4587
▁information	-4588
',	-4589
IN	-4590
os	-4591
▁.	-4592
Sam	-4593
_,'	-4594
abl	-4595
gel	-4596
haz	-4597
ler	-4598
lia	-4599
sie	-4600
▁Tw	-4601
Will	-4602
adag	-4603
alen	-4604
ickh	-4605
ient	-4606
mane	-4607
oses	-4608
ours	-4609
rily	-4610
time	-4611
tles	-4612
tops	-4613
ular	-4614
▁Car	-4615
▁Sto	-4616
▁cap	-4617
▁det	-4618
▁net	-4619
▁rat	-4620
▁rev	-4621
▁rot	-4622
Frodo	-4623
Would	-4624
aving	-4625
barad	-4626
brand	-4627
iring	-4628
ision	-4629
lling	-4630
orted	-4631
rooms	-4632
▁Each	-4633
▁Fall	-4634
▁Pass	-4635
▁Thus	-4636
▁Turn	-4637
▁Wall	-4638
▁bark	-4639
▁bows	-4640
▁choo	-4641
▁deny	-4642
▁fors	-4643
▁lack	-4644
▁loft	-4645
▁maid	-4646
▁paid	-4647
▁peak	-4648
▁prof	-4649
▁prow	-4650
▁rend	-4651
▁resc	-4652
▁sore	-4653
▁swim	-4654
▁veil	-4655
▁virt	-4656
▁wary	-4657
asping	-4658
enched	-4659
hether	-4660
obelia	-4661
prints	-4662
▁Beren	-4663
▁Rosie	-4664
▁Would	-4665
▁agree	-4666
▁aloft	-4667
▁ashes	-4668
▁basin	-4669
▁blame	-4670
▁conce	-4671
▁domin	-4672
▁downs	-4673
▁eagle	-4674
▁flats	-4675
▁flesh	-4676
▁flows	-4677
▁fords	-4678
▁frost	-4679
▁gully	-4680
▁happy	-4681
▁hated	-4682
▁herbs	-4683
▁hurts	-4684
▁liken	-4685
▁onset	-4686
▁posts	-4687
▁ruins	-4688
▁shelf	-4689
▁takes	-4690
▁treas	-4691
▁uncom	-4692
▁weeks	-4693
▁wider	-4694
▁woman	-4695
Perhaps	-4696
adagast	-4697
hearted	-4698
▁Crickh	-4699
▁Follow	-4700
▁armies	-4701
▁assemb	-4702
▁butter	-4703
▁cavern	-4704
▁choked	-4705
▁during	-4706
▁easily	-4707
▁encour	-4708
▁gaffer	-4709
▁gloomy	-4710
▁hatred	-4711
▁hurled	-4712
▁jewels	-4713
▁manage	-4714
▁mantle	-4715
▁noises	-4716
▁origin	-4717
▁resist	-4718
▁sheath	-4719
▁spider	-4720
▁spirit	-4721
▁string	-4722
▁throne	-4723
▁unlike	-4724
▁urgent	-4725
▁veiled	-4726
▁Another	-4727
▁Sharkey	-4728
▁Thengel	-4729
▁clamour	-4730
▁clasped	-4731
▁cleared	-4732
▁clothed	-4733
▁crushed	-4734
▁curious	-4735
▁discuss	-4736
▁echoing	-4737
▁fellows	-4738
▁glowing	-4739
▁gripped	-4740
▁hastily	-4741
▁letters	-4742
▁mingled	-4743
▁nearest	-4744
▁seeming	-4745
▁streets	-4746
▁trapped	-4747
▁unknown	-4748
▁utterly	-4749
▁wheeled	-4750
▁Snowmane	-4751
▁blankets	-4752
▁building	-4753
▁catching	-4754
▁crouched	-4755
▁drinking	-4756
▁faithful	-4757
▁forehead	-4758
▁horseman	-4759
▁midnight	-4760
▁movement	-4761
▁overhead	-4762
▁reckoned	-4763
▁searched	-4764
▁sleeping	-4765
▁wretched	-4766
▁Therefore	-4767
▁concerned	-4768
▁permitted	-4769
▁possessed	-4770
▁prisoners	-4771
▁refreshed	-4772
▁starlight	-4773
▁dismounted	-4774
▁marvellous	-4775
▁Crickhollow	-4776
▁nonetheless	-4777
▁threatening	-4778
fo	-4779
go	-4780
aps	-4781
esy	-4782
see	-4783
sue	-4784
uch	-4785
urd	-4786
▁nu	-4787
Many	-4788
andy	-4789
appy	-4790
benn	-4791
chen	-4792
door	-4793
iety	-4794
ifth	-4795
ises	-4796
nant	-4797
rodu	-4798
▁Del	-4799
▁THE	-4800
▁Ted	-4801
▁Tol	-4802
▁box	-4803
▁haz	-4804
▁hue	-4805
▁law	-4806
Never	-4807
Thank	-4808
cause	-4809
field	-4810
ighed	-4811
inary	-4812
oples	-4813
ousin	-4814
range	-4815
rison	-4816
stand	-4817
▁Part	-4818
▁Poor	-4819
▁anim	-4820
▁aven	-4821
▁brid	-4822
▁cook	-4823
▁croo	-4824
▁dazz	-4825
▁fade	-4826
▁flut	-4827
▁forb	-4828
▁herb	-4829
▁incl	-4830
▁jest	-4831
▁kins	-4832
▁note	-4833
▁oath	-4834
▁pile	-4835
▁rash	-4836
▁reek	-4837
▁rejo	-4838
▁size	-4839
▁slew	-4840
▁thud	-4841
▁twig	-4842
▁vict	-4843
Master	-4844
bennin	-4845
illing	-4846
itting	-4847
lebury	-4848
ointed	-4849
▁Imlad	-4850
▁Since	-4851
▁Years	-4852
▁bleak	-4853
▁bless	-4854
▁chasm	-4855
▁const	-4856
▁crash	-4857
▁false	-4858
▁gifts	-4859
▁glist	-4860
▁groan	-4861
▁helms	-4862
▁hewed	-4863
▁homes	-4864
▁leads	-4865
▁magic	-4866
▁money	-4867
▁pause	-4868
▁paved	-4869
▁snake	-4870
▁spark	-4871
▁tells	-4872
▁thien	-4873
▁using	-4874
▁vigil	-4875
▁waist	-4876
▁youth	-4877
▁Anborn	-4878
▁Anyway	-4879
▁Balrog	-4880
▁Bolger	-4881
▁Ioreth	-4882
▁Things	-4883
▁around	-4884
▁begged	-4885
▁bewild	-4886
▁blazed	-4887
▁brings	-4888
▁contri	-4889
▁cursed	-4890
▁defeat	-4891
▁desert	-4892
▁design	-4893
▁dreary	-4894
▁encirc	-4895
▁folded	-4896
▁forces	-4897
▁forebo	-4898
▁handle	-4899
▁hinder	-4900
▁marvel	-4901
▁merely	-4902
▁nodded	-4903
▁perish	-4904
▁person	-4905
▁pushed	-4906
▁riddle	-4907
▁rubbed	-4908
▁served	-4909
▁steady	-4910
▁swayed	-4911
▁trolls	-4912
▁worthy	-4913
▁yawned	-4914
▁Brandir	-4915
▁Lobelia	-4916
▁Looking	-4917
▁banners	-4918
▁chiefly	-4919
▁endured	-4920
▁flicker	-4921
▁gardens	-4922
▁glanced	-4923
▁gravely	-4924
▁greeted	-4925
▁herself	-4926
▁lifting	-4927
▁snarled	-4928
▁soldier	-4929
▁stabbed	-4930
▁surface	-4931
▁thicket	-4932
▁topmost	-4933
▁tunnels	-4934
▁wailing	-4935
▁wearing	-4936
▁Greenway	-4937
▁Lebennin	-4938
▁bubbling	-4939
▁dealings	-4940
▁dragging	-4941
▁frowning	-4942
▁likeness	-4943
▁polished	-4944
▁reminded	-4945
▁struggle	-4946
▁sunshine	-4947
▁uneasily	-4948
▁whistled	-4949
▁Galadhrim	-4950
▁Shirriffs	-4951
▁downwards	-4952
▁galloping	-4953
▁interrupt	-4954
▁murmuring	-4955
▁neighbour	-4956
▁perceived	-4957
▁presently	-4958
▁reluctant	-4959
▁treachery	-4960
▁Bucklebury	-4961
▁questioned	-4962
▁Ringwraiths	-4963
▁Southfarthing	-4964
Le	-4965
bu	-4966
mo	-4967
May	-4968
amm	-4969
bel	-4970
bre	-4971
cip	-4972
end	-4973
nel	-4974
ris	-4975
wai	-4976
▁14	-4977
▁Ah	-4978
▁_'	-4979
▁`_	-4980
▁di	-4981
Hail	-4982
Tell	-4983
bble	-4984
beam	-4985
cond	-4986
dled	-4987
down	-4988
fing	-4989
ials	-4990
ibly	-4991
iege	-4992
ills	-4993
ored	-4994
rawn	-4995
rken	-4996
teen	-4997
they	-4998
ules	-4999
weed	-5000
▁Ann	-5001
▁Bar	-5002
▁Gap	-5003
▁Hen	-5004
▁Med	-5005
▁Mic	-5006
▁Nay	-5007
▁ank	-5008
▁bag	-5009
▁bri	-5010
▁dig	-5011
▁dol	-5012
▁est	-5013
▁fed	-5014
▁glo	-5015
▁key	-5016
▁nin	-5017
▁obl	-5018
▁oft	-5019
▁ree	-5020
▁sav	-5021
▁sen	-5022
▁vap	-5023
▁wax	-5024
ading	-5025
aldor	-5026
bread	-5027
cloak	-5028
etter	-5029
glass	-5030
ident	-5031
inker	-5032
lords	-5033
quiet	-5034
quire	-5035
ummer	-5036
▁Four	-5037
▁Gwai	-5038
▁Hand	-5039
▁Khaz	-5040
▁Pony	-5041
▁Wake	-5042
▁Whit	-5043
▁aren	-5044
▁exce	-5045
▁farm	-5046
▁flew	-5047
▁flow	-5048
▁gang	-5049
▁gobl	-5050
▁gurg	-5051
▁moss	-5052
▁pans	-5053
▁pits	-5054
▁plod	-5055
▁puff	-5056
▁puzz	-5057
▁stif	-5058
▁sung	-5059
Though	-5060
allorn	-5061
arshal	-5062
friend	-5063
icking	-5064
keeper	-5065
ltered	-5066
stream	-5067
▁Lords	-5068
▁Mines	-5069
▁Stair	-5070
▁Young	-5071
▁achie	-5072
▁bloss	-5073
▁carri	-5074
▁crawl	-5075
▁creep	-5076
▁crest	-5077
▁curse	-5078
▁daunt	-5079
▁devil	-5080
▁draws	-5081
▁fiery	-5082
▁forms	-5083
▁grate	-5084
▁holds	-5085
▁lucky	-5086
▁mount	-5087
▁overh	-5088
▁persu	-5089
▁reapp	-5090
▁shake	-5091
▁stray	-5092
▁study	-5093
▁teach	-5094
▁tents	-5095
▁tough	-5096
▁trial	-5097
▁woven	-5098
▁write	-5099
ammered	-5100
ossible	-5101
ression	-5102
▁Andros	-5103
▁Michel	-5104
▁beggar	-5105
▁branch	-5106
▁darkly	-5107
▁delved	-5108
▁dragon	-5109
▁dwells	-5110
▁filthy	-5111
▁firmly	-5112
▁fortun	-5113
▁gaping	-5114
▁groped	-5115
▁hammer	-5116
▁hunger	-5117
▁kissed	-5118
▁murder	-5119
▁plenty	-5120
▁region	-5121
▁roared	-5122
▁rushed	-5123
▁settle	-5124
▁shafts	-5125
▁shrank	-5126
▁slower	-5127
▁street	-5128
▁thence	-5129
▁tossed	-5130
▁whined	-5131
ertainly	-5132
▁Beneath	-5133
▁Delving	-5134
▁Elfhelm	-5135
▁Gwaihir	-5136
▁Wizards	-5137
▁archway	-5138
▁arrived	-5139
▁barrier	-5140
▁begging	-5141
▁cloaked	-5142
▁closing	-5143
▁crashed	-5144
▁curling	-5145
▁delayed	-5146
▁fearing	-5147
▁floated	-5148
▁furlong	-5149
▁happier	-5150
▁lurking	-5151
▁raiment	-5152
▁refused	-5153
▁replied	-5154
▁sentine	-5155
▁sloping	-5156
▁smiling	-5157
▁strayed	-5158
▁summons	-5159
▁trusted	-5160
rkenbrand	-5161
▁Halbarad	-5162
▁Morannon	-5163
▁Radagast	-5164
▁assailed	-5165
▁curtains	-5166
▁deepened	-5167
▁dwindled	-5168
▁garments	-5169
▁hastened	-5170
▁intently	-5171
▁journeys	-5172
▁lowering	-5173
▁ordinary	-5174
▁perceive	-5175
▁realized	-5176
▁splendid	-5177
▁supposed	-5178
▁towering	-5179
▁unlooked	-5180
▁waybread	-5181
▁welcomed	-5182
▁Southrons	-5183
▁disappear	-5184
▁doubtless	-5185
▁dwellings	-5186
▁increased	-5187
▁sheltered	-5188
▁shivering	-5189
▁staggered	-5190
▁cautiously	-5191
▁impossible	-5192
▁motionless	-5193
▁overthrown	-5194
▁Brandybucks	-5195
▁Isengarders	-5196
▁immediately	-5197
);	-5198
-'	-5199
Re	-5200
sl	-5201
uf	-5202
Our	-5203
Say	-5204
aur	-5205
iol	-5206
nce	-5207
ngh	-5208
oes	-5209
▁av	-5210
▁ye	-5211
Dark	-5212
Just	-5213
Poor	-5214
Wake	-5215
aits	-5216
alty	-5217
anks	-5218
egar	-5219
ific	-5220
mark	-5221
mble	-5222
noun	-5223
ntil	-5224
ocks	-5225
oned	-5226
oted	-5227
rock	-5228
tree	-5229
unks	-5230
▁Eag	-5231
▁Ell	-5232
▁Har	-5233
▁Has	-5234
▁New	-5235
▁Tin	-5236
▁Was	-5237
▁Wat	-5238
▁aim	-5239
▁ale	-5240
▁arg	-5241
▁bee	-5242
▁dun	-5243
▁eng	-5244
▁kit	-5245
▁lat	-5246
▁leg	-5247
▁obs	-5248
▁rap	-5249
▁rin	-5250
▁tit	-5251
▁tum	-5252
▁ung	-5253
▁unp	-5254
▁wes	-5255
▁wid	-5256
▁win	-5257
▁wre	-5258
anges	-5259
annel	-5260
clock	-5261
iting	-5262
iving	-5263
kings	-5264
lcome	-5265
rayed	-5266
useld	-5267
ywind	-5268
▁Also	-5269
▁Five	-5270
▁Fred	-5271
▁Mabl	-5272
▁Tall	-5273
▁band	-5274
▁cart	-5275
▁disp	-5276
▁jump	-5277
▁lots	-5278
▁lust	-5279
▁port	-5280
▁prey	-5281
▁priv	-5282
▁ramp	-5283
▁rene	-5284
▁roar	-5285
▁sand	-5286
▁shed	-5287
▁sink	-5288
▁stab	-5289
▁toil	-5290
▁tone	-5291
▁weed	-5292
▁wits	-5293
▁wolf	-5294
Behold	-5295
aining	-5296
ambles	-5297
houses	-5298
nghold	-5299
ruinen	-5300
velled	-5301
▁Hedge	-5302
▁Sandy	-5303
▁Shall	-5304
▁Stars	-5305
▁Thain	-5306
▁aband	-5307
▁alike	-5308
▁avoid	-5309
▁bells	-5310
▁books	-5311
▁brand	-5312
▁chase	-5313
▁clamb	-5314
▁cords	-5315
▁deeps	-5316
▁drunk	-5317
▁faced	-5318
▁fault	-5319
▁flies	-5320
▁forty	-5321
▁fumes	-5322
▁greed	-5323
▁meads	-5324
▁oblig	-5325
▁price	-5326
▁relie	-5327
▁scrat	-5328
▁shock	-5329
▁swear	-5330
▁thief	-5331
Hobbits	-5332
olesome	-5333
ywindle	-5334
▁arched	-5335
▁blades	-5336
▁brooch	-5337
▁charac	-5338
▁conver	-5339
▁cousin	-5340
▁danced	-5341
▁dashed	-5342
▁depths	-5343
▁doomed	-5344
▁double	-5345
▁ghosts	-5346
▁handed	-5347
▁hoarse	-5348
▁hooded	-5349
▁hoping	-5350
▁issued	-5351
▁latest	-5352
▁longed	-5353
▁necess	-5354
▁pierce	-5355
▁pillar	-5356
▁polite	-5357
▁precip	-5358
▁scored	-5359
▁smould	-5360
▁sombre	-5361
▁trough	-5362
▁turret	-5363
▁virtue	-5364
▁wealth	-5365
▁yelled	-5366
▁Bruinen	-5367
▁Elladan	-5368
▁Kingdom	-5369
▁Mablung	-5370
▁Whether	-5371
▁bidding	-5372
▁breathe	-5373
▁council	-5374
▁counted	-5375
▁cursing	-5376
▁devices	-5377
▁disturb	-5378
▁divided	-5379
▁doorway	-5380
▁eagerly	-5381
▁failing	-5382
▁fitting	-5383
▁forgive	-5384
▁glitter	-5385
▁heralds	-5386
▁imagine	-5387
▁instead	-5388
▁outward	-5389
▁peoples	-5390
▁possess	-5391
▁proudly	-5392
▁regions	-5393
▁ruinous	-5394
▁snapped	-5395
▁sniffed	-5396
▁spirits	-5397
▁valleys	-5398
▁venture	-5399
▁wearily	-5400
▁weeping	-5401
▁Fredegar	-5402
▁Meduseld	-5403
▁Sandyman	-5404
▁advanced	-5405
▁although	-5406
▁approach	-5407
▁becoming	-5408
▁brooding	-5409
▁causeway	-5410
▁cheerful	-5411
▁courtesy	-5412
▁creaking	-5413
▁darkling	-5414
▁doubtful	-5415
▁families	-5416
▁fortress	-5417
▁hopeless	-5418
▁kindness	-5419
▁presents	-5420
▁purposes	-5421
▁recalled	-5422
▁restless	-5423
▁starting	-5424
▁suffered	-5425
▁woodland	-5426
▁Messenger	-5427
▁Quickbeam	-5428
▁authority	-5429
▁continued	-5430
▁fragrance	-5431
▁glimmered	-5432
▁oliphaunt	-5433
▁preserved	-5434
▁remaining	-5435
▁seemingly	-5436
▁streaming	-5437
▁unwilling	-5438
▁wanderers	-5439
▁astonished	-5440
▁doubtfully	-5441
▁flickering	-5442
▁footprints	-5443
▁stronghold	-5444
▁Withywindle	-5445
",	-5446
Hm	-5447
Mr	-5448
Ne	-5449
_!	-5450
Get	-5451
Put	-5452
arg	-5453
bor	-5454
ean	-5455
elp	-5456
ley	-5457
tis	-5458
tra	-5459
ury	-5460
vil	-5461
was	-5462
yet	-5463
▁19	-5464
Down	-5465
Hoom	-5466
Long	-5467
Wait	-5468
coat	-5469
grey	-5470
hest	-5471
ieft	-5472
kind	-5473
lets	-5474
liar	-5475
lier	-5476
ptem	-5477
rels	-5478
star	-5479
tend	-5480
umph	-5481
urdy	-5482
with	-5483
▁Bob	-5484
▁Get	-5485
▁Hey	-5486
▁Hir	-5487
▁Ing	-5488
▁Uru	-5489
▁dad	-5490
▁ele	-5491
▁fan	-5492
▁fis	-5493
▁hab	-5494
▁lip	-5495
▁med	-5496
▁nay	-5497
▁obv	-5498
▁ram	-5499
▁rob	-5500
▁tem	-5501
acket	-5502
after	-5503
alant	-5504
asked	-5505
cross	-5506
dling	-5507
ellow	-5508
ested	-5509
imney	-5510
imply	-5511
ities	-5512
march	-5513
rohir	-5514
steps	-5515
tling	-5516
ulous	-5517
▁Cair	-5518
▁Drag	-5519
▁Face	-5520
▁Holl	-5521
▁Keep	-5522
▁Name	-5523
▁Nice	-5524
▁Orod	-5525
▁Rock	-5526
▁Sarn	-5527
▁Wait	-5528
▁airs	-5529
▁arts	-5530
▁axes	-5531
▁blur	-5532
▁bolt	-5533
▁deli	-5534
▁dike	-5535
▁ench	-5536
▁flet	-5537
▁fulf	-5538
▁grin	-5539
▁hang	-5540
▁hasn	-5541
▁heat	-5542
▁joke	-5543
▁mass	-5544
▁peep	-5545
▁pine	-5546
▁rent	-5547
▁rows	-5548
▁sees	-5549
▁shar	-5550
▁spat	-5551
▁sugg	-5552
▁tent	-5553
▁tiny	-5554
▁tops	-5555
▁tren	-5556
▁unch	-5557
▁uses	-5558
▁viel	-5559
▁viol	-5560
▁wayl	-5561
▁webs	-5562
▁whit	-5563
athing	-5564
footed	-5565
itants	-5566
master	-5567
riders	-5568
▁Above	-5569
▁Death	-5570
▁Sleep	-5571
▁boots	-5572
▁cared	-5573
▁corre	-5574
▁cryst	-5575
▁dried	-5576
▁fifth	-5577
▁fixed	-5578
▁footh	-5579
▁hopes	-5580
▁impat	-5581
▁kinds	-5582
▁lofty	-5583
▁metal	-5584
▁month	-5585
▁nadan	-5586
▁omund	-5587
▁overw	-5588
▁phial	-5589
▁porch	-5590
▁restr	-5591
▁rhyme	-5592
▁rouse	-5593
▁runes	-5594
▁siege	-5595
▁spraw	-5596
▁squir	-5597
▁taste	-5598
▁twist	-5599
▁wains	-5600
▁wrist	-5601
fashion	-5602
hobbits	-5603
ptember	-5604
stained	-5605
▁Huorns	-5606
▁Little	-5607
▁Marish	-5608
▁Morgai	-5609
▁advise	-5610
▁assail	-5611
▁astray	-5612
▁awaits	-5613
▁bigger	-5614
▁bowing	-5615
▁chairs	-5616
▁chieft	-5617
▁fairly	-5618
▁forged	-5619
▁former	-5620
▁health	-5621
▁kingly	-5622
▁lasted	-5623
▁latter	-5624
▁linger	-5625
▁lowest	-5626
▁muster	-5627
▁packed	-5628
▁partly	-5629
▁reveal	-5630
▁rustle	-5631
▁shriek	-5632
▁smokes	-5633
▁sturdy	-5634
▁thinks	-5635
▁travel	-5636
▁waggon	-5637
▁waning	-5638
▁warily	-5639
▁wooded	-5640
▁worked	-5641
shadowed	-5642
▁Bagshot	-5643
▁Elrohir	-5644
▁Gamling	-5645
▁Redhorn	-5646
▁Turning	-5647
▁broader	-5648
▁carrion	-5649
▁channel	-5650
▁crooked	-5651
▁desires	-5652
▁devilry	-5653
▁esquire	-5654
▁fairest	-5655
▁feather	-5656
▁gnarled	-5657
▁heavier	-5658
▁hollows	-5659
▁hopeful	-5660
▁kingdom	-5661
▁kitchen	-5662
▁landing	-5663
▁mallorn	-5664
▁managed	-5665
▁masters	-5666
▁mithril	-5667
▁nowhere	-5668
▁numbers	-5669
▁obliged	-5670
▁private	-5671
▁receive	-5672
▁sighing	-5673
▁stature	-5674
▁sternly	-5675
▁thicker	-5676
▁triumph	-5677
▁Bregalad	-5678
▁Imladris	-5679
▁Together	-5680
▁accounts	-5681
▁befallen	-5682
▁betrayed	-5683
▁brighter	-5684
▁changing	-5685
▁choosing	-5686
▁clinging	-5687
▁dazzling	-5688
▁fastness	-5689
▁fiercely	-5690
▁fleeting	-5691
▁glancing	-5692
▁glinting	-5693
▁overcome	-5694
▁pavilion	-5695
▁rippling	-5696
▁scarcely	-5697
▁secretly	-5698
▁sniffing	-5699
▁surround	-5700
▁sweeping	-5701
▁September	-5702
▁confusion	-5703
▁forgetful	-5704
▁judgement	-5705
▁movements	-5706
▁precipice	-5707
▁shapeless	-5708
▁stammered	-5709
▁terrified	-5710
▁uncovered	-5711
▁vigilance	-5712
▁westering	-5713
▁Erkenbrand	-5714
▁commanding	-5715
▁everywhere	-5716
▁protection	-5717
▁shimmering	-5718
▁Nonetheless	-5719
▁inhabitants	-5720
".	-5721
?_	-5722
An	-5723
Qu	-5724
cu	-5725
ui	-5726
▁2	-5727
Ent	-5728
_.'	-5729
bir	-5730
cal	-5731
icy	-5732
ogn	-5733
rer	-5734
uil	-5735
ute	-5736
▁Dw	-5737
▁Sn	-5738
▁ir	-5739
Doom	-5740
Even	-5741
Thus	-5742
ails	-5743
anor	-5744
apet	-5745
atur	-5746
away	-5747
back	-5748
call	-5749
etry	-5750
fect	-5751
gest	-5752
isit	-5753
loom	-5754
lore	-5755
lorn	-5756
onds	-5757
pres	-5758
sult	-5759
ueen	-5760
wake	-5761
▁Mrs	-5762
▁abo	-5763
▁ain	-5764
▁amb	-5765
▁beh	-5766
▁bul	-5767
▁dew	-5768
▁inj	-5769
▁jer	-5770
▁log	-5771
▁mat	-5772
▁obe	-5773
▁pan	-5774
▁pen	-5775
▁pip	-5776
▁saf	-5777
▁web	-5778
Which	-5779
antom	-5780
aping	-5781
aters	-5782
downs	-5783
eding	-5784
eness	-5785
falls	-5786
icing	-5787
ifter	-5788
ingle	-5789
inked	-5790
nings	-5791
oniel	-5792
orter	-5793
ppled	-5794
ribly	-5795
right	-5796
ssing	-5797
teous	-5798
umber	-5799
uries	-5800
using	-5801
white	-5802
xcept	-5803
▁Arod	-5804
▁Back	-5805
▁Boff	-5806
▁Boss	-5807
▁Burg	-5808
▁Deal	-5809
▁Lock	-5810
▁Loss	-5811
▁Much	-5812
▁Must	-5813
▁Rose	-5814
▁Were	-5815
▁beac	-5816
▁dais	-5817
▁drow	-5818
▁gets	-5819
▁gulf	-5820
▁harp	-5821
▁lugg	-5822
▁meas	-5823
▁ours	-5824
▁pecu	-5825
▁pond	-5826
▁rags	-5827
▁rail	-5828
▁rays	-5829
▁sour	-5830
▁sunk	-5831
▁surv	-5832
▁swan	-5833
▁tune	-5834
▁wash	-5835
Gollum	-5836
arnach	-5837
coming	-5838
haired	-5839
iently	-5840
lingas	-5841
oubled	-5842
rodden	-5843
voices	-5844
▁Bring	-5845
▁Galen	-5846
▁Hills	-5847
▁Leave	-5848
▁Mayor	-5849
▁Parth	-5850
▁Party	-5851
▁Proud	-5852
▁Queen	-5853
▁Swift	-5854
▁Until	-5855
▁amiss	-5856
▁apple	-5857
▁aught	-5858
▁avail	-5859
▁beams	-5860
▁belly	-5861
▁brick	-5862
▁coney	-5863
▁crowd	-5864
▁cured	-5865
▁dimin	-5866
▁fleet	-5867
▁fools	-5868
▁fours	-5869
▁girth	-5870
▁globe	-5871
▁grand	-5872
▁grasp	-5873
▁heirs	-5874
▁ledge	-5875
▁lunch	-5876
▁mixed	-5877
▁pride	-5878
▁rides	-5879
▁shame	-5880
▁sheds	-5881
▁spend	-5882
▁stalk	-5883
▁stole	-5884
▁terms	-5885
▁trace	-5886
▁winds	-5887
▁wreck	-5888
Because	-5889
Neither	-5890
Strider	-5891
Welcome	-5892
looking	-5893
onsense	-5894
owering	-5895
▁Eagles	-5896
▁Easter	-5897
▁Fields	-5898
▁Hollin	-5899
▁Khazad	-5900
▁Towers	-5901
▁Valley	-5902
▁Willow	-5903
▁Winter	-5904
▁absurd	-5905
▁affair	-5906
▁animal	-5907
▁begins	-5908
▁bottle	-5909
▁bowmen	-5910
▁echoes	-5911
▁faster	-5912
▁growth	-5913
▁hasten	-5914
▁hauled	-5915
▁heeded	-5916
▁intent	-5917
▁mainly	-5918
▁melted	-5919
▁months	-5920
▁notion	-5921
▁oldest	-5922
▁paddle	-5923
▁prefer	-5924
▁recogn	-5925
▁refuse	-5926
▁rendil	-5927
▁senses	-5928
▁signal	-5929
▁sloped	-5930
▁stowed	-5931
▁strove	-5932
▁suffer	-5933
▁sunlit	-5934
▁vanish	-5935
▁vigour	-5936
▁waving	-5937
▁wither	-5938
▁wooden	-5939
ushrooms	-5940
▁Against	-5941
▁Dunland	-5942
▁Marshal	-5943
▁Shadows	-5944
▁answers	-5945
▁arrayed	-5946
▁changes	-5947
▁chimney	-5948
▁collect	-5949
▁colours	-5950
▁contain	-5951
▁crowded	-5952
▁descend	-5953
▁fifteen	-5954
▁foaming	-5955
▁forlorn	-5956
▁founded	-5957
▁grasses	-5958
▁heather	-5959
▁highway	-5960
▁killing	-5961
▁marches	-5962
▁members	-5963
▁parapet	-5964
▁phantom	-5965
▁puzzled	-5966
▁quailed	-5967
▁quarrel	-5968
▁sending	-5969
▁shorter	-5970
▁spilled	-5971
▁springs	-5972
▁sundown	-5973
▁swifter	-5974
▁tangled	-5975
▁thirsty	-5976
▁villain	-5977
▁wakened	-5978
ilthoniel	-5979
▁Elfstone	-5980
▁Nameless	-5981
▁Orodruin	-5982
▁accepted	-5983
▁boulders	-5984
▁brambles	-5985
▁brightly	-5986
▁clenched	-5987
▁declared	-5988
▁defeated	-5989
▁deserted	-5990
▁disaster	-5991
▁fissures	-5992
▁galloped	-5993
▁guessing	-5994
▁gurgling	-5995
▁inquisit	-5996
▁lingered	-5997
▁meantime	-5998
▁mounting	-5999
▁overcame	-6000
▁peculiar	-6001
▁presence	-6002
▁pressing	-6003
▁relieved	-6004
▁standard	-6005
▁steaming	-6006
▁stifling	-6007
▁streamed	-6008
▁swirling	-6009
▁wavering	-6010
▁wizardry	-6011
▁Bagginses	-6012
▁Eorlingas	-6013
▁assembled	-6014
▁clambered	-6015
▁comforted	-6016
▁conquered	-6017
▁courteous	-6018
▁crouching	-6019
▁elsewhere	-6020
▁expecting	-6021
▁favourite	-6022
▁meanwhile	-6023
▁overtaken	-6024
▁spreading	-6025
▁thrusting	-6026
▁trickling	-6027
▁uncomfort	-6028
▁westwards	-6029
▁willingly	-6030
▁Lossarnach	-6031
▁constantly	-6032
▁stretching	-6033
▁struggling	-6034
▁understanding	-6035
Bl	-6036
do	-6037
ky	-6038
oh	-6039
▁3	-6040
Far	-6041
Has	-6042
abb	-6043
aga	-6044
cto	-6045
ggy	-6046
gly	-6047
iar	-6048
inn	-6049
ips	-6050
nto	-6051
owl	-6052
rol	-6053
rue	-6054
sty	-6055
ude	-6056
yss	-6057
zed	-6058
▁Dr	-6059
▁Fl	-6060
▁Ge	-6061
▁OF	-6062
▁Ph	-6063
▁Sc	-6064
More	-6065
None	-6066
bear	-6067
bell	-6068
bott	-6069
chet	-6070
dale	-6071
enom	-6072
erve	-6073
etra	-6074
fell	-6075
hall	-6076
hoom	-6077
itor	-6078
iven	-6079
leaf	-6080
limb	-6081
lock	-6082
mbar	-6083
nest	-6084
nine	-6085
oman	-6086
ongs	-6087
ools	-6088
spir	-6089
ufel	-6090
uish	-6091
upid	-6092
yard	-6093
▁Dam	-6094
▁Run	-6095
▁Wor	-6096
▁ame	-6097
▁bir	-6098
▁bru	-6099
▁fra	-6100
▁icy	-6101
▁paw	-6102
Three	-6103
aging	-6104
aired	-6105
amble	-6106
ammas	-6107
ammer	-6108
arent	-6109
argir	-6110
beats	-6111
blade	-6112
build	-6113
child	-6114
coomb	-6115
count	-6116
grown	-6117
heard	-6118
helas	-6119
iliar	-6120
ively	-6121
oring	-6122
rings	-6123
scent	-6124
tower	-6125
urled	-6126
works	-6127
▁Anor	-6128
▁Dwim	-6129
▁Entm	-6130
▁Ered	-6131
▁Fort	-6132
▁Glad	-6133
▁Near	-6134
▁Octo	-6135
▁Rath	-6136
▁Uruk	-6137
▁anew	-6138
▁anno	-6139
▁bier	-6140
▁bill	-6141
▁boot	-6142
▁comr	-6143
▁cone	-6144
▁conv	-6145
▁cors	-6146
▁cure	-6147
▁dang	-6148
▁enjo	-6149
▁exam	-6150
▁fame	-6151
▁fuel	-6152
▁fume	-6153
▁gasp	-6154
▁grip	-6155
▁guid	-6156
▁hadn	-6157
▁hint	-6158
▁imme	-6159
▁inch	-6160
▁knot	-6161
▁lear	-6162
▁lock	-6163
▁mult	-6164
▁murd	-6165
▁nuis	-6166
▁ored	-6167
▁plot	-6168
▁pros	-6169
▁rage	-6170
▁rare	-6171
▁resp	-6172
▁scra	-6173
▁sits	-6174
▁slim	-6175
▁thie	-6176
▁tire	-6177
▁tore	-6178
▁ugly	-6179
▁ungu	-6180
▁yard	-6181
Surely	-6182
assing	-6183
ground	-6184
handed	-6185
idence	-6186
jected	-6187
member	-6188
palant	-6189
thrust	-6190
towers	-6191
umpkin	-6192
unched	-6193
▁Coomb	-6194
▁Curse	-6195
▁Erech	-6196
▁Gebir	-6197
▁March	-6198
▁Phial	-6199
▁Stock	-6200
▁Thing	-6201
▁Troll	-6202
▁Which	-6203
▁Woody	-6204
▁abide	-6205
▁abyss	-6206
▁blaze	-6207
▁blend	-6208
▁board	-6209
▁bowls	-6210
▁brist	-6211
▁chest	-6212
▁claws	-6213
▁clung	-6214
▁comer	-6215
▁compl	-6216
▁dance	-6217
▁dealt	-6218
▁decay	-6219
▁desol	-6220
▁drops	-6221
▁exact	-6222
▁foret	-6223
▁gives	-6224
▁heels	-6225
▁herds	-6226
▁hints	-6227
▁impen	-6228
▁knoll	-6229
▁lasts	-6230
▁lined	-6231
▁loves	-6232
▁mould	-6233
▁noted	-6234
▁plant	-6235
▁queen	-6236
▁ranks	-6237
▁refer	-6238
▁refle	-6239
▁robed	-6240
▁rooms	-6241
▁sends	-6242
▁silly	-6243
▁sixth	-6244
▁snuff	-6245
▁solid	-6246
▁squat	-6247
▁steam	-6248
▁swall	-6249
▁tempt	-6250
▁thorn	-6251
▁title	-6252
▁treat	-6253
▁truly	-6254
▁venom	-6255
▁waned	-6256
▁wells	-6257
Boromir	-6258
etrable	-6259
sidered	-6260
▁Across	-6261
▁Damrod	-6262
▁Dragon	-6263
▁Entish	-6264
▁Galdor	-6265
▁Inside	-6266
▁Pimple	-6267
▁Rammas	-6268
▁Smials	-6269
▁allies	-6270
▁armour	-6271
▁arrang	-6272
▁backed	-6273
▁beckon	-6274
▁betray	-6275
▁bidden	-6276
▁breach	-6277
▁canopy	-6278
▁daring	-6279
▁devour	-6280
▁fairer	-6281
▁fathom	-6282
▁fences	-6283
▁flamed	-6284
▁fourth	-6285
▁freely	-6286
▁frozen	-6287
▁grieve	-6288
▁guided	-6289
▁harder	-6290
▁jacket	-6291
▁lurked	-6292
▁meadow	-6293
▁newcom	-6294
▁poetry	-6295
▁ragged	-6296
▁rumble	-6297
▁safety	-6298
▁savage	-6299
▁scared	-6300
▁simply	-6301
▁stirru	-6302
▁strang	-6303
▁stupid	-6304
▁taters	-6305
▁taught	-6306
▁wounds	-6307
▁However	-6308
▁October	-6309
▁anxiety	-6310
▁becomes	-6311
▁belongs	-6312
▁blazing	-6313
▁bridges	-6314
▁burdens	-6315
▁camping	-6316
▁checked	-6317
▁clapped	-6318
▁crystal	-6319
▁dancing	-6320
▁dripped	-6321
▁frowned	-6322
▁grasped	-6323
▁grieved	-6324
▁happily	-6325
▁helping	-6326
▁highest	-6327
▁kinsman	-6328
▁knocked	-6329
▁lodging	-6330
▁lowered	-6331
▁luggage	-6332
▁missing	-6333
▁notched	-6334
▁patches	-6335
▁picking	-6336
▁recover	-6337
▁rending	-6338
▁respect	-6339
▁returns	-6340
▁ruffian	-6341
▁rumours	-6342
▁scarlet	-6343
▁serious	-6344
▁shapely	-6345
▁skilled	-6346
▁snorted	-6347
▁stained	-6348
▁stretch	-6349
▁strides	-6350
▁strokes	-6351
▁support	-6352
▁swaying	-6353
▁trailed	-6354
▁traitor	-6355
▁unhappy	-6356
▁visited	-6357
▁wanting	-6358
arrowdale	-6359
▁Haradrim	-6360
▁Pelargir	-6361
▁Stewards	-6362
▁Watchers	-6363
▁accident	-6364
▁belonged	-6365
▁blinding	-6366
▁chapters	-6367
▁commands	-6368
▁disquiet	-6369
▁everyone	-6370
▁forsaken	-6371
▁forwards	-6372
▁guidance	-6373
▁heirloom	-6374
▁hillside	-6375
▁hindered	-6376
▁intended	-6377
▁lanterns	-6378
▁mastered	-6379
▁menacing	-6380
▁nameless	-6381
▁peaceful	-6382
▁pursuers	-6383
▁reaching	-6384
▁rumbling	-6385
▁slanting	-6386
▁slipping	-6387
▁soldiers	-6388
▁somebody	-6389
▁stairway	-6390
▁stepping	-6391
▁unbidden	-6392
▁ventured	-6393
▁withdrew	-6394
▁worrying	-6395
▁Lockholes	-6396
▁accounted	-6397
▁appointed	-6398
▁blindfold	-6399
▁branching	-6400
▁clustered	-6401
▁concealed	-6402
▁darkening	-6403
▁endlessly	-6404
▁fingering	-6405
▁fireworks	-6406
▁mushrooms	-6407
▁obviously	-6408
▁vanishing	-6409
▁wholesome	-6410
▁woodlands	-6411
▁Gilthoniel	-6412
▁considered	-6413
▁difficulty	-6414
▁encircling	-6415
▁expression	-6416
▁fellowship	-6417
▁glistening	-6418
▁oliphaunts	-6419
▁reappeared	-6420
▁strengthen	-6421
▁Easterlings	-6422
▁reluctantly	-6423
▁remembering	-6424
▁Eastfarthing	-6425
▁impenetrable	-6426
▁watchfulness	-6427
NT	-6428
OR	-6429
Se	-6430
Un	-6431
br	-6432
ub	-6433
uv	-6434
.'_	-6435
ING	-6436
She	-6437
_?'	-6438
amd	-6439
bow	-6440
ert	-6441
hai	-6442
hew	-6443
ian	-6444
mor	-6445
ric	-6446
she	-6447
ums	-6448
▁10	-6449
▁Oh	-6450
▁Ru	-6451
▁ah	-6452
▁cu	-6453
▁od	-6454
Give	-6455
Half	-6456
Nice	-6457
Ride	-6458
Stay	-6459
With	-6460
aith	-6461
alas	-6462
asts	-6463
asur	-6464
bank	-6465
berk	-6466
cied	-6467
ders	-6468
elly	-6469
ency	-6470
give	-6471
gust	-6472
ilar	-6473
irds	-6474
kins	-6475
ldur	-6476
mere	-6477
orin	-6478
ouch	-6479
pent	-6480
pper	-6481
sels	-6482
song	-6483
uded	-6484
umer	-6485
urse	-6486
vest	-6487
worn	-6488
▁Bel	-6489
▁Hob	-6490
▁Put	-6491
▁Rid	-6492
▁Say	-6493
▁Ter	-6494
▁Wol	-6495
▁adm	-6496
▁boy	-6497
▁dot	-6498
▁gor	-6499
▁gut	-6500
▁ign	-6501
▁mil	-6502
▁nen	-6503
▁pop	-6504
▁pun	-6505
▁riv	-6506
▁rod	-6507
▁sap	-6508
▁tap	-6509
▁tea	-6510
▁ves	-6511
▁wed	-6512
▁woe	-6513
Shall	-6514
Speak	-6515
acken	-6516
ament	-6517
arily	-6518
asons	-6519
assty	-6520
ative	-6521
first	-6522
flood	-6523
foots	-6524
isten	-6525
liday	-6526
ourse	-6527
thest	-6528
ucked	-6529
ument	-6530
upied	-6531
ushes	-6532
venge	-6533
venth	-6534
venty	-6535
which	-6536
woods	-6537
▁Fool	-6538
▁Harl	-6539
▁Henn	-6540
▁Into	-6541
▁Like	-6542
▁Loud	-6543
▁Mean	-6544
▁Mund	-6545
▁Seas	-6546
▁Year	-6547
▁argu	-6548
▁ball	-6549
▁barn	-6550
▁bars	-6551
▁cock	-6552
▁cord	-6553
▁dens	-6554
▁depe	-6555
▁flee	-6556
▁glen	-6557
▁hing	-6558
▁hoom	-6559
▁leis	-6560
▁lids	-6561
▁mort	-6562
▁neat	-6563
▁outl	-6564
▁pure	-6565
▁reck	-6566
▁ripe	-6567
▁rout	-6568
▁scor	-6569
▁shru	-6570
▁slab	-6571
▁snar	-6572
▁succ	-6573
▁tend	-6574
▁unre	-6575
▁whim	-6576
▁whir	-6577
▁wife	-6578
▁wren	-6579
aggots	-6580
asting	-6581
bottom	-6582
father	-6583
gonath	-6584
helmed	-6585
legged	-6586
ounded	-6587
uments	-6588
▁Along	-6589
▁Arnor	-6590
▁Caras	-6591
▁Cleft	-6592
▁Could	-6593
▁Crack	-6594
▁Faint	-6595
▁Glamd	-6596
▁Right	-6597
▁Snaga	-6598
▁Trees	-6599
▁admit	-6600
▁ankle	-6601
▁bears	-6602
▁dales	-6603
▁dived	-6604
▁drows	-6605
▁dunge	-6606
▁enclo	-6607
▁evils	-6608
▁exile	-6609
▁folds	-6610
▁folks	-6611
▁habit	-6612
▁hence	-6613
▁honey	-6614
▁mirth	-6615
▁necks	-6616
▁numer	-6617
▁occur	-6618
▁paced	-6619
▁patch	-6620
▁produ	-6621
▁reply	-6622
▁rowan	-6623
▁rules	-6624
▁scorn	-6625
▁seize	-6626
▁sires	-6627
▁snows	-6628
▁sorts	-6629
▁sport	-6630
▁squee	-6631
▁stare	-6632
▁surve	-6633
▁tarry	-6634
▁tense	-6635
▁tresp	-6636
▁trunk	-6637
▁vales	-6638
▁veins	-6639
▁waves	-6640
▁weeds	-6641
▁wrink	-6642
▁wrote	-6643
Isildur	-6644
avering	-6645
dermark	-6646
mithril	-6647
ordered	-6648
uminous	-6649
ustomed	-6650
▁Always	-6651
▁Broken	-6652
▁Guldur	-6653
▁Hornbl	-6654
▁Ingold	-6655
▁Others	-6656
▁Second	-6657
▁Silmar	-6658
▁Stones	-6659
▁anyhow	-6660
▁biting	-6661
▁bounds	-6662
▁camped	-6663
▁chains	-6664
▁clever	-6665
▁colder	-6666
▁common	-6667
▁damage	-6668
▁dawned	-6669
▁device	-6670
▁dinner	-6671
▁doubts	-6672
▁duties	-6673
▁effect	-6674
▁eldest	-6675
▁escort	-6676
▁excell	-6677
▁falter	-6678
▁forbid	-6679
▁gained	-6680
▁glades	-6681
▁goblin	-6682
▁goings	-6683
▁govern	-6684
▁grassy	-6685
▁greedy	-6686
▁groves	-6687
▁healer	-6688
▁heaved	-6689
▁housed	-6690
▁kicked	-6691
▁laying	-6692
▁loosed	-6693
▁miller	-6694
▁multip	-6695
▁myster	-6696
▁pursue	-6697
▁record	-6698
▁repair	-6699
▁rescue	-6700
▁shades	-6701
▁spaces	-6702
▁stable	-6703
▁starry	-6704
▁staves	-6705
▁subtle	-6706
▁tables	-6707
▁thorns	-6708
▁tipped	-6709
▁tokens	-6710
▁tracks	-6711
▁tribut	-6712
▁tumult	-6713
▁turves	-6714
▁unbear	-6715
▁upward	-6716
▁vapour	-6717
▁warmer	-6718
▁warmth	-6719
▁waxing	-6720
▁whiles	-6721
fingered	-6722
▁Gladden	-6723
▁Harlond	-6724
▁Hasufel	-6725
▁Henneth	-6726
▁Lumpkin	-6727
▁Outside	-6728
▁Stinker	-6729
▁Strange	-6730
▁Swiftly	-6731
▁Without	-6732
▁angrily	-6733
▁archers	-6734
▁avoided	-6735
▁beacons	-6736
▁blacker	-6737
▁blinked	-6738
▁blossom	-6739
▁bottles	-6740
▁boulder	-6741
▁chances	-6742
▁courses	-6743
▁current	-6744
▁deceive	-6745
▁deliver	-6746
▁designs	-6747
▁disgust	-6748
▁dragons	-6749
▁drained	-6750
▁earlier	-6751
▁earnest	-6752
▁errands	-6753
▁fancied	-6754
▁finally	-6755
▁foreign	-6756
▁groaned	-6757
▁harness	-6758
▁hauberk	-6759
▁holiday	-6760
▁indoors	-6761
▁invited	-6762
▁letting	-6763
▁noisome	-6764
▁paddles	-6765
▁painful	-6766
▁painted	-6767
▁parched	-6768
▁perfect	-6769
▁plodded	-6770
▁rabbits	-6771
▁rampart	-6772
▁records	-6773
▁reminds	-6774
▁remnant	-6775
▁renewed	-6776
▁satisfy	-6777
▁slaying	-6778
▁stamped	-6779
▁stealth	-6780
▁steered	-6781
▁tearing	-6782
▁torrent	-6783
▁tossing	-6784
▁travels	-6785
▁trotted	-6786
▁trudged	-6787
▁unmoved	-6788
▁warrant	-6789
▁whistle	-6790
▁wielded	-6791
▁wonders	-6792
▁worried	-6793
▁yielded	-6794
▁Argonath	-6795
▁Galadhon	-6796
▁Mundburg	-6797
▁attacked	-6798
▁challeng	-6799
▁confused	-6800
▁darkened	-6801
▁deceived	-6802
▁decision	-6803
▁deserves	-6804
▁dominion	-6805
▁downhill	-6806
▁drifting	-6807
▁dripping	-6808
▁faltered	-6809
▁familiar	-6810
▁fearless	-6811
▁fireside	-6812
▁foremost	-6813
▁furthest	-6814
▁garrison	-6815
▁generous	-6816
▁glimpsed	-6817
▁heedless	-6818
▁immeasur	-6819
▁lessened	-6820
▁lordship	-6821
▁mouthful	-6822
▁nonsense	-6823
▁nuisance	-6824
▁numerous	-6825
▁occupied	-6826
▁original	-6827
▁overhung	-6828
▁patience	-6829
▁pinnacle	-6830
▁pleasure	-6831
▁powerful	-6832
▁sentinel	-6833
▁shooting	-6834
▁smelling	-6835
▁sneaking	-6836
▁stirring	-6837
▁swimming	-6838
▁tattered	-6839
▁throwing	-6840
▁treeless	-6841
▁unbroken	-6842
▁urgently	-6843
▁watchmen	-6844
▁withdraw	-6845
Mithrandir	-6846
▁Certainly	-6847
▁Glamdring	-6848
▁Greyflood	-6849
▁Sometimes	-6850
▁bristling	-6851
▁cheerless	-6852
▁contrived	-6853
▁dwindling	-6854
▁necessary	-6855
▁pinnacles	-6856
▁quivering	-6857
▁scratched	-6858
▁shimmered	-6859
▁splendour	-6860
▁trampling	-6861
▁treasures	-6862
▁weathered	-6863
▁withstand	-6864
▁Harrowdale	-6865
▁Riddermark	-6866
▁accustomed	-6867
▁breathless	-6868
▁mournfully	-6869
▁mysterious	-6870
▁overlooked	-6871
▁shuddering	-6872
▁Immediately	-6873
▁battlements	-6874
▁considering	-6875
▁generations	-6876
▁interrupted	-6877
▁smouldering	-6878
▁uncomfortable	-6879
';	-6880
):	-6881
Ab	-6882
Ch	-6883
Gh	-6884
OW	-6885
Tw	-6886
UR	-6887
Up	-6888
cr	-6889
kn	-6890
zy	-6891
▁,	-6892
▁4	-6893
▁5	-6894
▁6	-6895
▁8	-6896
...	-6897
Old	-6898
_!'	-6899
afe	-6900
alt	-6901
asc	-6902
asy	-6903
bin	-6904
cce	-6905
cle	-6906
dro	-6907
erm	-6908
erv	-6909
hol	-6910
mes	-6911
par	-6912
run	-6913
sme	-6914
spo	-6915
tal	-6916
yes	-6917
▁Ev	-6918
▁Te	-6919
▁ni	-6920
▁op	-6921
Does	-6922
Keep	-6923
Save	-6924
Time	-6925
Tree	-6926
Worm	-6927
ador	-6928
aggy	-6929
ansl	-6930
band	-6931
buri	-6932
four	-6933
gers	-6934
gorg	-6935
grow	-6936
home	-6937
iece	-6938
illo	-6939
imit	-6940
isen	-6941
lain	-6942
mail	-6943
mout	-6944
ompl	-6945
only	-6946
oped	-6947
orus	-6948
pher	-6949
recy	-6950
reds	-6951
reet	-6952
roke	-6953
root	-6954
sion	-6955
skin	-6956
this	-6957
wain	-6958
word	-6959
▁Bur	-6960
▁Des	-6961
▁Hol	-6962
▁Key	-6963
▁Khe	-6964
▁Sir	-6965
▁awe	-6966
▁aye	-6967
▁bal	-6968
▁bog	-6969
▁cal	-6970
▁cru	-6971
▁elm	-6972
▁fix	-6973
▁fut	-6974
▁hit	-6975
▁ine	-6976
▁jaw	-6977
▁lid	-6978
▁lin	-6979
▁maj	-6980
▁mor	-6981
▁mug	-6982
▁oak	-6983
▁pal	-6984
▁pap	-6985
▁rad	-6986
▁rue	-6987
▁sim	-6988
▁tim	-6989
▁vol	-6990
▁wil	-6991
About	-6992
Black	-6993
Elves	-6994
First	-6995
addle	-6996
aning	-6997
apsed	-6998
asket	-6999
asted	-7000
aware	-7001
bourn	-7002
dence	-7003
ences	-7004
faces	-7005
guard	-7006
igned	-7007
inces	-7008
inder	-7009
itten	-7010
iture	-7011
ollen	-7012
olved	-7013
otten	-7014
ounds	-7015
raced	-7016
shirt	-7017
sward	-7018
there	-7019
tress	-7020
trunk	-7021
unken	-7022
vered	-7023
words	-7024
▁Belf	-7025
▁Both	-7026
▁Fell	-7027
▁Forn	-7028
▁Leaf	-7029
▁Next	-7030
▁Wand	-7031
▁anon	-7032
▁bast	-7033
▁bony	-7034
▁chin	-7035
▁comm	-7036
▁copy	-7037
▁damp	-7038
▁dash	-7039
▁dish	-7040
▁dren	-7041
▁exch	-7042
▁fain	-7043
▁fens	-7044
▁ford	-7045
▁hagg	-7046
▁inse	-7047
▁isle	-7048
▁lent	-7049
▁limp	-7050
▁magn	-7051
▁mock	-7052
▁morn	-7053
▁nest	-7054
▁page	-7055
▁pict	-7056
▁pray	-7057
▁reed	-7058
▁rion	-7059
▁robb	-7060
▁sail	-7061
▁seed	-7062
▁sele	-7063
▁skil	-7064
▁slam	-7065
▁slee	-7066
▁slid	-7067
▁swam	-7068
▁tink	-7069
▁tips	-7070
▁tool	-7071
▁tuss	-7072
▁twit	-7073
▁unto	-7074
▁untr	-7075
▁unus	-7076
▁wont	-7077
Better	-7078
amedon	-7079
amping	-7080
asters	-7081
atives	-7082
atural	-7083
everal	-7084
making	-7085
nounce	-7086
orious	-7087
ormous	-7088
ousing	-7089
stones	-7090
strils	-7091
veiled	-7092
▁Beorn	-7093
▁Forth	-7094
▁Lands	-7095
▁Round	-7096
▁Small	-7097
▁Speak	-7098
▁Stand	-7099
▁Storm	-7100
▁Teeth	-7101
▁Umbar	-7102
▁aimed	-7103
▁amuse	-7104
▁armou	-7105
▁block	-7106
▁blows	-7107
▁braid	-7108
▁cares	-7109
▁chant	-7110
▁clang	-7111
▁crumb	-7112
▁feels	-7113
▁fence	-7114
▁flank	-7115
▁gorge	-7116
▁grace	-7117
▁invit	-7118
▁keeps	-7119
▁likes	-7120
▁maker	-7121
▁marsh	-7122
▁mercy	-7123
▁mustn	-7124
▁pages	-7125
▁pearl	-7126
▁pinch	-7127
▁pipes	-7128
▁posit	-7129
▁rapid	-7130
▁ridic	-7131
▁rises	-7132
▁robes	-7133
▁sails	-7134
▁seats	-7135
▁slack	-7136
▁stems	-7137
▁stock	-7138
▁strip	-7139
▁succe	-7140
▁sward	-7141
▁sweat	-7142
▁sweep	-7143
▁tunic	-7144
▁turmo	-7145
▁uncle	-7146
▁waded	-7147
▁wheel	-7148
▁wisps	-7149
ermined	-7150
leasant	-7151
meeting	-7152
retched	-7153
ription	-7154
shadows	-7155
velling	-7156
wrights	-7157
▁Archet	-7158
▁Arrows	-7159
▁Bearer	-7160
▁Guards	-7161
▁Hardly	-7162
▁Hirgon	-7163
▁Kheled	-7164
▁Lonely	-7165
▁Silent	-7166
▁Terror	-7167
▁Thorin	-7168
▁Tongue	-7169
▁Wonder	-7170
▁Yellow	-7171
▁afield	-7172
▁allows	-7173
▁arisen	-7174
▁attent	-7175
▁beware	-7176
▁bolted	-7177
▁border	-7178
▁bought	-7179
▁candle	-7180
▁chorus	-7181
▁cloudy	-7182
▁cracks	-7183
▁deemed	-7184
▁dingle	-7185
▁excuse	-7186
▁famous	-7187
▁felled	-7188
▁fitted	-7189
▁formed	-7190
▁future	-7191
▁grudge	-7192
▁hedges	-7193
▁hinges	-7194
▁jeered	-7195
▁judged	-7196
▁levels	-7197
▁licked	-7198
▁maggot	-7199
▁maiden	-7200
▁maimed	-7201
▁member	-7202
▁mirror	-7203
▁misery	-7204
▁mother	-7205
▁ninety	-7206
▁office	-7207
▁pawing	-7208
▁peeped	-7209
▁plight	-7210
▁scream	-7211
▁shaggy	-7212
▁shines	-7213
▁snakes	-7214
▁softer	-7215
▁squint	-7216
▁stride	-7217
▁thanks	-7218
▁tiring	-7219
▁trunks	-7220
▁wailed	-7221
▁wasted	-7222
▁wheels	-7223
Whatever	-7224
children	-7225
ollowing	-7226
▁Entmoot	-7227
▁Lamedon	-7228
▁abandon	-7229
▁absence	-7230
▁accompl	-7231
▁asunder	-7232
▁besides	-7233
▁blindly	-7234
▁bracken	-7235
▁bruised	-7236
▁capture	-7237
▁chapter	-7238
▁chilled	-7239
▁circles	-7240
▁conspir	-7241
▁correct	-7242
▁corslet	-7243
▁dangers	-7244
▁debated	-7245
▁depends	-7246
▁deserve	-7247
▁dislike	-7248
▁doubted	-7249
▁dreaded	-7250
▁dressed	-7251
▁engines	-7252
▁exactly	-7253
▁gasping	-7254
▁guesses	-7255
▁happens	-7256
▁heavens	-7257
▁hillock	-7258
▁instant	-7259
▁inwards	-7260
▁issuing	-7261
▁longing	-7262
▁meadows	-7263
▁neighed	-7264
▁nodding	-7265
▁packing	-7266
▁peeping	-7267
▁playing	-7268
▁reaches	-7269
▁reasons	-7270
▁related	-7271
▁release	-7272
▁request	-7273
▁resolve	-7274
▁ripples	-7275
▁rustled	-7276
▁secrecy	-7277
▁serpent	-7278
▁shepher	-7279
▁shifted	-7280
▁shudder	-7281
▁similar	-7282
▁studied	-7283
▁suspect	-7284
▁swerved	-7285
▁swollen	-7286
▁tallest	-7287
▁thickly	-7288
▁thinner	-7289
▁toppled	-7290
▁tracker	-7291
▁trodden	-7292
▁unaware	-7293
▁uplands	-7294
▁upright	-7295
▁weighed	-7296
▁working	-7297
▁yawning	-7298
Treebeard	-7299
▁Belfalas	-7300
▁Remember	-7301
▁Tomorrow	-7302
▁Whatever	-7303
▁Woodhall	-7304
▁bitterly	-7305
▁blinking	-7306
▁captives	-7307
▁clearing	-7308
▁concerns	-7309
▁crumbled	-7310
▁dismayed	-7311
▁doorstep	-7312
▁downward	-7313
▁dungeons	-7314
▁dwelling	-7315
▁escaping	-7316
▁examined	-7317
▁fastened	-7318
▁foretell	-7319
▁formless	-7320
▁fragrant	-7321
▁glimpses	-7322
▁grateful	-7323
▁insisted	-7324
▁kneeling	-7325
▁learning	-7326
▁lowlands	-7327
▁luminous	-7328
▁measured	-7329
▁mightier	-7330
▁mournful	-7331
▁nostrils	-7332
▁outwards	-7333
▁pathless	-7334
▁pursuing	-7335
▁rustling	-7336
▁scramble	-7337
▁snarling	-7338
▁solemnly	-7339
▁squirrel	-7340
▁sundered	-7341
▁swiftest	-7342
▁swinging	-7343
▁terraces	-7344
▁trailing	-7345
▁tramping	-7346
▁trampled	-7347
▁trotting	-7348
▁twinkled	-7349
▁unlikely	-7350
▁weakness	-7351
▁wheeling	-7352
▁whispers	-7353
▁Evidently	-7354
▁Meanwhile	-7355
▁blindness	-7356
▁chieftain	-7357
▁curiously	-7358
▁deepening	-7359
▁departure	-7360
▁emptiness	-7361
▁enchanted	-7362
▁firelight	-7363
▁followers	-7364
▁foothills	-7365
▁footsteps	-7366
▁hopefully	-7367
▁mentioned	-7368
▁mightiest	-7369
▁persuaded	-7370
▁preparing	-7371
▁provision	-7372
▁recalling	-7373
▁remainder	-7374
▁retreated	-7375
▁shrinking	-7376
▁sleepless	-7377
▁snuffling	-7378
▁sprawling	-7379
▁suggested	-7380
▁suspicion	-7381
▁swallowed	-7382
▁traveller	-7383
▁uncertain	-7384
▁whimpered	-7385
▁withdrawn	-7386
▁Longbottom	-7387
▁Mirrormere	-7388
▁characters	-7389
▁counselled	-7390
▁descending	-7391
▁determined	-7392
▁foreboding	-7393
▁hesitating	-7394
▁loveliness	-7395
▁maintained	-7396
▁remarkable	-7397
▁restrained	-7398
▁ridiculous	-7399
▁scrambling	-7400
▁suspicious	-7401
▁thoughtful	-7402
▁unpleasant	-7403
▁wickedness	-7404
▁Northerners	-7405
▁desperately	-7406
▁inquisitive	-7407
▁overwhelmed	-7408
▁occasionally	-7409
7_	-7410
9_	-7411
AN	-7412
Ai	-7413
ON	-7414
_?	-7415
Any	-7416
Aye	-7417
Few	-7418
Hey	-7419
His	-7420
Hoo	-7421
Men	-7422
Two	-7423
bul	-7424
cut	-7425
del	-7426
dil	-7427
eet	-7428
ese	-7429
haw	-7430
him	-7431
isp	-7432
lla	-7433
min	-7434
nen	-7435
nex	-7436
rid	-7437
son	-7438
tho	-7439
ume	-7440
vid	-7441
▁1_	-7442
▁2_	-7443
▁3_	-7444
▁4_	-7445
▁5_	-7446
▁6_	-7447
▁7_	-7448
▁8_	-7449
▁9_	-7450
▁Cl	-7451
▁Es	-7452
▁Hm	-7453
▁Ud	-7454
▁ap	-7455
From	-7456
Like	-7457
Loth	-7458
Much	-7459
Must	-7460
Such	-7461
angs	-7462
anny	-7463
aste	-7464
axed	-7465
bbon	-7466
bels	-7467
berg	-7468
cast	-7469
eral	-7470
esty	-7471
foil	-7472
gion	-7473
gone	-7474
grim	-7475
have	-7476
ieth	-7477
inks	-7478
lead	-7479
lies	-7480
lope	-7481
maid	-7482
mend	-7483
mers	-7484
olen	-7485
ooks	-7486
ourt	-7487
pens	-7488
ragg	-7489
rewd	-7490
rong	-7491
rous	-7492
shap	-7493
stor	-7494
take	-7495
thro	-7496
umps	-7497
upon	-7498
vert	-7499
ware	-7500
▁142	-7501
▁193	-7502
▁Dep	-7503
▁ENT	-7504
▁Eri	-7505
▁Fur	-7506
▁Hay	-7507
▁Nan	-7508
▁Tre	-7509
▁Wra	-7510
▁agh	-7511
▁ais	-7512
▁aud	-7513
▁awk	-7514
▁cul	-7515
▁dug	-7516
▁fre	-7517
▁haw	-7518
▁hom	-7519
▁jut	-7520
▁lim	-7521
▁nut	-7522
▁ric	-7523
▁tip	-7524
▁vom	-7525
▁wag	-7526
▁woo	-7527
Bless	-7528
Every	-7529
Leave	-7530
Since	-7531
Sleep	-7532
Still	-7533
adays	-7534
amant	-7535
anned	-7536
astly	-7537
aurel	-7538
bbled	-7539
birds	-7540
break	-7541
craft	-7542
elebr	-7543
erily	-7544
faced	-7545
ffled	-7546
icies	-7547
ility	-7548
ilver	-7549
imely	-7550
inced	-7551
irdle	-7552
itted	-7553
izing	-7554
lying	-7555
neath	-7556
oping	-7557
overy	-7558
rolls	-7559
roots	-7560
rored	-7561
sters	-7562
thain	-7563
thond	-7564
umble	-7565
unned	-7566
urned	-7567
walls	-7568
▁Cold	-7569
▁Corm	-7570
▁Dawn	-7571
▁Does	-7572
▁Fare	-7573
▁Find	-7574
▁Free	-7575
▁Host	-7576
▁June	-7577
▁Less	-7578
▁Lith	-7579
▁Moot	-7580
▁Naur	-7581
▁Pity	-7582
▁Rest	-7583
▁Room	-7584
▁Samm	-7585
▁Send	-7586
▁Star	-7587
▁Swan	-7588
▁Tale	-7589
▁Tuck	-7590
▁Wold	-7591
▁aged	-7592
▁akin	-7593
▁alle	-7594
▁asks	-7595
▁bags	-7596
▁base	-7597
▁bath	-7598
▁bole	-7599
▁bred	-7600
▁brig	-7601
▁bulk	-7602
▁bush	-7603
▁carc	-7604
▁cost	-7605
▁cups	-7606
▁date	-7607
▁dome	-7608
▁dumb	-7609
▁fare	-7610
▁flag	-7611
▁gale	-7612
▁girt	-7613
▁grac	-7614
▁hail	-7615
▁hazy	-7616
▁heap	-7617
▁hist	-7618
▁hush	-7619
▁huts	-7620
▁inde	-7621
▁inev	-7622
▁infl	-7623
▁inns	-7624
▁jaws	-7625
▁keys	-7626
▁kick	-7627
▁lair	-7628
▁load	-7629
▁lone	-7630
▁loos	-7631
▁mend	-7632
▁nick	-7633
▁obey	-7634
▁omen	-7635
▁onsl	-7636
▁opin	-7637
▁orch	-7638
▁ores	-7639
▁pair	-7640
▁pall	-7641
▁palm	-7642
▁penn	-7643
▁prev	-7644
▁prop	-7645
▁redu	-7646
▁robe	-7647
▁sack	-7648
▁salt	-7649
▁sets	-7650
▁shri	-7651
▁stag	-7652
▁stem	-7653
▁thir	-7654
▁timb	-7655
▁tray	-7656
▁undo	-7657
▁upro	-7658
▁wail	-7659
▁yess	-7660
ambers	-7661
aunted	-7662
bladed	-7663
bottle	-7664
cloaks	-7665
eskins	-7666
etween	-7667
fields	-7668
gotten	-7669
guards	-7670
ically	-7671
ifying	-7672
ipping	-7673
isions	-7674
itions	-7675
lilies	-7676
mother	-7677
mouthe	-7678
orberg	-7679
ppling	-7680
raised	-7681
rested	-7682
string	-7683
udence	-7684
wights	-7685
▁Ahead	-7686
▁Bless	-7687
▁Brown	-7688
▁Caves	-7689
▁Clear	-7690
▁Realm	-7691
▁Twice	-7692
▁World	-7693
▁aided	-7694
▁angle	-7695
▁anvil	-7696
▁arise	-7697
▁bathe	-7698
▁beech	-7699
▁beset	-7700
▁bloom	-7701
▁bored	-7702
▁breed	-7703
▁burns	-7704
▁cakes	-7705
▁caval	-7706
▁cheat	-7707
▁cheek	-7708
▁clash	-7709
▁creak	-7710
▁crows	-7711
▁dense	-7712
▁drear	-7713
▁erect	-7714
▁exper	-7715
▁fails	-7716
▁fangs	-7717
▁fewer	-7718
▁finds	-7719
▁gaped	-7720
▁gaunt	-7721
▁giant	-7722
▁glens	-7723
▁grind	-7724
▁handy	-7725
▁hardy	-7726
▁haunt	-7727
▁heath	-7728
▁helps	-7729
▁holly	-7730
▁hoods	-7731
▁howls	-7732
▁impro	-7733
▁innum	-7734
▁insol	-7735
▁issue	-7736
▁jewel	-7737
▁leaps	-7738
▁linen	-7739
▁livid	-7740
▁moves	-7741
▁overl	-7742
▁pouch	-7743
▁pract	-7744
▁proof	-7745
▁quail	-7746
▁rival	-7747
▁safer	-7748
▁separ	-7749
▁shabb	-7750
▁skies	-7751
▁skins	-7752
▁slave	-7753
▁slime	-7754
▁slimy	-7755
▁slung	-7756
▁sneak	-7757
▁split	-7758
▁spout	-7759
▁sting	-7760
▁surre	-7761
▁swoon	-7762
▁tides	-7763
▁timid	-7764
▁umbre	-7765
▁uncon	-7766
▁unshe	-7767
▁urged	-7768
▁wafer	-7769
▁walks	-7770
▁weigh	-7771
▁weren	-7772
Aragorn	-7773
Baggins	-7774
Begging	-7775
Strange	-7776
arently	-7777
borough	-7778
ckoning	-7779
country	-7780
itement	-7781
landish	-7782
ndering	-7783
noticed	-7784
ruction	-7785
skinned	-7786
tresses	-7787
▁Angmar	-7788
▁Better	-7789
▁Compan	-7790
▁Falloh	-7791
▁Ruling	-7792
▁Seeing	-7793
▁Stairs	-7794
▁Stoors	-7795
▁Summer	-7796
▁Unless	-7797
▁abomin	-7798
▁aching	-7799
▁afford	-7800
▁arches	-7801
▁bathed	-7802
▁beards	-7803
▁bearer	-7804
▁bother	-7805
▁busied	-7806
▁celebr	-7807
▁climbs	-7808
▁column	-7809
▁copper	-7810
▁courts	-7811
▁darken	-7812
▁decent	-7813
▁descri	-7814
▁dimmed	-7815
▁dought	-7816
▁earned	-7817
▁fishes	-7818
▁gnawed	-7819
▁grands	-7820
▁graven	-7821
▁havens	-7822
▁images	-7823
▁intend	-7824
▁inward	-7825
▁keenly	-7826
▁keeper	-7827
▁lilies	-7828
▁marble	-7829
▁menore	-7830
▁morsel	-7831
▁nassty	-7832
▁panted	-7833
▁papers	-7834
▁plates	-7835
▁poised	-7836
▁prepar	-7837
▁quarre	-7838
▁rabble	-7839
▁realms	-7840
▁recent	-7841
▁reeled	-7842
▁regard	-7843
▁ribbon	-7844
▁rotten	-7845
▁roving	-7846
▁rustic	-7847
▁sailed	-7848
▁script	-7849
▁shards	-7850
▁shrewd	-7851
▁sickly	-7852
▁smoked	-7853
▁sortie	-7854
▁source	-7855
▁speaks	-7856
▁spoons	-7857
▁sprung	-7858
▁stolen	-7859
▁strain	-7860
▁strewn	-7861
▁stuffy	-7862
▁thongs	-7863
▁thrice	-7864
▁throng	-7865
▁tinder	-7866
▁toiled	-7867
▁toward	-7868
▁tremor	-7869
▁trench	-7870
▁tricks	-7871
▁unwise	-7872
▁verses	-7873
▁welled	-7874
▁whence	-7875
▁wisest	-7876
▁wishes	-7877
▁wretch	-7878
▁wrists	-7879
angerous	-7880
daughter	-7881
smelling	-7882
▁Boffins	-7883
▁Eregion	-7884
▁Erestor	-7885
▁Eriador	-7886
▁Evening	-7887
▁Forlong	-7888
▁Fornost	-7889
▁Several	-7890
▁achieve	-7891
▁alarmed	-7892
▁amazing	-7893
▁anguish	-7894
▁annoyed	-7895
▁arrival	-7896
▁awkward	-7897
▁bargain	-7898
▁barrels	-7899
▁battles	-7900
▁boiling	-7901
▁brooded	-7902
▁captive	-7903
▁caution	-7904
▁caverns	-7905
▁chanced	-7906
▁choices	-7907
▁circlet	-7908
▁clouded	-7909
▁consult	-7910
▁corners	-7911
▁cruelly	-7912
▁daunted	-7913
▁declare	-7914
▁devised	-7915
▁digging	-7916
▁fainter	-7917
▁fathoms	-7918
▁filling	-7919
▁flights	-7920
▁foresee	-7921
▁forests	-7922
▁funeral	-7923
▁general	-7924
▁ghastly	-7925
▁grabbed	-7926
▁haggard	-7927
▁halting	-7928
▁introdu	-7929
▁largely	-7930
▁largest	-7931
▁lasting	-7932
▁majesty	-7933
▁merrily	-7934
▁musical	-7935
▁natural	-7936
▁paddled	-7937
▁panting	-7938
▁parties	-7939
▁princes	-7940
▁raising	-7941
▁reading	-7942
▁refresh	-7943
▁relaxed	-7944
▁rescued	-7945
▁revenge	-7946
▁rubbing	-7947
▁sharpen	-7948
▁slashed	-7949
▁sneered	-7950
▁spotted	-7951
▁stalked	-7952
▁surpass	-7953
▁swathed	-7954
▁swirled	-7955
▁tarried	-7956
▁terrace	-7957
▁thanked	-7958
▁towered	-7959
▁treason	-7960
▁tremble	-7961
▁twinkle	-7962
▁vaguely	-7963
▁vessels	-7964
▁visions	-7965
▁waggons	-7966
▁watches	-7967
▁willows	-7968
feathered	-7969
stretched	-7970
▁Evenstar	-7971
▁Morthond	-7972
▁Silmaril	-7973
▁Standing	-7974
▁achieved	-7975
▁addition	-7976
▁approved	-7977
▁arranged	-7978
▁beckoned	-7979
▁bewilder	-7980
▁blessing	-7981
▁blushing	-7982
▁clapping	-7983
▁cracking	-7984
▁crashing	-7985
▁crescent	-7986
▁dangling	-7987
▁defended	-7988
▁demanded	-7989
▁desolate	-7990
▁devoured	-7991
▁distrust	-7992
▁draughts	-7993
▁drenched	-7994
▁easterly	-7995
▁flitting	-7996
▁fourteen	-7997
▁furlongs	-7998
▁furnaces	-7999
▁gloating	-8000
▁handsome	-8001
▁hardened	-8002
▁helpless	-8003
▁instance	-8004
▁knocking	-8005
▁lengthen	-8006
▁mirrored	-8007
▁mistaken	-8008
▁nowadays	-8009
▁obtained	-8010
▁overtake	-8011
▁overtook	-8012
▁poisoned	-8013
▁policies	-8014
▁possibly	-8015
▁promises	-8016
▁provided	-8017
▁radiance	-8018
▁reckless	-8019
▁regarded	-8020
▁required	-8021
▁shutting	-8022
▁sickness	-8023
▁slippery	-8024
▁snapping	-8025
▁speeding	-8026
▁splashed	-8027
▁stabbing	-8028
▁stagnant	-8029
▁stamping	-8030
▁starless	-8031
▁stirrups	-8032
▁striking	-8033
▁thatched	-8034
▁thudding	-8035
▁twisting	-8036
▁umbrella	-8037
▁untimely	-8038
▁venomous	-8039
▁villages	-8040
▁windless	-8041
▁wrinkled	-8042
▁Celebrant	-8043
▁Elvenhome	-8044
▁Following	-8045
▁Snowbourn	-8046
▁Westmarch	-8047
▁advancing	-8048
▁blackened	-8049
▁cavernous	-8050
▁collapsed	-8051
▁collected	-8052
▁countries	-8053
▁crumbling	-8054
▁flowering	-8055
▁fortunate	-8056
▁fountains	-8057
▁generally	-8058
▁grumbling	-8059
▁hereafter	-8060
▁highlands	-8061
▁innkeeper	-8062
▁languages	-8063
▁marvelled	-8064
▁mustering	-8065
▁newcomers	-8066
▁onslaught	-8067
▁pondering	-8068
▁quickened	-8069
▁recovered	-8070
▁relatives	-8071
▁satisfied	-8072
▁specially	-8073
▁stillness	-8074
▁suspected	-8075
▁throbbing	-8076
▁travelled	-8077
▁unchanged	-8078
▁waterfall	-8079
Nonetheless	-8080
▁Dwimorberg	-8081
▁Isenmouthe	-8082
▁Whiteskins	-8083
▁abominable	-8084
▁beginnings	-8085
▁bewildered	-8086
▁chattering	-8087
▁counsellor	-8088
▁diminished	-8089
▁encouraged	-8090
▁eventually	-8091
▁experience	-8092
▁fluttering	-8093
▁greensward	-8094
▁importance	-8095
▁loneliness	-8096
▁outlandish	-8097
▁punishment	-8098
▁recognized	-8099
▁surrounded	-8100
▁unbearable	-8101
▁underneath	-8102
▁Tuckborough	-8103
▁astonishing	-8104
▁foundations	-8105
▁innumerable	-8106
▁overshadowed	-8107
▁unexpectedly	-8108
▁forgetfulness	-8109
▁neighbourhood	-8110
:_	-8111
AL	-8112
AR	-8113
By	-8114
ET	-8115
En	-8116
Hi	-8117
OT	-8118
Pr	-8119
RE	-8120
_:	-8121
_;	-8122
ib	-8123
sm	-8124
ws	-8125
ya	-8126
▁!	-8127
▁:	-8128
Per	-8129
Tom	-8130
Too	-8131
acy	-8132
agu	-8133
col	-8134
cts	-8135
fed	-8136
gle	-8137
ibs	-8138
ios	-8139
lar	-8140
nan	-8141
nes	-8142
opt	-8143
pit	-8144
ral	-8145
tap	-8146
tes	-8147
two	-8148
ubb	-8149
urs	-8150
van	-8151
zig	-8152
▁11	-8153
▁Ap	-8154
▁En	-8155
▁Et	-8156
▁Ex	-8157
▁na	-8158
Back	-8159
Bill	-8160
Ever	-8161
Five	-8162
Garn	-8163
Hush	-8164
King	-8165
Lead	-8166
Nazg	-8167
Need	-8168
Once	-8169
Orcs	-8170
True	-8171
Yess	-8172
aceg	-8173
agic	-8174
agor	-8175
alin	-8176
amar	-8177
ases	-8178
azar	-8179
azed	-8180
bark	-8181
blem	-8182
bone	-8183
bord	-8184
bows	-8185
clop	-8186
doom	-8187
eyes	-8188
feet	-8189
ffic	-8190
five	-8191
hewn	-8192
high	-8193
hole	-8194
iche	-8195
imar	-8196
izzy	-8197
lled	-8198
meal	-8199
mies	-8200
pass	-8201
path	-8202
phew	-8203
rave	-8204
ruly	-8205
save	-8206
shod	-8207
sses	-8208
stin	-8209
talk	-8210
thir	-8211
umed	-8212
uous	-8213
uted	-8214
wear	-8215
when	-8216
▁10_	-8217
▁Dor	-8218
▁Eat	-8219
▁Eve	-8220
▁Fan	-8221
▁Fol	-8222
▁Gel	-8223
▁Ham	-8224
▁Inn	-8225
▁Nar	-8226
▁Off	-8227
▁Per	-8228
▁Rap	-8229
▁Sit	-8230
▁Way	-8231
▁apt	-8232
▁bud	-8233
▁fil	-8234
▁fox	-8235
▁gay	-8236
▁loy	-8237
▁mas	-8238
▁ped	-8239
▁rag	-8240
▁raw	-8241
▁rut	-8242
▁sal	-8243
▁sho	-8244
▁sin	-8245
▁sly	-8246
▁vit	-8247
After	-8248
Awake	-8249
Bilbo	-8250
Bring	-8251
Think	-8252
about	-8253
ackle	-8254
adorn	-8255
alled	-8256
allen	-8257
andil	-8258
cking	-8259
edged	-8260
elids	-8261
ellig	-8262
elven	-8263
elves	-8264
fires	-8265
haust	-8266
iable	-8267
ilded	-8268
immon	-8269
irely	-8270
irien	-8271
iries	-8272
leagu	-8273
nants	-8274
oiled	-8275
orous	-8276
quent	-8277
reast	-8278
rence	-8279
ridor	-8280
shape	-8281
sides	-8282
sight	-8283
stood	-8284
thick	-8285
trail	-8286
tyard	-8287
uming	-8288
ussed	-8289
vices	-8290
▁Chet	-8291
▁Draw	-8292
▁Fier	-8293
▁Hoar	-8294
▁Hope	-8295
▁Hunt	-8296
▁Keys	-8297
▁Kind	-8298
▁Lake	-8299
▁Lead	-8300
▁Lhaw	-8301
▁Lost	-8302
▁Lune	-8303
▁Mids	-8304
▁Otho	-8305
▁Stay	-8306
▁Vard	-8307
▁ants	-8308
▁begs	-8309
▁bere	-8310
▁bump	-8311
▁cell	-8312
▁cond	-8313
▁crag	-8314
▁cuts	-8315
▁deaf	-8316
▁dece	-8317
▁dign	-8318
▁enve	-8319
▁estr	-8320
▁feat	-8321
▁fist	-8322
▁fres	-8323
▁furt	-8324
▁gain	-8325
▁grad	-8326
▁gust	-8327
▁imit	-8328
▁item	-8329
▁lass	-8330
▁link	-8331
▁loth	-8332
▁maps	-8333
▁marg	-8334
▁mask	-8335
▁melo	-8336
▁milk	-8337
▁misg	-8338
▁mugs	-8339
▁nail	-8340
▁obsc	-8341
▁outp	-8342
▁parl	-8343
▁pave	-8344
▁quee	-8345
▁rese	-8346
▁rind	-8347
▁rung	-8348
▁sake	-8349
▁sale	-8350
▁sell	-8351
▁sens	-8352
▁slit	-8353
▁snat	-8354
▁stor	-8355
▁subd	-8356
▁temp	-8357
▁thor	-8358
▁trad	-8359
▁unhe	-8360
▁unlo	-8361
▁unne	-8362
▁unsc	-8363
▁vote	-8364
▁wain	-8365
▁ward	-8366
▁wink	-8367
▁wins	-8368
Gondor	-8369
Verily	-8370
action	-8371
aladin	-8372
antage	-8373
arrows	-8374
atters	-8375
cloven	-8376
estere	-8377
growth	-8378
icular	-8379
idered	-8380
ightly	-8381
ilgrim	-8382
imbold	-8383
inated	-8384
innath	-8385
iosity	-8386
limbed	-8387
onfire	-8388
onight	-8389
ouched	-8390
oughly	-8391
sation	-8392
siders	-8393
speech	-8394
spoken	-8395
things	-8396
trunks	-8397
uckled	-8398
uffled	-8399
▁Among	-8400
▁April	-8401
▁Awake	-8402
▁Brego	-8403
▁Brock	-8404
▁Curun	-8405
▁Dimly	-8406
▁Doubt	-8407
▁Ethir	-8408
▁Falls	-8409
▁Harry	-8410
▁Later	-8411
▁Mazar	-8412
▁Rules	-8413
▁Shore	-8414
▁Watch	-8415
▁abode	-8416
▁adopt	-8417
▁ashen	-8418
▁belts	-8419
▁besie	-8420
▁birch	-8421
▁boles	-8422
▁bonds	-8423
▁brush	-8424
▁carts	-8425
▁cease	-8426
▁clove	-8427
▁clums	-8428
▁darts	-8429
▁derry	-8430
▁devel	-8431
▁disli	-8432
▁displ	-8433
▁dozed	-8434
▁dully	-8435
▁dusty	-8436
▁extra	-8437
▁farms	-8438
▁fissh	-8439
▁flags	-8440
▁fling	-8441
▁foggy	-8442
▁frail	-8443
▁ghost	-8444
▁gulls	-8445
▁hairy	-8446
▁halts	-8447
▁hates	-8448
▁heaps	-8449
▁helme	-8450
▁ideas	-8451
▁image	-8452
▁immen	-8453
▁inher	-8454
▁irres	-8455
▁lanes	-8456
▁lists	-8457
▁local	-8458
▁makil	-8459
▁meats	-8460
▁mines	-8461
▁moist	-8462
▁moors	-8463
▁muddy	-8464
▁nails	-8465
▁needn	-8466
▁newly	-8467
▁noses	-8468
▁opens	-8469
▁pains	-8470
▁perce	-8471
▁perch	-8472
▁piers	-8473
▁prize	-8474
▁raced	-8475
▁raven	-8476
▁rebel	-8477
▁renan	-8478
▁reput	-8479
▁riven	-8480
▁ropes	-8481
▁sable	-8482
▁scant	-8483
▁scree	-8484
▁shalt	-8485
▁shirt	-8486
▁shoes	-8487
▁shows	-8488
▁smite	-8489
▁smith	-8490
▁snare	-8491
▁snowy	-8492
▁spied	-8493
▁spoil	-8494
▁spoon	-8495
▁stank	-8496
▁steer	-8497
▁straw	-8498
▁stung	-8499
▁swell	-8500
▁swirl	-8501
▁talks	-8502
▁tombs	-8503
▁tooth	-8504
▁twigs	-8505
▁value	-8506
▁vangu	-8507
▁vault	-8508
▁veils	-8509
▁whips	-8510
▁windy	-8511
▁yells	-8512
Faramir	-8513
adorned	-8514
astrous	-8515
athelas	-8516
edingly	-8517
flowers	-8518
intered	-8519
kingdom	-8520
masters	-8521
orsairs	-8522
present	-8523
umbered	-8524
undered	-8525
uttered	-8526
wardens	-8527
▁Autumn	-8528
▁Braceg	-8529
▁Celebr	-8530
▁Cracks	-8531
▁Eldest	-8532
▁Lithui	-8533
▁Mortal	-8534
▁Praise	-8535
▁Rapids	-8536
▁Street	-8537
▁Whence	-8538
▁aboard	-8539
▁aghast	-8540
▁ambush	-8541
▁amends	-8542
▁ankles	-8543
▁apples	-8544
▁arrive	-8545
▁avenge	-8546
▁barely	-8547
▁basket	-8548
▁befell	-8549
▁brazen	-8550
▁cheeks	-8551
▁clammy	-8552
▁crafts	-8553
▁curved	-8554
▁defied	-8555
▁denser	-8556
▁dismal	-8557
▁dotted	-8558
▁drives	-8559
▁drowsy	-8560
▁embers	-8561
▁exclam	-8562
▁explan	-8563
▁fiddle	-8564
▁flakes	-8565
▁flared	-8566
▁freeze	-8567
▁fulfil	-8568
▁gilded	-8569
▁girdle	-8570
▁hewing	-8571
▁honest	-8572
▁hushed	-8573
▁interf	-8574
▁joints	-8575
▁landed	-8576
▁livery	-8577
▁lovely	-8578
▁meddle	-8579
▁mocked	-8580
▁nicely	-8581
▁nosing	-8582
▁onward	-8583
▁packet	-8584
▁pedest	-8585
▁perman	-8586
▁placed	-8587
▁plants	-8588
▁plumes	-8589
▁prints	-8590
▁profit	-8591
▁puffed	-8592
▁recess	-8593
▁repeat	-8594
▁richly	-8595
▁rights	-8596
▁roamed	-8597
▁rooted	-8598
▁safely	-8599
▁screen	-8600
▁secure	-8601
▁shears	-8602
▁shreds	-8603
▁sleeve	-8604
▁smells	-8605
▁smiths	-8606
▁sorely	-8607
▁sparks	-8608
▁specks	-8609
▁spells	-8610
▁splash	-8611
▁spying	-8612
▁square	-8613
▁steams	-8614
▁stores	-8615
▁stragg	-8616
▁swarth	-8617
▁tasted	-8618
▁tilled	-8619
▁traces	-8620
▁transl	-8621
▁troops	-8622
▁trusty	-8623
▁unfold	-8624
▁unused	-8625
▁upland	-8626
▁wastes	-8627
▁waylay	-8628
▁widest	-8629
aurelind	-8630
precious	-8631
undering	-8632
uttering	-8633
▁Between	-8634
▁Chamber	-8635
▁Journey	-8636
▁Paladin	-8637
▁Sammath	-8638
▁Staddle	-8639
▁Whither	-8640
▁abreast	-8641
▁adamant	-8642
▁anybody	-8643
▁arguing	-8644
▁blasted	-8645
▁blurred	-8646
▁blushed	-8647
▁brewing	-8648
▁casting	-8649
▁cavalry	-8650
▁cheated	-8651
▁chewing	-8652
▁choking	-8653
▁claimed	-8654
▁columns	-8655
▁comrade	-8656
▁conquer	-8657
▁control	-8658
▁creaked	-8659
▁culvert	-8660
▁curving	-8661
▁customs	-8662
▁darkest	-8663
▁dealing	-8664
▁deathly	-8665
▁dignity	-8666
▁doughty	-8667
▁explore	-8668
▁eyelids	-8669
▁feature	-8670
▁fissure	-8671
▁flaming	-8672
▁follows	-8673
▁garment	-8674
▁gateway	-8675
▁gentler	-8676
▁glances	-8677
▁goblins	-8678
▁grunted	-8679
▁gullies	-8680
▁hammers	-8681
▁haunted	-8682
▁hillmen	-8683
▁hostile	-8684
▁leaders	-8685
▁leisure	-8686
▁licking	-8687
▁lineage	-8688
▁maidens	-8689
▁married	-8690
▁marvels	-8691
▁mastery	-8692
▁merrier	-8693
▁mockery	-8694
▁mortals	-8695
▁muffled	-8696
▁parlour	-8697
▁patient	-8698
▁picture	-8699
▁portage	-8700
▁pricked	-8701
▁propped	-8702
▁pulling	-8703
▁pushing	-8704
▁quaking	-8705
▁quarter	-8706
▁rapidly	-8707
▁readers	-8708
▁rebuild	-8709
▁referen	-8710
▁robbers	-8711
▁sadness	-8712
▁sapling	-8713
▁selling	-8714
▁shading	-8715
▁sharper	-8716
▁slammed	-8717
▁slanted	-8718
▁slumber	-8719
▁smother	-8720
▁sparing	-8721
▁splayed	-8722
▁spurred	-8723
▁staying	-8724
▁sterner	-8725
▁strands	-8726
▁stuffed	-8727
▁stunted	-8728
▁success	-8729
▁summers	-8730
▁sunless	-8731
▁toiling	-8732
▁traffic	-8733
▁treated	-8734
▁tribute	-8735
▁turmoil	-8736
▁tussock	-8737
▁uncouth	-8738
▁vapours	-8739
▁waylaid	-8740
▁whirled	-8741
▁winters	-8742
▁witless	-8743
▁wizards	-8744
▁writhed	-8745
forgotten	-8746
leaguered	-8747
outherner	-8748
reckoning	-8749
▁Celebdil	-8750
▁Chetwood	-8751
▁Grimbold	-8752
▁Harfoots	-8753
▁Hoarwell	-8754
▁Horsemen	-8755
▁Ladyship	-8756
▁Mazarbul	-8757
▁Prancing	-8758
▁Southern	-8759
▁Valandil	-8760
▁Whitfoot	-8761
▁Windlord	-8762
▁alliance	-8763
▁argument	-8764
▁audience	-8765
▁battered	-8766
▁blending	-8767
▁branched	-8768
▁breeches	-8769
▁careless	-8770
▁chambers	-8771
▁chanting	-8772
▁clasping	-8773
▁continue	-8774
▁corridor	-8775
▁counting	-8776
▁covering	-8777
▁cowering	-8778
▁eighteen	-8779
▁embraced	-8780
▁enormous	-8781
▁entirely	-8782
▁envelope	-8783
▁evidence	-8784
▁explored	-8785
▁famished	-8786
▁feasting	-8787
▁firewood	-8788
▁flapping	-8789
▁foreseen	-8790
▁frequent	-8791
▁gladness	-8792
▁gloomily	-8793
▁goodness	-8794
▁hangings	-8795
▁herdsmen	-8796
▁homeless	-8797
▁honoured	-8798
▁horribly	-8799
▁imprison	-8800
▁likewise	-8801
▁loathing	-8802
▁loosened	-8803
▁misunder	-8804
▁neighing	-8805
▁objected	-8806
▁occurred	-8807
▁oncoming	-8808
▁openings	-8809
▁persuade	-8810
▁phantoms	-8811
▁position	-8812
▁prospect	-8813
▁prowling	-8814
▁prudence	-8815
▁quivered	-8816
▁refusing	-8817
▁reminder	-8818
▁renowned	-8819
▁resolved	-8820
▁roadside	-8821
▁scorched	-8822
▁screamed	-8823
▁screened	-8824
▁sensible	-8825
▁sheathed	-8826
▁shifting	-8827
▁shrunken	-8828
▁shuffled	-8829
▁shutters	-8830
▁sidelong	-8831
▁sideways	-8832
▁signific	-8833
▁splinter	-8834
▁squealed	-8835
▁sticking	-8836
▁strained	-8837
▁sweating	-8838
▁terribly	-8839
▁thankful	-8840
▁thieving	-8841
▁thirteen	-8842
▁touching	-8843
▁trenches	-8844
▁trickled	-8845
▁uncommon	-8846
▁unfurled	-8847
▁unveiled	-8848
▁vanguard	-8849
▁warriors	-8850
▁wielding	-8851
Everything	-8852
▁Beornings	-8853
▁Cormallen	-8854
▁Loudwater	-8855
▁Midsummer	-8856
▁Oliphaunt	-8857
▁Proudfoot	-8858
▁agreement	-8859
▁assailing	-8860
▁character	-8861
▁convinced	-8862
▁courtyard	-8863
▁despaired	-8864
▁discussed	-8865
▁everybody	-8866
▁excellent	-8867
▁forbidden	-8868
▁fortnight	-8869
▁foundered	-8870
▁fulfilled	-8871
▁furniture	-8872
▁halflings	-8873
▁hastening	-8874
▁histories	-8875
▁imagining	-8876
▁insolence	-8877
▁labouring	-8878
▁menoreans	-8879
▁oppressed	-8880
▁overheard	-8881
▁painfully	-8882
▁pavilions	-8883
▁preferred	-8884
▁presented	-8885
▁pretended	-8886
▁prevented	-8887
▁rearguard	-8888
▁rejoicing	-8889
▁relations	-8890
▁reverence	-8891
▁selection	-8892
▁sentinels	-8893
▁separated	-8894
▁sharpened	-8895
▁shattered	-8896
▁slaughter	-8897
▁sorrowful	-8898
▁splashing	-8899
▁straining	-8900
▁strangest	-8901
▁strongest	-8902
▁tormented	-8903
▁townlands	-8904
▁unadorned	-8905
▁uncounted	-8906
▁unguarded	-8907
▁unscathed	-8908
▁Companions	-8909
▁Everything	-8910
▁Hornblower	-8911
▁bitterness	-8912
▁directions	-8913
▁disastrous	-8914
▁discussing	-8915
▁domination	-8916
▁excitement	-8917
▁gatekeeper	-8918
▁grovelling	-8919
▁introduced	-8920
▁journeying	-8921
▁lengthened	-8922
▁needlessly	-8923
▁particular	-8924
▁reputation	-8925
▁resistance	-8926
▁scattering	-8927
▁shrivelled	-8928
▁splintered	-8929
▁surprising	-8930
▁terrifying	-8931
▁thoroughly	-8932
▁untroubled	-8933
▁arrangement	-8934
▁counsellors	-8935
▁descendants	-8936
▁description	-8937
▁exceedingly	-8938
▁featureless	-8939
▁grandmother	-8940
▁impatiently	-8941
▁overhanging	-8942
▁questioning	-8943
▁trespassing	-8944
▁bewilderment	-8945
▁conversation	-8946
▁immeasurable	-8947
▁preparations	-8948
▁satisfaction	-8949
▁suspiciously	-8950
▁Northfarthing	-8951
▁disappearance	-8952
.-	-8953
;'	-8954
AG	-8955
AK	-8956
Am	-8957
CE	-8958
De	-8959
EL	-8960
ER	-8961
FE	-8962
Me	-8963
ND	-8964
Sp	-8965
ea	-8966
gw	-8967
na	-8968
sk	-8969
sn	-8970
ti	-8971
tl	-8972
vy	-8973
▁Z	-8974
,'_	-8975
AKE	-8976
Ach	-8977
Com	-8978
Des	-8979
Fly	-8980
Got	-8981
Had	-8982
Her	-8983
Isn	-8984
Lie	-8985
Run	-8986
Ste	-8987
URN	-8988
acc	-8989
bba	-8990
che	-8991
con	-8992
cul	-8993
cur	-8994
dra	-8995
dri	-8996
eld	-8997
esc	-8998
fts	-8999
dan	-9000
hom	-9001
hyr	-9002
idy	-9003
ior	-9004
ita	-9005
ker	-9006
lic	-9007
lip	-9008
net	-9009
olt	-9010
oop	-9011
reg	-9012
rot	-9013
som	-9014
stn	-9015
thy	-9016
tom	-9017
ubs	-9018
uit	-9019
uld	-9020
yre	-9021
▁-'	-9022
▁13	-9023
▁AW	-9024
▁Fr	-9025
▁Tr	-9026
▁ga	-9027
▁ge	-9028
▁hy	-9029
▁sy	-9030
▁ty	-9031
Also	-9032
Away	-9033
Dead	-9034
Dear	-9035
Ents	-9036
Fear	-9037
Gold	-9038
Kill	-9039
Lord	-9040
Make	-9041
Open	-9042
Turn	-9043
Were	-9044
West	-9045
Wild	-9046
amer	-9047
arts	-9048
atul	-9049
aver	-9050
beat	-9051
boom	-9052
bree	-9053
bytl	-9054
ceas	-9055
cery	-9056
crow	-9057
deep	-9058
enth	-9059
ercy	-9060
erin	-9061
even	-9062
fara	-9063
fare	-9064
fles	-9065
food	-9066
free	-9067
gear	-9068
gher	-9069
gulf	-9070
heri	-9071
hilt	-9072
ians	-9073
irak	-9074
iruv	-9075
issh	-9076
itch	-9077
kers	-9078
lder	-9079
lers	-9080
llow	-9081
loth	-9082
luin	-9083
mare	-9084
mber	-9085
meet	-9086
miss	-9087
mity	-9088
morn	-9089
mort	-9090
neak	-9091
olin	-9092
opes	-9093
pill	-9094
rain	-9095
rais	-9096
rict	-9097
rift	-9098
roll	-9099
rubb	-9100
slit	-9101
some	-9102
sore	-9103
telp	-9104
tenm	-9105
ulls	-9106
uten	-9107
walk	-9108
wary	-9109
webs	-9110
will	-9111
yage	-9112
ybba	-9113
▁141	-9114
▁Act	-9115
▁Aye	-9116
▁Cir	-9117
▁Clo	-9118
▁Der	-9119
▁Ect	-9120
▁Egl	-9121
▁Hot	-9122
▁Hur	-9123
▁Lay	-9124
▁Nen	-9125
▁RET	-9126
▁Rel	-9127
▁Rul	-9128
▁Sor	-9129
▁Thy	-9130
▁Tra	-9131
▁ack	-9132
▁ber	-9133
▁bot	-9134
▁buy	-9135
▁cop	-9136
▁deg	-9137
▁dom	-9138
▁equ	-9139
▁ess	-9140
▁eve	-9141
▁fey	-9142
▁fid	-9143
▁gel	-9144
▁gem	-9145
▁hay	-9146
▁hew	-9147
▁hey	-9148
▁ice	-9149
▁ink	-9150
▁jet	-9151
▁kel	-9152
▁mod	-9153
▁moo	-9154
▁nim	-9155
▁poo	-9156
▁shy	-9157
▁ske	-9158
▁sss	-9159
▁tot	-9160
▁unl	-9161
▁upt	-9162
▁wip	-9163
Chief	-9164
Curse	-9165
Great	-9166
Other	-9167
Peril	-9168
Quick	-9169
Quite	-9170
Seven	-9171
Stand	-9172
Those	-9173
Trust	-9174
agger	-9175
ainty	-9176
ality	-9177
aries	-9178
arken	-9179
arsil	-9180
ashes	-9181
board	-9182
bound	-9183
cerer	-9184
clipp	-9185
crack	-9186
dened	-9187
doors	-9188
ended	-9189
ented	-9190
flesh	-9191
ftain	-9192
going	-9193
grand	-9194
gwort	-9195
horse	-9196
hyrne	-9197
imbre	-9198
ional	-9199
isome	-9200
odrim	-9201
orsed	-9202
osing	-9203
osite	-9204
otsam	-9205
owled	-9206
party	-9207
ribut	-9208
roval	-9209
sided	-9210
sions	-9211
spell	-9212
stead	-9213
storm	-9214
strel	-9215
sword	-9216
thren	-9217
uding	-9218
woman	-9219
world	-9220
woven	-9221
▁1420	-9222
▁1939	-9223
▁Amid	-9224
▁Bard	-9225
▁Call	-9226
▁Carn	-9227
▁Didn	-9228
▁Dusk	-9229
▁Frog	-9230
▁Gond	-9231
▁Hast	-9232
▁Heal	-9233
▁Heed	-9234
▁Heir	-9235
▁Home	-9236
▁KING	-9237
▁Kill	-9238
▁Lamp	-9239
▁Lots	-9240
▁Mond	-9241
▁Nibs	-9242
▁Pale	-9243
▁Pool	-9244
▁Sing	-9245
▁Skin	-9246
▁Soft	-9247
▁Stra	-9248
▁Thri	-9249
▁Tind	-9250
▁Wolf	-9251
▁adan	-9252
▁anor	-9253
▁bald	-9254
▁bane	-9255
▁beak	-9256
▁beam	-9257
▁bene	-9258
▁bits	-9259
▁blot	-9260
▁bond	-9261
▁boys	-9262
▁bull	-9263
▁buzz	-9264
▁coil	-9265
▁cred	-9266
▁deer	-9267
▁defy	-9268
▁diam	-9269
▁drip	-9270
▁elen	-9271
▁enqu	-9272
▁eyed	-9273
▁eyot	-9274
▁feed	-9275
▁fief	-9276
▁flin	-9277
▁fork	-9278
▁fret	-9279
▁frog	-9280
▁haft	-9281
▁hero	-9282
▁jerk	-9283
▁liar	-9284
▁lily	-9285
▁lind	-9286
▁liqu	-9287
▁loll	-9288
▁loop	-9289
▁lump	-9290
▁mead	-9291
▁oaks	-9292
▁oval	-9293
▁peer	-9294
▁plat	-9295
▁push	-9296
▁puts	-9297
▁rasc	-9298
▁rats	-9299
▁rdan	-9300
▁repl	-9301
▁rude	-9302
▁sche	-9303
▁self	-9304
▁sequ	-9305
▁shin	-9306
▁silk	-9307
▁sill	-9308
▁sine	-9309
▁situ	-9310
▁skul	-9311
▁slap	-9312
▁span	-9313
▁spin	-9314
▁spun	-9315
▁stat	-9316
▁stew	-9317
▁subs	-9318
▁tame	-9319
▁tort	-9320
▁trif	-9321
▁trip	-9322
▁uncl	-9323
▁upst	-9324
▁worm	-9325
▁wove	-9326
▁wrap	-9327
▁yelp	-9328
Before	-9329
Beyond	-9330
Coming	-9331
Elrond	-9332
Follow	-9333
Little	-9334
Unless	-9335
abbard	-9336
afraid	-9337
annath	-9338
appily	-9339
arming	-9340
atched	-9341
course	-9342
ection	-9343
elanor	-9344
ements	-9345
erably	-9346
except	-9347
forged	-9348
hammer	-9349
helion	-9350
ignant	-9351
iments	-9352
irable	-9353
irdles	-9354
itance	-9355
leaves	-9356
leness	-9357
maiden	-9358
morton	-9359
moving	-9360
nelled	-9361
ollect	-9362
ooping	-9363
ppings	-9364
reedom	-9365
resent	-9366
ridden	-9367
riment	-9368
seeing	-9369
shaped	-9370
silver	-9371
strels	-9372
stroke	-9373
ucking	-9374
ursday	-9375
valley	-9376
washed	-9377
▁AWAKE	-9378
▁Arrow	-9379
▁Below	-9380
▁Cause	-9381
▁Cerin	-9382
▁Court	-9383
▁Crown	-9384
▁Dagor	-9385
▁Drink	-9386
▁Forty	-9387
▁Gelin	-9388
▁Going	-9389
▁Grond	-9390
▁Horns	-9391
▁Hours	-9392
▁Jolly	-9393
▁Naith	-9394
▁Pheri	-9395
▁Robin	-9396
▁Varda	-9397
▁Zirak	-9398
▁afoot	-9399
▁agony	-9400
▁alert	-9401
▁alleg	-9402
▁array	-9403
▁bands	-9404
▁barns	-9405
▁bench	-9406
▁bends	-9407
▁booth	-9408
▁bosom	-9409
▁bower	-9410
▁briar	-9411
▁brook	-9412
▁camps	-9413
▁check	-9414
▁choke	-9415
▁clink	-9416
▁comic	-9417
▁concl	-9418
▁contr	-9419
▁conve	-9420
▁coomb	-9421
▁cowed	-9422
▁cream	-9423
▁crush	-9424
▁daily	-9425
▁dells	-9426
▁delve	-9427
▁diary	-9428
▁dillo	-9429
▁disgu	-9430
▁dizzy	-9431
▁domes	-9432
▁drier	-9433
▁drown	-9434
▁elder	-9435
▁embro	-9436
▁everl	-9437
▁ferry	-9438
▁fever	-9439
▁filed	-9440
▁files	-9441
▁fills	-9442
▁flask	-9443
▁flint	-9444
▁forge	-9445
▁gover	-9446
▁grain	-9447
▁hairs	-9448
▁hoard	-9449
▁hoary	-9450
▁illum	-9451
▁indom	-9452
▁instr	-9453
▁lakes	-9454
▁locks	-9455
▁lodge	-9456
▁madly	-9457
▁mason	-9458
▁mater	-9459
▁meals	-9460
▁mires	-9461
▁nhere	-9462
▁oaths	-9463
▁odred	-9464
▁overm	-9465
▁pairs	-9466
▁pines	-9467
▁plays	-9468
▁polit	-9469
▁print	-9470
▁raged	-9471
▁raise	-9472
▁rents	-9473
▁roofs	-9474
▁scowl	-9475
▁screw	-9476
▁sheen	-9477
▁sheep	-9478
▁shorn	-9479
▁sixty	-9480
▁slabs	-9481
▁slunk	-9482
▁spray	-9483
▁spurt	-9484
▁stale	-9485
▁state	-9486
▁stool	-9487
▁sworn	-9488
▁tamed	-9489
▁throt	-9490
▁tones	-9491
▁tools	-9492
▁tryst	-9493
▁wager	-9494
▁wakes	-9495
▁waxed	-9496
▁weave	-9497
▁wives	-9498
▁wreat	-9499
▁wrest	-9500
▁wrung	-9501
Elendil	-9502
Forgive	-9503
antment	-9504
assable	-9505
athsome	-9506
avoured	-9507
borders	-9508
crowned	-9509
draught	-9510
fathers	-9511
helming	-9512
imitars	-9513
ingling	-9514
iveness	-9515
kindled	-9516
landers	-9517
linging	-9518
mendous	-9519
mission	-9520
nounced	-9521
onsible	-9522
onsider	-9523
randuil	-9524
unately	-9525
utenant	-9526
vellers	-9527
▁Angren	-9528
▁Armies	-9529
▁Baldor	-9530
▁Boffin	-9531
▁Choose	-9532
▁Ettenm	-9533
▁Except	-9534
▁Gently	-9535
▁Meneld	-9536
▁Narsil	-9537
▁Naught	-9538
▁Nearly	-9539
▁RETURN	-9540
▁Reluct	-9541
▁Riding	-9542
▁Seldom	-9543
▁Strong	-9544
▁Stybba	-9545
▁Swords	-9546
▁Thence	-9547
▁Thrice	-9548
▁Trolls	-9549
▁Window	-9550
▁Wolves	-9551
▁Yonder	-9552
▁acknow	-9553
▁actual	-9554
▁adding	-9555
▁aisles	-9556
▁amidst	-9557
▁amused	-9558
▁assist	-9559
▁bereft	-9560
▁blamed	-9561
▁bolder	-9562
▁boomed	-9563
▁burial	-9564
▁cheats	-9565
▁cheers	-9566
▁cheese	-9567
▁chests	-9568
▁chilly	-9569
▁cities	-9570
▁clawed	-9571
▁clefts	-9572
▁cloths	-9573
▁coasts	-9574
▁coiled	-9575
▁compre	-9576
▁copies	-9577
▁crumbs	-9578
▁curses	-9579
▁dainty	-9580
▁denied	-9581
▁dipped	-9582
▁discom	-9583
▁dishes	-9584
▁dogged	-9585
▁domain	-9586
▁ducked	-9587
▁eighth	-9588
▁elders	-9589
▁engulf	-9590
▁enmity	-9591
▁eyeing	-9592
▁fallow	-9593
▁fidget	-9594
▁fitful	-9595
▁flanks	-9596
▁floors	-9597
▁foiled	-9598
▁forked	-9599
▁fouled	-9600
▁fruits	-9601
▁giants	-9602
▁glared	-9603
▁glooms	-9604
▁hailed	-9605
▁heaven	-9606
▁hemmed	-9607
▁hounds	-9608
▁hummed	-9609
▁instru	-9610
▁jerked	-9611
▁jogged	-9612
▁kinder	-9613
▁knight	-9614
▁lagged	-9615
▁lament	-9616
▁leaked	-9617
▁ledges	-9618
▁lessen	-9619
▁lesson	-9620
▁manned	-9621
▁masked	-9622
▁mended	-9623
▁midges	-9624
▁moored	-9625
▁mutter	-9626
▁nephew	-9627
▁nimble	-9628
▁nought	-9629
▁obtain	-9630
▁oppose	-9631
▁parley	-9632
▁patter	-9633
▁pinned	-9634
▁pitted	-9635
▁plague	-9636
▁ponder	-9637
▁porter	-9638
▁prince	-9639
▁prying	-9640
▁queens	-9641
▁rabbit	-9642
▁rapids	-9643
▁relish	-9644
▁remove	-9645
▁repaid	-9646
▁richer	-9647
▁ringed	-9648
▁robbed	-9649
▁roofed	-9650
▁rushes	-9651
▁sallow	-9652
▁scanty	-9653
▁season	-9654
▁shabby	-9655
▁shared	-9656
▁shaven	-9657
▁shouts	-9658
▁shrubs	-9659
▁shrunk	-9660
▁squeak	-9661
▁sticks	-9662
▁stinks	-9663
▁storey	-9664
▁strand	-9665
▁strung	-9666
▁supple	-9667
▁supply	-9668
▁tackle	-9669
▁temper	-9670
▁tender	-9671
▁theirs	-9672
▁thorny	-9673
▁unceas	-9674
▁uneven	-9675
▁unrest	-9676
▁unsafe	-9677
▁upheld	-9678
▁varied	-9679
▁verily	-9680
▁victim	-9681
▁visits	-9682
▁warmed	-9683
▁whiter	-9684
▁wields	-9685
▁wiping	-9686
▁wraith	-9687
Elbereth	-9688
Precious	-9689
birthday	-9690
estereve	-9691
telpiece	-9692
thickets	-9693
▁Ancient	-9694
▁Bolgers	-9695
▁Cottons	-9696
▁Drawing	-9697
▁Eldamar	-9698
▁Further	-9699
▁Hallows	-9700
▁Hamfast	-9701
▁Haunted	-9702
▁Hirluin	-9703
▁Holbytl	-9704
▁Hundred	-9705
▁Morning	-9706
▁Mugwort	-9707
▁Nimrais	-9708
▁Passing	-9709
▁Picking	-9710
▁Pinnath	-9711
▁Thingol	-9712
▁Thunder	-9713
▁Valimar	-9714
▁Waymeet	-9715
▁address	-9716
▁animals	-9717
▁ashamed	-9718
▁bastion	-9719
▁beastly	-9720
▁billows	-9721
▁birches	-9722
▁bleared	-9723
▁blended	-9724
▁blotted	-9725
▁bowshot	-9726
▁braided	-9727
▁briefly	-9728
▁capable	-9729
▁century	-9730
▁cheered	-9731
▁circuit	-9732
▁clanged	-9733
▁clatter	-9734
▁cluster	-9735
▁conceal	-9736
▁cooking	-9737
▁corrupt	-9738
▁counter	-9739
▁descent	-9740
▁despite	-9741
▁discern	-9742
▁dreamed	-9743
▁drifted	-9744
▁efforts	-9745
▁enjoyed	-9746
▁excited	-9747
▁exhaust	-9748
▁fancies	-9749
▁feigned	-9750
▁flatter	-9751
▁flecked	-9752
▁fleeing	-9753
▁flushed	-9754
▁forging	-9755
▁freedom	-9756
▁fumbled	-9757
▁furious	-9758
▁gaining	-9759
▁gathers	-9760
▁granted	-9761
▁grieves	-9762
▁guiding	-9763
▁handful	-9764
▁harvest	-9765
▁hateful	-9766
▁healers	-9767
▁heeding	-9768
▁hopping	-9769
▁housing	-9770
▁humming	-9771
▁immense	-9772
▁injured	-9773
▁jogging	-9774
▁justice	-9775
▁jutting	-9776
▁knotted	-9777
▁leering	-9778
▁lighten	-9779
▁loftier	-9780
▁mantled	-9781
▁nightly	-9782
▁noisily	-9783
▁opinion	-9784
▁outlets	-9785
▁penalty	-9786
▁percept	-9787
▁persons	-9788
▁pillows	-9789
▁plainer	-9790
▁planned	-9791
▁potency	-9792
▁presses	-9793
▁process	-9794
▁protect	-9795
▁provide	-9796
▁reduced	-9797
▁reeking	-9798
▁remorse	-9799
▁reports	-9800
▁rippled	-9801
▁rotting	-9802
▁roughly	-9803
▁rumbled	-9804
▁scowled	-9805
▁serving	-9806
▁seventh	-9807
▁sheaths	-9808
▁shorten	-9809
▁showing	-9810
▁skilful	-9811
▁sliding	-9812
▁slopped	-9813
▁smitten	-9814
▁stables	-9815
▁starved	-9816
▁steward	-9817
▁strikes	-9818
▁studded	-9819
▁stunned	-9820
▁succeed	-9821
▁suggest	-9822
▁swarthy	-9823
▁swooned	-9824
▁tapping	-9825
▁therein	-9826
▁threads	-9827
▁timbers	-9828
▁trickle	-9829
▁undoing	-9830
▁unquiet	-9831
▁variety	-9832
▁violent	-9833
▁washing	-9834
▁welling	-9835
▁whipped	-9836
▁yelling	-9837
chieftain	-9838
imbrethil	-9839
▁Actually	-9840
▁Alliance	-9841
▁Birthday	-9842
▁Causeway	-9843
▁Corsairs	-9844
▁Dagorlad	-9845
▁Fountain	-9846
▁Gondolin	-9847
▁Sirannon	-9848
▁Skinbark	-9849
▁Straight	-9850
▁Thursday	-9851
▁Tindrock	-9852
▁Tookland	-9853
▁Twilight	-9854
▁alarming	-9855
▁announce	-9856
▁arrested	-9857
▁arriving	-9858
▁awaiting	-9859
▁awakened	-9860
▁banished	-9861
▁besieged	-9862
▁bordered	-9863
▁breaches	-9864
▁brethren	-9865
▁brothers	-9866
▁burdened	-9867
▁captured	-9868
▁cautious	-9869
▁charging	-9870
▁chuckled	-9871
▁circling	-9872
▁cleaving	-9873
▁comrades	-9874
▁coverlet	-9875
▁crackled	-9876
▁crevices	-9877
▁crushing	-9878
▁debating	-9879
▁describe	-9880
▁deserved	-9881
▁desiring	-9882
▁distress	-9883
▁district	-9884
▁downcast	-9885
▁downfall	-9886
▁dreading	-9887
▁dropping	-9888
▁eleventy	-9889
▁enclosed	-9890
▁enduring	-9891
▁fiftieth	-9892
▁fitfully	-9893
▁foothold	-9894
▁footsore	-9895
▁forgiven	-9896
▁fortunes	-9897
▁gardener	-9898
▁gracious	-9899
▁grinning	-9900
▁homelike	-9901
▁improved	-9902
▁inclined	-9903
▁included	-9904
▁injuries	-9905
▁kingdoms	-9906
▁lifeless	-9907
▁magnific	-9908
▁minstrel	-9909
▁monsters	-9910
▁murdered	-9911
▁mustered	-9912
▁narrower	-9913
▁opposite	-9914
▁pedestal	-9915
▁platform	-9916
▁pondered	-9917
▁profound	-9918
▁properly	-9919
▁quenched	-9920
▁rattling	-9921
▁reappear	-9922
▁relation	-9923
▁remnants	-9924
▁repaired	-9925
▁resisted	-9926
▁resolute	-9927
▁rewarded	-9928
▁scabbard	-9929
▁settling	-9930
▁skulking	-9931
▁slapping	-9932
▁slightly	-9933
▁sounding	-9934
▁sprawled	-9935
▁starving	-9936
▁stewards	-9937
▁stinking	-9938
▁stripped	-9939
▁subsided	-9940
▁survived	-9941
▁swelling	-9942
▁threaded	-9943
▁tinkling	-9944
▁tireless	-9945
▁unawares	-9946
▁unfought	-9947
▁unharmed	-9948
▁unheeded	-9949
▁unhorsed	-9950
▁unmasked	-9951
▁uprooted	-9952
▁upturned	-9953
▁warnings	-9954
▁widening	-9955
▁wreckage	-9956
▁wrenched	-9957
▁yielding	-9958
Wormtongue	-9959
▁Ecthelion	-9960
▁Farthings	-9961
▁Laurelind	-9962
▁Northward	-9963
▁Outsiders	-9964
▁Southward	-9965
▁Stonewain	-9966
▁Stormcrow	-9967
▁Sundering	-9968
▁Thranduil	-9969
▁Thrihyrne	-9970
▁abandoned	-9971
▁advantage	-9972
▁amusement	-9973
▁armouries	-9974
▁bellowing	-9975
▁billowing	-9976
▁certainty	-9977
▁childhood	-9978
▁cloudless	-9979
▁contained	-9980
▁cunningly	-9981
▁curiosity	-9982
▁defenders	-9983
▁defending	-9984
▁departing	-9985
▁depressed	-9986
▁discovery	-9987
▁eagerness	-9988
▁encircled	-9989
▁enclosing	-9990
▁encourage	-9991
▁evergreen	-9992
▁exchanged	-9993
▁faithless	-9994
▁fashioned	-9995
▁foolishly	-9996
▁fragments	-9997
▁fruitless	-9998
▁glistened	-9999
▁gradually	-10000
▁graveyard	-10001
▁grovelled	-10002
▁heaviness	-10003
▁hillsides	-10004
▁impatient	-10005
▁inhabited	-10006
▁lightened	-10007
▁loathsome	-10008
▁merriment	-10009
▁minstrels	-10010
▁miserably	-10011
▁nightmare	-10012
▁patiently	-10013
▁perchance	-10014
▁poisonous	-10015
▁quavering	-10016
▁readiness	-10017
▁recounted	-10018
▁represent	-10019
▁shepherds	-10020
▁shielding	-10021
▁shrieking	-10022
▁situation	-10023
▁sparkling	-10024
▁squeaking	-10025
▁twitching	-10026
▁unnoticed	-10027
▁unusually	-10028
▁wearisome	-10029
▁withstood	-10030
▁Ettenmoors	-10031
▁Frogmorton	-10032
▁Messengers	-10033
▁Ringwraith	-10034
▁Travellers	-10035
▁answerable	-10036
▁apparently	-10037
▁appearance	-10038
▁background	-10039
▁challenged	-10040
▁chieftains	-10041
▁compelling	-10042
▁conspiracy	-10043
▁difference	-10044
▁distressed	-10045
▁disturbing	-10046
▁honourable	-10047
▁impassable	-10048
▁imprisoned	-10049
▁inevitable	-10050
▁lightnings	-10051
▁occasional	-10052
▁perceiving	-10053
▁permission	-10054
▁provisions	-10055
▁refreshing	-10056
▁restlessly	-10057
▁stealthily	-10058
▁suddenness	-10059
▁supporting	-10060
▁tightening	-10061
▁torchlight	-10062
▁unsheathed	-10063
▁victorious	-10064
▁Bucklanders	-10065
▁Reluctantly	-10066
▁attentively	-10067
▁beleaguered	-10068
▁breakfasted	-10069
▁destruction	-10070
▁discovering	-10071
▁encouraging	-10072
▁everlasting	-10073
▁exclamation	-10074
▁explanation	-10075
▁indomitable	-10076
▁inheritance	-10077
▁interesting	-10078
▁invitations	-10079
▁mantelpiece	-10080
▁merrymaking	-10081
▁quarrelling	-10082
▁respectable	-10083
▁strongholds	-10084
▁underground	-10085
▁undergrowth	-10086
▁Bracegirdles	-10087
▁accomplished	-10088
▁arrangements	-10089
▁disappearing	-10090
▁disappointed	-10091
▁interrupting	-10092
▁outstretched	-10093
▁overwhelming	-10094
▁shieldmaiden	-10095
▁misunderstand	-10096
':	-10097
2.	-10098
Dr	-10099
ES	-10100
Ex	-10101
Ha	-10102
II	-10103
PP	-10104
Ro	-10105
hr	-10106
ns	-10107
oi	-10108
rr	-10109
rs	-10110
sy	-10111
!'_	-10112
AGG	-10113
Hai	-10114
Hel	-10115
IFE	-10116
INS	-10117
Lem	-10118
Man	-10119
New	-10120
Nob	-10121
ORD	-10122
THE	-10123
Thr	-10124
Tis	-10125
Wor	-10126
_,_	-10127
asm	-10128
auh	-10129
avi	-10130
avy	-10131
aze	-10132
bas	-10133
bra	-10134
car	-10135
cer	-10136
cre	-10137
cro	-10138
eem	-10139
enc	-10140
enu	-10141
gue	-10142
ima	-10143
inv	-10144
irs	-10145
isk	-10146
lly	-10147
lor	-10148
nda	-10149
nut	-10150
rip	-10151
shr	-10152
tip	-10153
uid	-10154
uty	-10155
vol	-10156
wel	-10157
whe	-10158
who	-10159
▁Ai	-10160
▁Il	-10161
▁PR	-10162
▁Pl	-10163
▁ai	-10164
▁ox	-10165
Fair	-10166
Fool	-10167
Hall	-10168
Hear	-10169
Helm	-10170
Hold	-10171
Mean	-10172
Most	-10173
Rope	-10174
Soon	-10175
Stop	-10176
WIFE	-10177
Walk	-10178
Whoa	-10179
acir	-10180
acon	-10181
acts	-10182
ahir	-10183
ancy	-10184
arch	-10185
asar	-10186
axes	-10187
beth	-10188
blue	-10189
bold	-10190
cent	-10191
cern	-10192
come	-10193
dark	-10194
days	-10195
eace	-10196
fted	-10197
hame	-10198
holt	-10199
tw	-10200
box	-10201
elf	-10202
fur	-10203
ola	-10204
rey	-10205
tag	-10206
▁Bo	-10207
▁Rh	-10208
Easy	-10209
Hope	-10210
host	-10211
hued	-10212
hunt	-10213
ieve	-10214
igid	-10215
ilty	-10216
inas	-10217
ithe	-10218
izon	-10219
know	-10220
made	-10221
mind	-10222
mish	-10223
mist	-10224
more	-10225
name	-10226
ndim	-10227
ohan	-10228
orcs	-10229
oval	-10230
pair	-10231
pied	-10232
pock	-10233
race	-10234
rigg	-10235
roof	-10236
rune	-10237
such	-10238
tail	-10239
test	-10240
toes	-10241
tong	-10242
ugit	-10243
unny	-10244
upil	-10245
ural	-10246
urry	-10247
ursu	-10248
utes	-10249
vals	-10250
wand	-10251
weet	-10252
zing	-10253
zzle	-10254
▁194	-10255
▁Agl	-10256
▁App	-10257
▁Ask	-10258
▁Bus	-10259
▁Cal	-10260
▁Che	-10261
▁Exc	-10262
▁Fin	-10263
▁Iar	-10264
▁Ill	-10265
▁Mel	-10266
▁NOT	-10267
▁Six	-10268
▁Smo	-10269
▁Spe	-10270
▁Tar	-10271
▁Wis	-10272
▁ann	-10273
▁ced	-10274
▁coo	-10275
▁der	-10276
▁dub	-10277
▁dur	-10278
▁fer	-10279
▁hmm	-10280
▁hop	-10281
▁hus	-10282
▁jud	-10283
▁lee	-10284
▁lou	-10285
▁oil	-10286
▁ras	-10287
▁ray	-10288
▁sch	-10289
▁sip	-10290
▁slu	-10291
▁thw	-10292
▁wiz	-10293
▁wry	-10294
Death	-10295
Deser	-10296
Drink	-10297
Hallo	-10298
Haven	-10299
rn	-10300
ANC	-10301
las	-10302
▁ba	-10303
Grie	-10304
aper	-10305
cest	-10306
clip	-10307
help	-10308
stem	-10309
uthl	-10310
▁Dre	-10311
▁Oro	-10312
▁cot	-10313
▁hoi	-10314
▁nun	-10315
▁orn	-10316
Least	-10317
Light	-10318
Lotho	-10319
Minas	-10320
Right	-10321
Rohan	-10322
Seems	-10323
Twice	-10324
acked	-10325
andob	-10326
arbad	-10327
arers	-10328
arked	-10329
atted	-10330
badoc	-10331
being	-10332
blast	-10333
brake	-10334
brows	-10335
built	-10336
coach	-10337
could	-10338
cting	-10339
drawn	-10340
dying	-10341
earas	-10342
elong	-10343
emnet	-10344
estig	-10345
eturn	-10346
flies	-10347
gings	-10348
hilts	-10349
ially	-10350
icles	-10351
ifted	-10352
ihood	-10353
ilder	-10354
iller	-10355
indir	-10356
inged	-10357
inted	-10358
irion	-10359
isher	-10360
issed	-10361
itude	-10362
jects	-10363
knife	-10364
locks	-10365
magic	-10366
marin	-10367
necks	-10368
omach	-10369
onies	-10370
ooped	-10371
ously	-10372
ovely	-10373
oving	-10374
panse	-10375
paper	-10376
paved	-10377
selfs	-10378
sense	-10379
shore	-10380
short	-10381
speak	-10382
stery	-10383
stool	-10384
stuff	-10385
sweet	-10386
talan	-10387
tened	-10388
tense	-10389
thief	-10390
three	-10391
uilin	-10392
ulled	-10393
ullro	-10394
until	-10395
urbed	-10396
urous	-10397
usive	-10398
voice	-10399
OO	-10400
Mis	-10401
des	-10402
had	-10403
irn	-10404
saw	-10405
urt	-10406
▁22	-10407
alog	-10408
told	-10409
▁Ash	-10410
▁Fen	-10411
▁Met	-10412
▁Sle	-10413
▁vow	-10414
aited	-10415
ardol	-10416
fifth	-10417
stems	-10418
yance	-10419
zigil	-10420
▁Bare	-10421
▁Care	-10422
▁Dust	-10423
▁Evil	-10424
▁Fing	-10425
▁Foes	-10426
▁Food	-10427
▁Foot	-10428
▁Glit	-10429
▁Hear	-10430
▁Help	-10431
▁Hoom	-10432
▁Isle	-10433
▁Mauh	-10434
▁Mere	-10435
▁News	-10436
▁Rory	-10437
▁Sear	-10438
▁Ship	-10439
▁Sign	-10440
▁Thin	-10441
▁Till	-10442
▁Toby	-10443
▁Walk	-10444
▁Wide	-10445
▁acqu	-10446
▁appe	-10447
▁arid	-10448
▁asce	-10449
▁assu	-10450
▁aval	-10451
▁aver	-10452
▁bait	-10453
▁bees	-10454
▁blan	-10455
▁bogs	-10456
▁buck	-10457
▁butt	-10458
▁cack	-10459
▁cats	-10460
▁chat	-10461
▁clay	-10462
▁comb	-10463
▁crit	-10464
▁dank	-10465
▁debt	-10466
▁ding	-10467
▁diss	-10468
▁dyed	-10469
▁ells	-10470
▁emer	-10471
▁ensl	-10472
▁fogs	-10473
▁gard	-10474
▁gene	-10475
▁genu	-10476
▁gest	-10477
▁gibb	-10478
▁goss	-10479
▁grou	-10480
▁guts	-10481
▁hale	-10482
▁hare	-10483
▁hats	-10484
▁heel	-10485
▁hers	-10486
▁hump	-10487
▁inau	-10488
▁insc	-10489
▁joys	-10490
▁kiss	-10491
▁lend	-10492
▁mach	-10493
▁mane	-10494
▁memo	-10495
▁nazg	-10496
▁nets	-10497
▁nook	-10498
▁oars	-10499
*1	-10500
vi	-10501
Off	-10502
Out	-10503
fig	-10504
▁Ra	-10505
▁Vo	-10506
▁oo	-10507
Help	-10508
boat	-10509
news	-10510
pony	-10511
seat	-10512
▁Acc	-10513
▁Low	-10514
▁Var	-10515
▁hal	-10516
ancho	-10517
ickle	-10518
imbor	-10519
rowed	-10520
wight	-10521
▁buds	-10522
▁chip	-10523
▁laws	-10524
▁obed	-10525
▁ooze	-10526
▁outn	-10527
▁pelt	-10528
▁pert	-10529
▁pung	-10530
▁pyre	-10531
▁raid	-10532
▁rall	-10533
▁rams	-10534
▁riel	-10535
▁rift	-10536
▁rnen	-10537
▁roam	-10538
▁rumb	-10539
▁rumm	-10540
▁sire	-10541
▁skew	-10542
▁slag	-10543
▁sloe	-10544
▁soil	-10545
▁tang	-10546
▁tier	-10547
▁toys	-10548
▁trac	-10549
▁unab	-10550
▁unde	-10551
▁unra	-10552
▁urge	-10553
▁vile	-10554
▁void	-10555
▁vult	-10556
▁wire	-10557
▁wist	-10558
▁wool	-10559
AGGINS	-10560
Battle	-10561
Friend	-10562
Golden	-10563
Lembas	-10564
Mearas	-10565
Orders	-10566
Pippin	-10567
Please	-10568
Rimmon	-10569
Shadow	-10570
Splend	-10571
Steady	-10572
Things	-10573
Twenty	-10574
Wicked	-10575
ackets	-10576
akable	-10577
amaged	-10578
ardens	-10579
arthen	-10580
astern	-10581
aviour	-10582
blades	-10583
bushes	-10584
cerned	-10585
ciless	-10586
compan	-10587
crafty	-10588
driver	-10589
earned	-10590
enches	-10591
essing	-10592
estead	-10593
garoth	-10594
having	-10595
headed	-10596
hedras	-10597
icient	-10598
ifully	-10599
IRE	-10600
flo	-10601
hey	-10602
Call	-10603
Glad	-10604
Near	-10605
Nine	-10606
fowl	-10607
hard	-10608
pits	-10609
▁Ori	-10610
▁owe	-10611
▁rom	-10612
▁sup	-10613
▁upl	-10614
Balin	-10615
Lothl	-10616
Peace	-10617
Shire	-10618
blood	-10619
floor	-10620
riers	-10621
vable	-10622
▁Rene	-10623
▁bust	-10624
▁cush	-10625
▁dapp	-10626
▁mirk	-10627
▁tidy	-10628
Almost	-10629
Hobbit	-10630
achery	-10631
andles	-10632
import	-10633
itably	-10634
itches	-10635
ithing	-10636
leader	-10637
lidded	-10638
lorion	-10639
manned	-10640
mathom	-10641
mortal	-10642
nected	-10643
ocking	-10644
office	-10645
oothed	-10646
ordene	-10647
ording	-10648
ountry	-10649
owards	-10650
pocket	-10651
rantry	-10652
rapped	-10653
regard	-10654
rified	-10655
rottle	-10656
rowing	-10657
second	-10658
shield	-10659
smiths	-10660
soever	-10661
strand	-10662
strous	-10663
swoman	-10664
teenth	-10665
therly	-10666
thirty	-10667
trolls	-10668
uggard	-10669
ugging	-10670
uidhol	-10671
urning	-10672
urpose	-10673
▁Aglar	-10674
▁Arnen	-10675
▁Being	-10676
▁Bound	-10677
▁Calen	-10678
▁Chubb	-10679
▁Ciril	-10680
▁Combe	-10681
▁Cruel	-10682
▁Dread	-10683
▁Dream	-10684
▁Event	-10685
▁Fiery	-10686
▁Fires	-10687
▁Folco	-10688
▁Funny	-10689
▁Gross	-10690
▁Grubb	-10691
▁Guthl	-10692
▁Haven	-10693
▁Mouth	-10694
▁Perch	-10695
▁Plain	-10696
▁Pursu	-10697
▁Quite	-10698
▁Sheep	-10699
."'	-10700
Sss	-10701
fair	-10702
▁Rem	-10703
▁iss	-10704
▁jar	-10705
aided	-10706
atoes	-10707
cript	-10708
still	-10709
▁Grim	-10710
▁brew	-10711
▁brim	-10712
▁curl	-10713
▁jost	-10714
▁mace	-10715
Enough	-10716
ammers	-10717
diddle	-10718
perian	-10719
▁Silly	-10720
▁Sneak	-10721
▁Stark	-10722
▁Sweet	-10723
▁Thank	-10724
▁Think	-10725
▁Tired	-10726
▁Valar	-10727
▁Valin	-10728
▁Walls	-10729
▁Worse	-10730
▁ached	-10731
▁acorn	-10732
▁acres	-10733
▁alder	-10734
▁ammen	-10735
▁argue	-10736
▁badly	-10737
▁beats	-10738
▁boggy	-10739
▁boned	-10740
▁brood	-10741
▁bushy	-10742
▁cairn	-10743
▁champ	-10744
▁clubs	-10745
▁costs	-10746
▁crags	-10747
▁crook	-10748
▁crump	-10749
▁curly	-10750
▁curve	-10751
▁dates	-10752
▁decre	-10753
▁depth	-10754
▁dfara	-10755
▁dikes	-10756
▁edged	-10757
▁elves	-10758
▁enjoy	-10759
▁enlar	-10760
▁entry	-10761
▁erred	-10762
▁exist	-10763
▁exped	-10764
▁explo	-10765
▁eyrie	-10766
▁fades	-10767
▁fared	-10768
▁fated	-10769
▁fiefs	-10770
▁flare	-10771
▁flown	-10772
▁footp	-10773
▁foray	-10774
▁forts	-10775
▁frant	-10776
▁gaily	-10777
▁gains	-10778
▁gnaws	-10779
▁grant	-10780
▁grimy	-10781
▁guise	-10782
▁hangs	-10783
▁horny	-10784
▁hunts	-10785
▁hythe	-10786
▁ignor	-10787
▁inaud	-10788
▁incom	-10789
▁index	-10790
▁influ	-10791
▁joins	-10792
▁jokes	-10793
▁jolly	-10794
▁knots	-10795
▁lacks	-10796
▁laita	-10797
▁lawns	-10798
▁leafy	-10799
▁leech	-10800
▁liege	-10801
▁loops	-10802
▁lover	-10803
▁loyal	-10804
▁marin	-10805
▁memor	-10806
▁menel	-10807
▁meres	-10808
▁merit	-10809
▁minas	-10810
▁mossy	-10811
▁motto	-10812
▁mused	-10813
▁negle	-10814
▁ninny	-10815
▁noisy	-10816
▁odour	-10817
▁offic	-10818
▁panic	-10819
▁piles	-10820
▁pitch	-10821
▁plied	-10822
▁plots	-10823
▁poles	-10824
▁postp	-10825
▁prime	-10826
▁protr	-10827
▁pupil	-10828
▁purch	-10829
▁races	-10830
▁rains	-10831
▁reeks	-10832
▁reins	-10833
▁repro	-10834
▁rigid	-10835
▁rills	-10836
▁ruled	-10837
▁scars	-10838
▁scout	-10839
▁scraw	-10840
▁scuff	-10841
▁seeks	-10842
▁sheet	-10843
▁slant	-10844
▁slash	-10845
▁sleek	-10846
▁sling	-10847
▁snarl	-10848
▁spasm	-10849
▁spike	-10850
▁stain	-10851
▁stake	-10852
▁steal	-10853
▁stoop	-10854
▁strad	-10855
▁swans	-10856
▁swart	-10857
▁swine	-10858
▁swish	-10859
▁swore	-10860
▁thong	-10861
▁throb	-10862
▁thron	-10863
▁tongs	-10864
▁train	-10865
▁tries	-10866
▁trink	-10867
▁truce	-10868
▁twent	-10869
▁unint	-10870
▁uninv	-10871
▁untie	-10872
▁vomit	-10873
▁waits	-10874
▁waver	-10875
▁wears	-10876
▁weedy	-10877
▁whimp	-10878
▁whinn	-10879
▁width	-10880
▁wills	-10881
▁wiser	-10882
▁worsh	-10883
▁wrigg	-10884
Already	-10885
Forlong	-10886
Legolas	-10887
Meaning	-10888
Receive	-10889
Sharkey	-10890
Whether	-10891
Whither	-10892
aithful	-10893
archers	-10894
cloaked	-10895
curtain	-10896
eastern	-10897
enching	-10898
fection	-10899
fingers	-10900
fitting	-10901
glimmer	-10902
ichever	-10903
ination	-10904
inguish	-10905
isposed	-10906
istibly	-10907
keepers	-10908
mediate	-10909
morning	-10910
ouching	-10911
ounting	-10912
scented	-10913
sighted	-10914
stinate	-10915
strings	-10916
thening	-10917
thought	-10918
▁Angbor	-10919
▁Anyhow	-10920
▁Anyone	-10921
▁Bandob	-10922
▁Barley	-10923
▁Behold	-10924
▁Beware	-10925
▁Burden	-10926
▁Carach	-10927
▁Closed	-10928
▁Coming	-10929
▁Depart	-10930
▁Deputy	-10931
▁Duilin	-10932
▁During	-10933
▁Either	-10934
▁Elanor	-10935
▁Elwing	-10936
▁Fellow	-10937
▁Firien	-10938
▁Hammer	-10939
▁Hither	-10940
▁Lindir	-10941
▁Listen	-10942
▁Mathom	-10943
▁Monday	-10944
▁Nardol	-10945
▁Number	-10946
▁Scouts	-10947
▁Surely	-10948
▁Taking	-10949
▁Tirion	-10950
▁Tobold	-10951
▁Within	-10952
▁adrift	-10953
▁alight	-10954
▁argued	-10955
▁aright	-10956
▁attend	-10957
▁avenue	-10958
▁badges	-10959
▁barrel	-10960
▁basins	-10961
▁belief	-10962
▁blocks	-10963
▁booted	-10964
▁boring	-10965
▁bosses	-10966
▁braids	-10967
▁breeds	-10968
▁briars	-10969
▁bridle	-10970
▁broods	-10971
▁calcul	-10972
▁calmer	-10973
▁castle	-10974
▁chased	-10975
▁chasms	-10976
▁chokes	-10977
▁cleave	-10978
▁clumsy	-10979
▁collar	-10980
▁coneys	-10981
▁connex	-10982
▁convul	-10983
▁cooked	-10984
▁cooled	-10985
▁covers	-10986
▁credit	-10987
▁crowed	-10988
▁curves	-10989
▁dangle	-10990
▁darted	-10991
▁dearer	-10992
▁deceit	-10993
▁defile	-10994
▁degree	-10995
▁desper	-10996
▁dining	-10997
▁dishon	-10998
▁disord	-10999
▁dotard	-11000
▁drifts	-11001
▁eagles	-11002
▁eleven	-11003
▁embass	-11004
▁emblem	-11005
▁espied	-11006
▁essent	-11007
▁establ	-11008
▁esteem	-11009
▁faggot	-11010
▁feebly	-11011
▁finest	-11012
▁firmer	-11013
▁fished	-11014
▁flocks	-11015
▁flound	-11016
▁forges	-11017
▁fouler	-11018
▁framed	-11019
▁frosty	-11020
▁fuming	-11021
▁glazed	-11022
▁gleams	-11023
▁graves	-11024
▁guides	-11025
▁guilty	-11026
▁hallow	-11027
▁haunts	-11028
▁hazard	-11029
▁heaped	-11030
▁hedged	-11031
▁hoards	-11032
▁horsed	-11033
▁hotter	-11034
▁hugged	-11035
▁inland	-11036
▁insist	-11037
▁judges	-11038
▁justly	-11039
▁keener	-11040
▁lashed	-11041
▁linden	-11042
▁lively	-11043
▁loping	-11044
▁lordly	-11045
▁losing	-11046
▁malady	-11047
▁midday	-11048
▁milder	-11049
▁morrow	-11050
▁musing	-11051
▁musstn	-11052
▁neatly	-11053
▁obeyed	-11054
▁onlook	-11055
▁othain	-11056
▁outlet	-11057
▁outset	-11058
▁overfl	-11059
▁pained	-11060
▁pallid	-11061
▁patrol	-11062
▁pillow	-11063
▁piping	-11064
▁prompt	-11065
▁proofs	-11066
▁proves	-11067
▁purple	-11068
▁puzzle	-11069
▁ranges	-11070
▁rashly	-11071
▁reader	-11072
▁reject	-11073
▁render	-11074
▁rhymes	-11075
▁routed	-11076
▁rubble	-11077
▁rugged	-11078
▁rutted	-11079
▁salted	-11080
▁saving	-11081
▁savour	-11082
▁scales	-11083
▁scroll	-11084
▁sequel	-11085
▁shamed	-11086
▁shower	-11087
▁shroud	-11088
▁sickle	-11089
▁signed	-11090
▁silken	-11091
▁singly	-11092
▁skinny	-11093
▁sparse	-11094
▁spiral	-11095
▁spires	-11096
▁sprout	-11097
▁starve	-11098
▁sticky	-11099
▁stools	-11100
▁stored	-11101
▁strict	-11102
▁strife	-11103
▁strive	-11104
▁stroll	-11105
▁stumps	-11106
▁submit	-11107
▁suited	-11108
▁sunken	-11109
▁supped	-11110
▁surviv	-11111
▁tastes	-11112
▁tentac	-11113
▁thrill	-11114
▁throes	-11115
▁traced	-11116
▁trifle	-11117
▁undert	-11118
▁unfair	-11119
▁unhind	-11120
▁unhurt	-11121
▁unlock	-11122
▁unwary	-11123
▁uphill	-11124
▁urging	-11125
▁veered	-11126
▁volume	-11127
▁voyage	-11128
▁wisely	-11129
▁woolly	-11130
Splendid	-11131
accident	-11132
athering	-11133
breaking	-11134
coloured	-11135
dropping	-11136
eastward	-11137
favoured	-11138
pillared	-11139
shrouded	-11140
throated	-11141
ugitives	-11142
westward	-11143
▁Barahir	-11144
▁Because	-11145
▁Besides	-11146
▁Calacir	-11147
▁Country	-11148
▁Curtain	-11149
▁Dimholt	-11150
▁ENTWIFE	-11151
▁Entings	-11152
▁Entwood	-11153
▁Forgive	-11154
▁Hastily	-11155
▁Heather	-11156
▁Iarwain	-11157
▁Ilmarin	-11158
▁Kindred	-11159
▁Norbury	-11160
▁Nowhere	-11161
▁Oldbuck	-11162
▁Pilgrim	-11163
▁Slender	-11164
▁Slinker	-11165
▁Someone	-11166
▁Tharbad	-11167
▁Tonight	-11168
▁Watcher	-11169
▁Wearily	-11170
▁Westron	-11171
▁Wraiths	-11172
▁abashed	-11173
▁altered	-11174
▁athelas	-11175
▁avenues	-11176
▁awaited	-11177
▁balance	-11178
▁barring	-11179
▁barrows	-11180
▁bathing	-11181
▁bearded	-11182
▁bedroom	-11183
▁beechen	-11184
▁behaved	-11185
▁berries	-11186
▁blinded	-11187
▁bonfire	-11188
▁bounded	-11189
▁braying	-11190
▁brigand	-11191
▁buzzing	-11192
▁cackled	-11193
▁carcase	-11194
▁ceiling	-11195
▁central	-11196
▁chooses	-11197
▁circled	-11198
▁clashed	-11199
▁coiling	-11200
▁comings	-11201
▁comment	-11202
▁contest	-11203
▁coughed	-11204
▁damaged	-11205
▁darting	-11206
▁dazzled	-11207
▁dearest	-11208
▁decayed	-11209
▁defeats	-11210
▁defiled	-11211
▁denying	-11212
▁derived	-11213
▁discomf	-11214
▁ditches	-11215
▁dratted	-11216
▁drooped	-11217
▁earthen	-11218
▁easiest	-11219
▁edition	-11220
▁emptied	-11221
▁engaged	-11222
▁enheart	-11223
▁excused	-11224
▁expanse	-11225
▁expects	-11226
▁faggots	-11227
▁felling	-11228
▁fighter	-11229
▁flicked	-11230
▁flooded	-11231
▁flotsam	-11232
▁footmen	-11233
▁forcing	-11234
▁forsake	-11235
▁forsook	-11236
▁furtive	-11237
▁genuine	-11238
▁gesture	-11239
▁ghostly	-11240
▁gnawing	-11241
▁gravest	-11242
▁grinned	-11243
▁growths	-11244
▁gushing	-11245
▁handled	-11246
▁harbour	-11247
▁hardest	-11248
▁hardier	-11249
▁harpers	-11250
▁heaving	-11251
▁helmets	-11252
▁hemlock	-11253
▁hoarded	-11254
▁hoisted	-11255
▁horizon	-11256
▁hovered	-11257
▁hugging	-11258
▁hunched	-11259
▁husband	-11260
▁ignored	-11261
▁incline	-11262
▁increas	-11263
▁insects	-11264
▁intense	-11265
▁invaded	-11266
▁jumping	-11267
▁kinship	-11268
▁kissing	-11269
▁ladders	-11270
▁lashing	-11271
▁lolling	-11272
▁longest	-11273
▁luckily	-11274
▁lurched	-11275
▁magical	-11276
▁margins	-11277
▁marshal	-11278
▁masonry	-11279
▁masster	-11280
▁minding	-11281
▁moments	-11282
▁monster	-11283
▁munched	-11284
▁mystery	-11285
▁narrows	-11286
▁observe	-11287
▁oftener	-11288
▁orchard	-11289
▁outpost	-11290
▁overrun	-11291
▁patting	-11292
▁pausing	-11293
▁pennies	-11294
▁perform	-11295
▁plunder	-11296
▁popular	-11297
▁portion	-11298
▁prepare	-11299
▁profess	-11300
▁puffing	-11301
▁pungent	-11302
▁quality	-11303
▁queenly	-11304
▁queerer	-11305
▁rainbow	-11306
▁rallied	-11307
▁rascals	-11308
▁rattled	-11309
▁realize	-11310
▁receded	-11311
▁reeling	-11312
▁remarks	-11313
▁removal	-11314
▁respite	-11315
▁retired	-11316
▁robbing	-11317
▁rockets	-11318
▁rounded	-11319
▁screech	-11320
▁searing	-11321
▁seasons	-11322
▁seventy	-11323
▁sharing	-11324
▁shelves	-11325
▁showers	-11326
▁sighted	-11327
▁smeared	-11328
▁sorcery	-11329
▁sorrows	-11330
▁sources	-11331
▁spouted	-11332
▁squeeze	-11333
▁stabled	-11334
▁statues	-11335
▁staunch	-11336
▁steamed	-11337
▁steeper	-11338
▁stifled	-11339
▁stilled	-11340
▁stirrup	-11341
▁stomach	-11342
▁subdued	-11343
▁surging	-11344
▁surrend	-11345
▁swarmed	-11346
▁swelled	-11347
▁teacher	-11348
▁tempted	-11349
▁tending	-11350
▁testing	-11351
▁thieves	-11352
▁throats	-11353
▁tougher	-11354
▁tracked	-11355
▁tramped	-11356
▁tripped	-11357
▁uncanny	-11358
▁unconqu	-11359
▁unheard	-11360
▁unusual	-11361
▁visitor	-11362
▁vittles	-11363
▁volumes	-11364
▁vomited	-11365
▁wakeful	-11366
▁warfare	-11367
▁wayward	-11368
▁whereas	-11369
▁whining	-11370
▁wishing	-11371
▁witness	-11372
▁wizened	-11373
▁woollen	-11374
Certainly	-11375
Dangerous	-11376
Leastways	-11377
Something	-11378
companies	-11379
eastwards	-11380
elligible	-11381
important	-11382
kingsfoil	-11383
ullroarer	-11384
▁Eastward	-11385
▁Esgaroth	-11386
▁Gorbadoc	-11387
▁Greyhame	-11388
▁Holbytla	-11389
▁Hundreds	-11390
▁Isengrim	-11391
▁Leaflock	-11392
▁Thinking	-11393
▁Throttle	-11394
▁Wanderer	-11395
▁Westward	-11396
▁approval	-11397
▁assembly	-11398
▁barriers	-11399
▁befriend	-11400
▁bestowed	-11401
▁blasting	-11402
▁bothered	-11403
▁boundary	-11404
▁brigands	-11405
▁brushing	-11406
▁bursting	-11407
▁caressed	-11408
▁cheering	-11409
▁chestnut	-11410
▁chilling	-11411
▁comforts	-11412
▁complain	-11413
▁composed	-11414
▁constant	-11415
▁consumed	-11416
▁contrive	-11417
▁crackers	-11418
▁croaking	-11419
▁crowning	-11420
▁cushions	-11421
▁customer	-11422
▁defences	-11423
▁descried	-11424
▁diminish	-11425
▁directed	-11426
▁disguise	-11427
▁disliked	-11428
▁drownded	-11429
▁drowning	-11430
▁encamped	-11431
▁enslaved	-11432
▁errantry	-11433
▁eyebrows	-11434
▁features	-11435
▁filtered	-11436
▁fingered	-11437
▁flinched	-11438
▁flowered	-11439
▁footfall	-11440
▁footstep	-11441
▁forebode	-11442
▁foretold	-11443
▁fumbling	-11444
▁genealog	-11445
▁gossamer	-11446
▁governed	-11447
▁grandson	-11448
▁grasping	-11449
▁greenish	-11450
▁greeting	-11451
▁growling	-11452
▁guarding	-11453
▁hammered	-11454
▁handling	-11455
▁hearties	-11456
▁heaviest	-11457
▁hovering	-11458
▁incoming	-11459
▁invasion	-11460
▁investig	-11461
▁involved	-11462
▁jostling	-11463
▁kinsfolk	-11464
▁labelled	-11465
▁landings	-11466
▁leafless	-11467
▁leathern	-11468
▁lighting	-11469
▁material	-11470
▁mingling	-11471
▁mistrust	-11472
▁mortally	-11473
▁multiply	-11474
▁murderer	-11475
▁newcomer	-11476
▁noticing	-11477
▁offering	-11478
▁orchards	-11479
▁ourselfs	-11480
▁outlined	-11481
▁outlying	-11482
▁overcast	-11483
▁overlaid	-11484
▁packages	-11485
▁paddling	-11486
▁password	-11487
▁pavement	-11488
▁pitiable	-11489
▁platters	-11490
▁plodding	-11491
▁plucking	-11492
▁politely	-11493
▁potatoes	-11494
▁preserve	-11495
▁produced	-11496
▁purposed	-11497
▁quickest	-11498
▁receding	-11499
▁rejoiced	-11500
▁resemble	-11501
▁restrain	-11502
▁riddling	-11503
▁roofless	-11504
▁ruefully	-11505
▁shadowed	-11506
▁shelving	-11507
▁shepherd	-11508
▁shrugged	-11509
▁slinking	-11510
▁smithies	-11511
▁smoothed	-11512
▁snatches	-11513
▁softened	-11514
▁sorcerer	-11515
▁sparkled	-11516
▁speedily	-11517
▁spinning	-11518
▁squeaked	-11519
▁squeezed	-11520
▁steering	-11521
▁stinging	-11522
▁stopping	-11523
▁strongly	-11524
▁suitable	-11525
▁surfaces	-11526
▁surveyed	-11527
▁teaching	-11528
▁terrific	-11529
▁throbbed	-11530
▁thronged	-11531
▁timeless	-11532
▁tracking	-11533
▁trespass	-11534
▁tumbling	-11535
▁unafraid	-11536
▁unlocked	-11537
▁unmanned	-11538
▁unnecess	-11539
▁uplifted	-11540
▁upraised	-11541
▁upstream	-11542
▁visiting	-11543
▁wilfully	-11544
▁windings	-11545
▁wreathed	-11546
▁writhing	-11547
▁Bandobras	-11548
▁Dangerous	-11549
▁Desperate	-11550
▁Fanuidhol	-11551
▁Firstborn	-11552
▁Halfelven	-11553
▁Inglorion	-11554
▁Landroval	-11555
▁Methedras	-11556
▁Otherwise	-11557
▁Starkhorn	-11558
▁Thereupon	-11559
▁Treachery	-11560
▁Wandering	-11561
▁Wonderful	-11562
▁addressed	-11563
▁admirable	-11564
▁announced	-11565
▁annoyance	-11566
▁arguments	-11567
▁attempted	-11568
▁attentive	-11569
▁behaviour	-11570
▁bothering	-11571
▁bowstring	-11572
▁broadened	-11573
▁burnished	-11574
▁celebrate	-11575
▁centuries	-11576
▁completed	-11577
▁concourse	-11578
▁connected	-11579
▁conspirat	-11580
▁converged	-11581
▁corrected	-11582
▁crossings	-11583
▁curtained	-11584
▁deafening	-11585
▁developed	-11586
▁devouring	-11587
▁dismissed	-11588
▁distances	-11589
▁distantly	-11590
▁distribut	-11591
▁dreamlike	-11592
▁entangled	-11593
▁entertain	-11594
▁estranged	-11595
▁existence	-11596
▁finishing	-11597
▁flattened	-11598
▁fluttered	-11599
▁footfalls	-11600
▁footstool	-11601
▁frightful	-11602
▁furnished	-11603
▁gardening	-11604
▁guardroom	-11605
▁hardihood	-11606
▁heirlooms	-11607
▁homestead	-11608
▁horseback	-11609
▁immediate	-11610
▁indignant	-11611
▁inquiries	-11612
▁intervals	-11613
▁kingsfoil	-11614
▁kinswoman	-11615
▁legendary	-11616
▁leisurely	-11617
▁lightless	-11618
▁measuring	-11619
▁merciless	-11620
▁necessity	-11621
▁northerly	-11622
▁ominously	-11623
▁overthrow	-11624
▁permanent	-11625
▁plundered	-11626
▁practised	-11627
▁protected	-11628
▁recollect	-11629
▁redoubled	-11630
▁reference	-11631
▁referring	-11632
▁regretted	-11633
▁rekindled	-11634
▁repeating	-11635
▁revealing	-11636
▁scimitars	-11637
▁screaming	-11638
▁shallower	-11639
▁skilfully	-11640
▁slackened	-11641
▁slavering	-11642
▁slithered	-11643
▁splinters	-11644
▁squatting	-11645
▁startling	-11646
▁stiffened	-11647
▁straggled	-11648
▁strangled	-11649
▁stretches	-11650
▁succeeded	-11651
▁summoning	-11652
▁surpassed	-11653
▁surrender	-11654
▁surveying	-11655
▁thereupon	-11656
▁tightened	-11657
▁tottering	-11658
▁tradition	-11659
▁tributary	-11660
▁troubling	-11661
▁tunnelled	-11662
▁undamaged	-11663
▁unguessed	-11664
▁unhappily	-11665
▁unstained	-11666
▁violently	-11667
▁waistcoat	-11668
▁whichever	-11669
▁wistfully	-11670
▁withering	-11671
▁wriggling	-11672
▁yestereve	-11673
▁youngster	-11674
▁Bombadillo	-11675
▁Dwimordene	-11676
▁Eventually	-11677
▁Fallohides	-11678
▁Fellowship	-11679
▁Fimbrethil	-11680
▁Glittering	-11681
▁Southerner	-11682
▁Underhills	-11683
▁accomplish	-11684
▁beforehand	-11685
▁blossoming	-11686
▁blundering	-11687
▁brandished	-11688
▁broadening	-11689
▁buttresses	-11690
▁clattering	-11691
▁completely	-11692
▁compliment	-11693
▁desolation	-11694
▁destroying	-11695
▁displeased	-11696
▁faithfully	-11697
▁forbidding	-11698
▁fortresses	-11699
▁generation	-11700
▁gratefully	-11701
▁heedlessly	-11702
▁invitation	-11703
▁lieutenant	-11704
▁marshalled	-11705
▁mattresses	-11706
▁multiplied	-11707
▁neighbours	-11708
▁originally	-11709
▁overtaking	-11710
▁quickening	-11711
▁recovering	-11712
▁reflection	-11713
▁reluctance	-11714
▁rottenness	-11715
▁scrabbling	-11716
▁shadowless	-11717
▁slackening	-11718
▁sleepiness	-11719
▁smouldered	-11720
▁spluttered	-11721
▁stiffening	-11722
▁strangling	-11723
▁surpassing	-11724
▁temptation	-11725
▁thereafter	-11726
▁threatened	-11727
▁translated	-11728
▁travelling	-11729
▁treasuries	-11730
▁tremendous	-11731
▁uncommonly	-11732
▁uneasiness	-11733
▁unhindered	-11734
▁waterfalls	-11735
▁weapontake	-11736
▁whimpering	-11737
▁worshipped	-11738
▁Celebrimbor	-11739
▁Hornblowers	-11740
▁Lampwrights	-11741
▁Pheriannath	-11742
▁adventurous	-11743
▁blessedness	-11744
▁butterflies	-11745
▁countryside	-11746
▁desperation	-11747
▁distinguish	-11748
▁earthenware	-11749
▁embroidered	-11750
▁enchantment	-11751
▁established	-11752
▁foolishness	-11753
▁fortunately	-11754
▁frightfully	-11755
▁illuminated	-11756
▁instruments	-11757
▁interfering	-11758
▁magnificent	-11759
▁nothingness	-11760
▁outnumbered	-11761
▁perceptible	-11762
▁refreshment	-11763
▁regretfully	-11764
▁responsible	-11765
▁unconcerned	-11766
▁unimportant	-11767
▁whisperings	-11768
▁wonderfully	-11769
▁Westfarthing	-11770
▁considerable	-11771
▁immeasurably	-11772
▁irresistibly	-11773
▁marvellously	-11774
▁significance	-11775
▁strengthened	-11776
▁inquisitiveness	-11777
''	-11778
70	-11779
LO	-11780
Tr	-11781
WO	-11782
Yr	-11783
ca	-11784
lk	-11785
._'	-11786
Ass	-11787
Day	-11788
ERS	-11789
Hal	-11790
OES	-11791
Ugh	-11792
Unt	-11793
Won	-11794
anx	-11795
apt	-11796
bac	-11797
ban	-11798
bro	-11799
Eh	-11800
Ya	-11801
ELI	-11802
cry	-11803
cup	-11804
ely	-11805
etr	-11806
fit	-11807
gan	-11808
hor	-11809
hos	-11810
icn	-11811
iph	-11812
liv	-11813
lop	-11814
mal	-11815
mat	-11816
met	-11817
nze	-11818
oel	-11819
pph	-11820
ram	-11821
rif	-11822
roy	-11823
rum	-11824
rup	-11825
sha	-11826
sim	-11827
thm	-11828
uce	-11829
unw	-11830
uru	-11831
voc	-11832
▁(_	-11833
▁17	-11834
▁Aw	-11835
▁BU	-11836
▁Dn	-11837
▁IV	-11838
▁Ob	-11839
▁Yu	-11840
▁bc	-11841
▁lu	-11842
▁ol	-11843
Bear	-11844
Draw	-11845
Each	-11846
Fang	-11847
Fare	-11848
Find	-11849
Hill	-11850
Hrum	-11851
Lady	-11852
Noon	-11853
Pity	-11854
Step	-11855
Work	-11856
aker	-11857
alda	-11858
alla	-11859
aned	-11860
arks	-11861
arly	-11862
asse	-11863
aten	-11864
atic	-11865
bain	-11866
bolt	-11867
boys	-11868
brim	-11869
broo	-11870
cils	-11871
city	-11872
cony	-11873
crom	-11874
dain	-11875
dder	-11876
delf	-11877
drag	-11878
dush	-11879
eeds	-11880
egil	-11881
fers	-11882
gold	-11883
hene	-11884
hosg	-11885
hung	-11886
ibil	-11887
ilit	-11888
ilts	-11889
ithl	-11890
ivil	-11891
late	-11892
ldor	-11893
legs	-11894
lest	-11895
llum	-11896
meat	-11897
mely	-11898
mill	-11899
OOK	-11900
law	-11901
put	-11902
rah	-11903
▁et	-11904
cret	-11905
crop	-11906
gled	-11907
ikes	-11908
irts	-11909
nday	-11910
phin	-11911
pond	-11912
pret	-11913
rety	-11914
rive	-11915
rols	-11916
sest	-11917
ufin	-11918
uing	-11919
uist	-11920
unge	-11921
urth	-11922
welf	-11923
▁...	-11924
▁114	-11925
▁11_	-11926
▁134	-11927
▁Bor	-11928
▁Con	-11929
▁Dis	-11930
▁END	-11931
▁Lim	-11932
▁Mon	-11933
▁NOW	-11934
▁Occ	-11935
▁Oss	-11936
▁TOW	-11937
▁Tel	-11938
▁Tie	-11939
▁Tim	-11940
▁Try	-11941
▁Und	-11942
▁Unn	-11943
▁awh	-11944
▁biv	-11945
▁cas	-11946
▁daw	-11947
▁exh	-11948
▁fes	-11949
▁gas	-11950
▁hoy	-11951
▁hud	-11952
▁imb	-11953
▁jol	-11954
▁ket	-11955
▁lag	-11956
▁lux	-11957
▁map	-11958
▁mix	-11959
▁nap	-11960
▁oat	-11961
▁orb	-11962
▁ore	-11963
▁ost	-11964
▁ple	-11965
▁puc	-11966
▁roy	-11967
▁sac	-11968
▁sam	-11969
▁siz	-11970
▁sou	-11971
▁tie	-11972
▁toe	-11973
▁toy	-11974
Durin	-11975
Dwarf	-11976
Eight	-11977
Galad	-11978
Gimli	-11979
Griev	-11980
Night	-11981
Proud	-11982
Short	-11983
Silly	-11984
Unsay	-11985
Untie	-11986
Whose	-11987
afely	-11988
alanx	-11989
angor	-11990
arned	-11991
awing	-11992
bable	-11993
bbler	-11994
beams	-11995
belie	-11996
cakes	-11997
calls	-11998
ceded	-11999
EAR	-12000
Ill	-12001
Yea	-12002
iot	-12003
ops	-12004
tar	-12005
▁Lo	-12006
Thou	-12007
adil	-12008
brow	-12009
drop	-12010
gade	-12011
game	-12012
kept	-12013
mant	-12014
obel	-12015
reen	-12016
uals	-12017
▁Lid	-12018
▁Sha	-12019
▁doc	-12020
▁jes	-12021
▁sis	-12022
Green	-12023
Quiet	-12024
Waste	-12025
anche	-12026
awned	-12027
cheon	-12028
chost	-12029
climb	-12030
coves	-12031
cries	-12032
dvent	-12033
enach	-12034
enged	-12035
eries	-12036
etite	-12037
feits	-12038
gates	-12039
great	-12040
gress	-12041
hills	-12042
hoard	-12043
horns	-12044
icine	-12045
ildin	-12046
inger	-12047
isons	-12048
ithel	-12049
ivers	-12050
iwork	-12051
joyed	-12052
lalla	-12053
liest	-12054
meads	-12055
mista	-12056
ndent	-12057
nging	-12058
olten	-12059
olves	-12060
orary	-12061
orged	-12062
otard	-12063
pated	-12064
pense	-12065
raith	-12066
raven	-12067
realm	-12068
relas	-12069
robin	-12070
rokes	-12071
runes	-12072
seven	-12073
shelf	-12074
ships	-12075
shops	-12076
sized	-12077
skins	-12078
stage	-12079
terns	-12080
udded	-12081
uesth	-12082
uilos	-12083
vales	-12084
wives	-12085
zzled	-12086
▁1421	-12087
▁Blue	-12088
▁Bush	-12089
▁Caut	-12090
▁Dior	-12091
▁Dist	-12092
▁FEAR	-12093
▁FIRE	-12094
▁Fold	-12095
▁Fund	-12096
▁Goes	-12097
▁Hail	-12098
▁Hith	-12099
9,	-12100
Bad	-12101
ENT	-12102
Elf	-12103
Sit	-12104
laid	-12105
ulse	-12106
▁Bay	-12107
▁Lor	-12108
▁PON	-12109
Climb	-12110
Fissh	-12111
ardly	-12112
banks	-12113
ichen	-12114
iruva	-12115
jools	-12116
▁Hour	-12117
▁Hung	-12118
▁Know	-12119
▁LORD	-12120
▁List	-12121
▁Lore	-12122
▁Miss	-12123
▁Mort	-12124
▁Neld	-12125
▁Nove	-12126
▁Orof	-12127
▁PONY	-12128
▁Pack	-12129
▁Past	-12130
▁Peri	-12131
▁RING	-12132
▁Said	-12133
▁Sand	-12134
▁Seat	-12135
▁Side	-12136
▁Step	-12137
▁True	-12138
▁Vain	-12139
▁Warm	-12140
▁Winy	-12141
▁Yule	-12142
▁airy	-12143
▁appl	-12144
▁attr	-12145
▁baff	-12146
▁bang	-12147
▁beet	-12148
▁bery	-12149
▁calm	-12150
▁chaf	-12151
▁chis	-12152
▁club	-12153
▁corp	-12154
▁cous	-12155
▁dahr	-12156
▁dies	-12157
▁dive	-12158
▁dong	-12159
▁dour	-12160
▁drab	-12161
▁duck	-12162
▁ensn	-12163
▁enth	-12164
▁fant	-12165
▁fasc	-12166
▁fend	-12167
▁fert	-12168
▁feud	-12169
▁firs	-12170
▁frug	-12171
▁gash	-12172
▁gong	-12173
▁hath	-12174
▁hawk	-12175
▁herd	-12176
▁hott	-12177
▁hues	-12178
▁iris	-12179
▁jets	-12180
▁lace	-12181
▁lame	-12182
▁lank	-12183
▁lion	-12184
▁loaf	-12185
▁merc	-12186
▁mice	-12187
▁mish	-12188
▁misj	-12189
▁muse	-12190
▁nast	-12191
▁nimb	-12192
▁oast	-12193
▁oily	-12194
▁pawn	-12195
▁peas	-12196
▁pebb	-12197
▁pent	-12198
▁picn	-12199
rib	-12200
sse	-12201
▁`'	-12202
▁dw	-12203
Khaz	-12204
Name	-12205
Rest	-12206
feit	-12207
inny	-12208
sive	-12209
swer	-12210
▁Cut	-12211
▁Log	-12212
▁kno	-12213
Celeb	-12214
owned	-12215
uable	-12216
wings	-12217
▁Hark	-12218
▁conj	-12219
▁jars	-12220
▁kine	-12221
▁mate	-12222
▁mode	-12223
▁pins	-12224
▁prod	-12225
▁publ	-12226
▁ruth	-12227
▁sage	-12228
▁scal	-12229
▁scan	-12230
▁scum	-12231
▁seal	-12232
▁seer	-12233
▁shod	-12234
▁shoe	-12235
▁slot	-12236
▁snap	-12237
▁sulk	-12238
▁suns	-12239
▁text	-12240
▁trow	-12241
▁unac	-12242
▁whet	-12243
▁whor	-12244
▁yore	-12245
ANCING	-12246
Always	-12247
Amroth	-12248
Anyway	-12249
Begone	-12250
Choose	-12251
Except	-12252
Nassty	-12253
Others	-12254
Praise	-12255
Thirty	-12256
Thrice	-12257
Transl	-12258
Whence	-12259
abouts	-12260
alenas	-12261
alfrey	-12262
anduin	-12263
apable	-12264
areful	-12265
athere	-12266
atleaf	-12267
attled	-12268
auding	-12269
awning	-12270
belmyn	-12271
blasts	-12272
brakes	-12273
cember	-12274
ceptre	-12275
engard	-12276
eriand	-12277
escape	-12278
essory	-12279
etting	-12280
fisher	-12281
fourth	-12282
iantly	-12283
icious	-12284
ilence	-12285
ingles	-12286
iphred	-12287
isfied	-12288
istory	-12289
lacing	-12290
ledged	-12291
little	-12292
litude	-12293
longed	-12294
mbling	-12295
mostly	-12296
obeyed	-12297
oiling	-12298
opener	-12299
aug	-12300
nee	-12301
neek	-12302
nots	-12303
tine	-12304
▁Ach	-12305
▁Gra	-12306
▁Nam	-12307
▁ext	-12308
▁nic	-12309
Blind	-12310
arred	-12311
empty	-12312
laden	-12313
licab	-12314
ulgar	-12315
▁Bear	-12316
▁Halt	-12317
▁Iron	-12318
▁Pits	-12319
▁Seek	-12320
▁cove	-12321
▁eats	-12322
▁edro	-12323
▁pops	-12324
asarin	-12325
ayment	-12326
estroy	-12327
furled	-12328
ndants	-12329
opular	-12330
ouring	-12331
pended	-12332
please	-12333
plings	-12334
pphire	-12335
rasure	-12336
remely	-12337
remorn	-12338
ricade	-12339
rieved	-12340
ripped	-12341
smials	-12342
spoilt	-12343
thread	-12344
uckles	-12345
uished	-12346
uistic	-12347
ulduin	-12348
unless	-12349
volent	-12350
warrow	-12351
welfth	-12352
wright	-12353
xities	-12354
▁Ambar	-12355
▁Ancal	-12356
▁Ashen	-12357
▁Banks	-12358
▁Baraz	-12359
▁Birds	-12360
▁Boats	-12361
▁Close	-12362
▁Doors	-12363
▁Eagle	-12364
▁Early	-12365
▁Earth	-12366
▁Enter	-12367
▁Faces	-12368
▁Feast	-12369
▁Flame	-12370
▁Found	-12371
▁Halif	-12372
▁Heavy	-12373
▁Herbs	-12374
▁Huorn	-12375
▁Lasse	-12376
▁Lying	-12377
▁Magic	-12378
▁Might	-12379
▁Mithl	-12380
▁Moors	-12381
▁Nenya	-12382
▁Noman	-12383
▁Oaken	-12384
▁Ossir	-12385
▁Peace	-12386
▁Ringl	-12387
▁Rowan	-12388
▁Ruler	-12389
▁Satur	-12390
▁Smaug	-12391
▁Smoke	-12392
▁Spear	-12393
▁Stick	-12394
▁Swear	-12395
▁Swert	-12396
▁Troop	-12397
▁Truly	-12398
▁Trust	-12399
his	-12400
pro	-12401
cell	-12402
eted	-12403
ossy	-12404
size	-12405
▁Anx	-12406
▁Ice	-12407
▁TWO	-12408
▁cob	-12409
▁yea	-12410
▁Cock	-12411
▁Lair	-12412
▁Mill	-12413
▁Reck	-12414
▁boar	-12415
▁burg	-12416
▁doth	-12417
▁doub	-12418
▁rill	-12419
▁seet	-12420
▁sust	-12421
Excell	-12422
herald	-12423
isshed	-12424
opened	-12425
ourage	-12426
▁Happy	-12427
▁Hound	-12428
▁Place	-12429
▁Rhosg	-12430
▁Whene	-12431
▁Wight	-12432
▁Words	-12433
▁Worst	-12434
▁acted	-12435
▁alley	-12436
▁alter	-12437
▁amaze	-12438
▁apron	-12439
▁astir	-12440
▁bites	-12441
▁bivou	-12442
▁bliss	-12443
▁bolts	-12444
▁brats	-12445
▁broil	-12446
▁brute	-12447
▁caged	-12448
▁capit	-12449
▁carve	-12450
▁casts	-12451
▁chink	-12452
▁clasp	-12453
▁coals	-12454
▁coast	-12455
▁coats	-12456
▁coils	-12457
▁cones	-12458
▁couch	-12459
▁cower	-12460
▁crann	-12461
▁crave	-12462
▁curls	-12463
▁daint	-12464
▁dazed	-12465
▁deals	-12466
▁domed	-12467
▁dress	-12468
▁dusky	-12469
▁eased	-12470
▁elbow	-12471
▁emiss	-12472
▁error	-12473
▁excav	-12474
▁eyots	-12475
▁fatal	-12476
▁firth	-12477
▁flabb	-12478
▁float	-12479
▁flock	-12480
▁frame	-12481
▁frank	-12482
▁fring	-12483
▁grove	-12484
▁harps	-12485
▁hazel	-12486
▁hears	-12487
▁heron	-12488
▁hides	-12489
▁hilly	-12490
▁hover	-12491
▁humps	-12492
▁inade	-12493
▁intol	-12494
▁jests	-12495
▁lowly	-12496
▁manes	-12497
▁manus	-12498
▁mates	-12499
GU	-12500
yo	-12501
jar	-12502
lee	-12503
pat	-12504
▁Gi	-12505
▁Je	-12506
▁Saf	-12507
▁abl	-12508
▁nur	-12509
Could	-12510
Forth	-12511
herds	-12512
riage	-12513
shaft	-12514
▁Mard	-12515
▁Stop	-12516
▁ajar	-12517
▁apes	-12518
▁cake	-12519
▁garb	-12520
▁knob	-12521
▁malt	-12522
▁nods	-12523
▁tens	-12524
▁tick	-12525
▁ungr	-12526
bodies	-12527
closed	-12528
mitted	-12529
obwebs	-12530
raiths	-12531
▁Jewel	-12532
▁Names	-12533
▁Siege	-12534
▁Wiser	-12535
▁froze	-12536
▁hullo	-12537
▁mayor	-12538
▁mills	-12539
▁miruv	-12540
▁model	-12541
▁mover	-12542
▁nerve	-12543
▁newer	-12544
▁niche	-12545
▁nohow	-12546
▁noose	-12547
▁notch	-12548
▁nurse	-12549
▁obliv	-12550
▁olive	-12551
▁outsp	-12552
▁owner	-12553
▁palan	-12554
▁palms	-12555
▁parce	-12556
▁pelts	-12557
▁penna	-12558
▁plate	-12559
▁prank	-12560
▁prete	-12561
▁pried	-12562
▁procl	-12563
▁quays	-12564
▁rainy	-12565
▁rally	-12566
▁rayed	-12567
▁renew	-12568
▁reven	-12569
▁rinds	-12570
▁ripen	-12571
▁rogue	-12572
▁rolls	-12573
▁rowed	-12574
▁runda	-12575
▁sandy	-12576
▁scale	-12577
▁scarf	-12578
▁shady	-12579
▁shred	-12580
▁siliv	-12581
▁sinks	-12582
▁slugs	-12583
▁smoky	-12584
▁snail	-12585
▁snout	-12586
▁sober	-12587
▁speck	-12588
▁spire	-12589
▁spurs	-12590
▁stink	-12591
▁studs	-12592
▁swath	-12593
▁thine	-12594
▁thwin	-12595
▁tithe	-12596
▁tobac	-12597
▁trans	-12598
▁trous	-12599
1,	-12600
▁Me	-12601
▁ew	-12602
▁mi	-12603
Pray	-12604
cram	-12605
ello	-12606
▁Eil	-12607
▁blo	-12608
Truly	-12609
akers	-12610
asier	-12611
every	-12612
olute	-12613
phies	-12614
▁Rain	-12615
▁Sons	-12616
▁caps	-12617
▁dint	-12618
▁hook	-12619
▁moot	-12620
▁pays	-12621
Dotard	-12622
Easier	-12623
argoth	-12624
garden	-12625
umbale	-12626
▁Uncle	-12627
▁Uruks	-12628
▁beads	-12629
▁cedar	-12630
▁gloat	-12631
▁heave	-12632
▁punch	-12633
▁twang	-12634
▁tying	-12635
▁undes	-12636
▁undid	-12637
▁unlab	-12638
▁unlit	-12639
▁upset	-12640
▁venge	-12641
▁vents	-12642
▁verge	-12643
▁verse	-12644
▁waken	-12645
▁wanes	-12646
▁warns	-12647
▁wedge	-12648
▁wroth	-12649
Calling	-12650
Careful	-12651
Comfort	-12652
Fangorn	-12653
Foolish	-12654
Morning	-12655
Quietly	-12656
Running	-12657
Tonight	-12658
Trapped	-12659
amilies	-12660
amoured	-12661
astways	-12662
aveyard	-12663
bearers	-12664
berries	-12665
braries	-12666
brimmed	-12667
chamber	-12668
covered	-12669
cromanc	-12670
feather	-12671
figures	-12672
fortune	-12673
friends	-12674
growing	-12675
hension	-12676
ighting	-12677
ionally	-12678
jection	-12679
keeping	-12680
leading	-12681
letters	-12682
loating	-12683
manship	-12684
movable	-12685
niphred	-12686
ounding	-12687
ourtesy	-12688
parties	-12689
passage	-12690
pensive	-12691
planned	-12692
quished	-12693
reature	-12694
rolling	-12695
streams	-12696
strides	-12697
strokes	-12698
theless	-12699
Ar	-12700
IT	-12701
Lo	-12702
llo	-12703
abor	-12704
ewed	-12705
▁Lie	-12706
▁Won	-12707
▁ker	-12708
▁nef	-12709
Greet	-12710
Pride	-12711
carts	-12712
iless	-12713
saken	-12714
▁Andy	-12715
▁bids	-12716
▁gape	-12717
▁hoot	-12718
▁kerb	-12719
▁moor	-12720
▁outr	-12721
▁tilt	-12722
▁trim	-12723
ffered	-12724
gerows	-12725
naught	-12726
ricate	-12727
▁Melui	-12728
▁gasps	-12729
▁items	-12730
▁rinen	-12731
▁rusty	-12732
anguage	-12733
gorical	-12734
ndingle	-12735
purpose	-12736
threads	-12737
tongues	-12738
trodden	-12739
unching	-12740
urthang	-12741
venteen	-12742
whither	-12743
wrapped	-12744
written	-12745
wrought	-12746
▁Begone	-12747
▁Bombur	-12748
▁Breath	-12749
▁Bright	-12750
▁Carnim	-12751
▁Chubbs	-12752
▁Couldn	-12753
▁Double	-12754
▁Egleri	-12755
▁Erebor	-12756
▁Excuse	-12757
▁Fallen	-12758
▁Flight	-12759
▁Fundin	-12760
▁Giants	-12761
▁Grubbs	-12762
▁Health	-12763
▁Homely	-12764
▁Hunger	-12765
▁Leaves	-12766
▁Lights	-12767
▁Living	-12768
▁Nearer	-12769
▁Noakes	-12770
▁Orders	-12771
▁Rimmon	-12772
▁Shafts	-12773
▁Shrill	-12774
▁Softly	-12775
▁Sorrow	-12776
▁Steady	-12777
▁Stroke	-12778
▁Sunday	-12779
▁Twenty	-12780
▁Valour	-12781
▁Winged	-12782
▁Wouldn	-12783
▁abrupt	-12784
▁admire	-12785
▁affray	-12786
▁aiding	-12787
▁ailing	-12788
▁altern	-12789
▁arouse	-12790
▁ashore	-12791
▁awakes	-12792
▁badger	-12793
▁barbed	-12794
▁barges	-12795
▁barked	-12796
▁baying	-12797
▁behalf	-12798
▁behave	-12799
don	-12800
Twas	-12801
comb	-12802
fola	-12803
ivid	-12804
onse	-12805
rnil	-12806
▁Cel	-12807
▁Ech	-12808
▁Fey	-12809
▁Pro	-12810
▁lug	-12811
Ernil	-12812
cover	-12813
dwell	-12814
heryn	-12815
tales	-12816
unity	-12817
uruks	-12818
▁Flad	-12819
▁Lang	-12820
▁aear	-12821
▁dewy	-12822
▁gunw	-12823
▁hive	-12824
▁howl	-12825
▁mats	-12826
▁toad	-12827
▁unsl	-12828
ivings	-12829
summer	-12830
▁Echor	-12831
▁Forts	-12832
▁Makes	-12833
▁Narvi	-12834
▁Whose	-12835
▁abund	-12836
▁berry	-12837
▁dissu	-12838
▁fosse	-12839
▁gorse	-12840
▁idiot	-12841
▁revie	-12842
▁shell	-12843
▁sturd	-12844
▁waked	-12845
▁woken	-12846
Command	-12847
▁Imloth	-12848
▁Orcses	-12849
▁Partly	-12850
▁betide	-12851
▁blared	-12852
▁blasts	-12853
▁boiled	-12854
▁borrow	-12855
▁braced	-12856
▁brakes	-12857
▁brands	-12858
▁breaks	-12859
▁bricks	-12860
▁bronze	-12861
▁brutes	-12862
▁bubble	-12863
▁bumped	-12864
▁busily	-12865
▁cattle	-12866
▁caused	-12867
▁clutch	-12868
▁coarse	-12869
▁colony	-12870
▁comers	-12871
▁commot	-12872
▁commun	-12873
▁confir	-12874
▁constr	-12875
▁conven	-12876
▁covert	-12877
▁crafty	-12878
▁cupped	-12879
▁dahrar	-12880
▁dances	-12881
▁delays	-12882
▁delver	-12883
▁descry	-12884
▁detect	-12885
▁devils	-12886
▁divide	-12887
▁dotage	-12888
▁drawer	-12889
▁drying	-12890
▁duller	-12891
▁eluded	-12892
▁erring	-12893
▁exting	-12894
▁fables	-12895
▁feasts	-12896
▁fenced	-12897
▁flagon	-12898
▁floods	-12899
OB	-12900
?_'	-12901
Sne	-12902
six	-12903
Snow	-12904
feld	-12905
haft	-12906
ites	-12907
just	-12908
▁env	-12909
▁zig	-12910
Again	-12911
Later	-12912
igher	-12913
quets	-12914
shall	-12915
▁1070	-12916
▁Rule	-12917
▁Slay	-12918
▁doze	-12919
▁gird	-12920
▁inac	-12921
▁wilt	-12922
Listen	-12923
arched	-12924
uggler	-12925
▁aglar	-12926
▁bacon	-12927
▁bared	-12928
▁chalk	-12929
▁crust	-12930
▁geese	-12931
▁grope	-12932
▁reign	-12933
▁unbur	-12934
▁undul	-12935
Against	-12936
mantled	-12937
▁Fierce	-12938
▁Higher	-12939
▁booths	-12940
▁chiefs	-12941
▁foaled	-12942
▁fodder	-12943
▁furled	-12944
▁gibbet	-12945
▁ginger	-12946
▁glossy	-12947
▁gravel	-12948
▁graver	-12949
▁greasy	-12950
▁groups	-12951
▁guises	-12952
▁habits	-12953
▁harken	-12954
▁harmed	-12955
▁harped	-12956
▁hating	-12957
▁haught	-12958
▁helmet	-12959
▁hiruva	-12960
▁homely	-12961
▁imagin	-12962
▁incant	-12963
▁indepe	-12964
▁injury	-12965
▁inspir	-12966
▁invent	-12967
▁jerkin	-12968
▁jester	-12969
▁joking	-12970
▁jutted	-12971
▁kindle	-12972
▁knocks	-12973
▁labels	-12974
▁ladies	-12975
▁lapped	-12976
▁laughs	-12977
▁leaden	-12978
▁learnt	-12979
▁liable	-12980
▁lichen	-12981
▁liquid	-12982
▁liquor	-12983
▁lodges	-12984
▁loving	-12985
▁lulled	-12986
▁manger	-12987
▁marred	-12988
▁masted	-12989
▁melody	-12990
▁mixing	-12991
▁molten	-12992
▁mosses	-12993
▁museum	-12994
▁native	-12995
▁nature	-12996
▁needle	-12997
▁netted	-12998
▁nimbly	-12999
'-	-13000
LE	-13001
fle	-13002
has	-13003
phy	-13004
rep	-13005
▁Wr	-13006
▁rn	-13007
ilex	-13008
lily	-13009
make	-13010
▁Hoy	-13011
▁jun	-13012
Folly	-13013
Mercy	-13014
hylls	-13015
raphy	-13016
these	-13017
urray	-13018
▁Vari	-13019
▁ilex	-13020
▁miel	-13021
▁pint	-13022
▁rein	-13023
▁rnur	-13024
▁suit	-13025
Hardly	-13026
Hurray	-13027
Seldom	-13028
ending	-13029
strate	-13030
▁Ships	-13031
▁goest	-13032
▁laved	-13033
▁toler	-13034
ography	-13035
▁Silvan	-13036
▁ablaze	-13037
▁battal	-13038
▁fronds	-13039
▁ghylls	-13040
▁horned	-13041
▁margin	-13042
▁mayhap	-13043
▁nuncle	-13044
▁observ	-13045
▁obstin	-13046
▁opport	-13047
▁ostler	-13048
▁owners	-13049
▁penetr	-13050
▁perple	-13051
▁picnic	-13052
▁pocked	-13053
▁police	-13054
▁polish	-13055
▁poorer	-13056
▁quaked	-13057
▁racing	-13058
▁racket	-13059
▁rascal	-13060
▁rattle	-13061
▁rebell	-13062
▁rebels	-13063
▁recapt	-13064
▁reduce	-13065
▁reined	-13066
▁rejoin	-13067
▁relent	-13068
▁result	-13069
▁revive	-13070
▁rhythm	-13071
▁rimmed	-13072
▁risked	-13073
▁runner	-13074
▁sacred	-13075
▁sample	-13076
▁sealed	-13077
▁seared	-13078
▁shoals	-13079
▁sinews	-13080
▁singer	-13081
▁sipped	-13082
▁skulls	-13083
▁slimed	-13084
▁slowed	-13085
▁snails	-13086
▁sneaks	-13087
▁soiled	-13088
▁solely	-13089
▁spoilt	-13090
▁spooks	-13091
▁sprink	-13092
▁squand	-13093
▁stocks	-13094
▁storms	-13095
▁straps	-13096
▁stumpy	-13097
▁subdue	-13098
▁surety	-13099
ta	-13100
▁AN	-13101
Talk	-13102
gees	-13103
isel	-13104
▁Rec	-13105
▁Yea	-13106
Kings	-13107
blore	-13108
meant	-13109
wrack	-13110
▁Lend	-13111
▁Yess	-13112
▁dams	-13113
▁fits	-13114
▁grat	-13115
▁lure	-13116
▁pads	-13117
abbled	-13118
banked	-13119
hobbit	-13120
shapes	-13121
▁Glade	-13122
▁Seems	-13123
▁Wargs	-13124
▁badge	-13125
▁booty	-13126
▁civil	-13127
▁fishy	-13128
▁hilts	-13129
▁refus	-13130
▁revol	-13131
▁skull	-13132
▁super	-13133
Talking	-13134
crebain	-13135
ithered	-13136
▁Mounds	-13137
▁Return	-13138
▁casket	-13139
▁chisel	-13140
▁dagger	-13141
▁huddle	-13142
▁humour	-13143
▁insult	-13144
▁padded	-13145
▁raging	-13146
▁rivals	-13147
▁stewed	-13148
▁surged	-13149
▁survey	-13150
▁timber	-13151
▁tolled	-13152
▁transp	-13153
▁tucked	-13154
▁twilit	-13155
▁twined	-13156
▁tyrant	-13157
▁undead	-13158
▁undefe	-13159
▁unexpl	-13160
▁unfore	-13161
▁unfort	-13162
▁unmade	-13163
▁unmist	-13164
▁unreal	-13165
▁unshod	-13166
▁untame	-13167
▁untidy	-13168
▁uproar	-13169
▁upside	-13170
▁vainly	-13171
▁vaults	-13172
▁vermin	-13173
▁victor	-13174
▁wafers	-13175
▁walled	-13176
▁warmly	-13177
▁washes	-13178
▁weaker	-13179
▁wedded	-13180
▁wights	-13181
▁wilful	-13182
▁wormed	-13183
▁wrench	-13184
Anything	-13185
Darkness	-13186
Entwives	-13187
Herblore	-13188
Isengard	-13189
Needless	-13190
Radagast	-13191
Remember	-13192
Sneaking	-13193
Together	-13194
Tomorrow	-13195
allenged	-13196
ammering	-13197
angement	-13198
anything	-13199
wa	-13200
ole	-13201
▁Kn	-13202
cake	-13203
circ	-13204
mess	-13205
rove	-13206
▁140	-13207
bowls	-13208
warri	-13209
▁Post	-13210
▁Roll	-13211
▁flax	-13212
▁goal	-13213
▁hosp	-13214
▁pest	-13215
hoards	-13216
people	-13217
worthy	-13218
▁Hayse	-13219
▁aisle	-13220
▁beryl	-13221
▁boils	-13222
▁caper	-13223
▁grins	-13224
▁mince	-13225
▁minor	-13226
▁tipsy	-13227
▁total	-13228
▁vanwa	-13229
mallorn	-13230
warrior	-13231
▁Cheers	-13232
▁Search	-13233
▁Wraith	-13234
▁ambass	-13235
▁biding	-13236
▁cellar	-13237
▁commod	-13238
▁linked	-13239
▁overhe	-13240
▁quarry	-13241
▁shrink	-13242
▁snowed	-13243
▁tinkle	-13244
Halbarad	-13245
asarinan	-13246
astiness	-13247
atisfied	-13248
aughters	-13249
auremorn	-13250
breakers	-13251
cessible	-13252
cleaning	-13253
climbing	-13254
clippety	-13255
creature	-13256
crossing	-13257
dwellers	-13258
enchable	-13259
enerable	-13260
gleaming	-13261
heralded	-13262
hevelled	-13263
imicking	-13264
ithering	-13265
ithildin	-13266
ivelling	-13267
kerchief	-13268
lendings	-13269
membered	-13270
mounting	-13271
ondently	-13272
oubtless	-13273
ppledore	-13274
windowed	-13275
▁Angband	-13276
▁BAGGINS	-13277
▁Barrows	-13278
▁Biggest	-13279
▁Blessed	-13280
▁Bonfire	-13281
▁Casting	-13282
▁Chapter	-13283
▁Clearly	-13284
▁Command	-13285
▁Deadmen	-13286
▁Derufin	-13287
▁Despair	-13288
▁Doriath	-13289
▁Dwarrow	-13290
▁Egladil	-13291
▁Eglerio	-13292
▁Entmaid	-13293
▁Entwade	-13294
▁Evendim	-13295
▁Finglas	-13296
▁Fladrif	-13297
▁Gamgees	-13298
▁Haysend	-13299
.)	-13300
:'	-13301
gy	-13302
tun	-13303
▁AD	-13304
▁NO	-13305
▁ta	-13306
▁191	-13307
▁Fly	-13308
▁Tor	-13309
Until	-13310
Water	-13311
estre	-13312
opled	-13313
quate	-13314
tired	-13315
whoop	-13316
▁Grip	-13317
▁Serv	-13318
▁unwh	-13319
enance	-13320
finger	-13321
lebeth	-13322
nights	-13323
udging	-13324
▁boast	-13325
▁brisk	-13326
▁gusts	-13327
▁joint	-13328
▁sages	-13329
▁sizes	-13330
▁spake	-13331
▁sunny	-13332
▁tenth	-13333
▁trove	-13334
Dwarves	-13335
flowing	-13336
founded	-13337
umpling	-13338
▁Giving	-13339
▁Riddle	-13340
▁Sancho	-13341
▁apiece	-13342
▁ascend	-13343
▁ascent	-13344
▁dispir	-13345
▁orwine	-13346
▁paving	-13347
▁sensed	-13348
▁vessel	-13349
▁wilted	-13350
Elfstone	-13351
Grievous	-13352
consider	-13353
presents	-13354
▁Hayward	-13355
▁Hithoel	-13356
▁Holding	-13357
▁Instead	-13358
▁Leaving	-13359
▁Lidless	-13360
▁Lugdush	-13361
▁Marches	-13362
▁Masters	-13363
▁Mortals	-13364
▁Nargoth	-13365
▁Nimloth	-13366
▁Onodrim	-13367
▁Orofarn	-13368
▁Panting	-13369
▁Peering	-13370
▁Plainly	-13371
▁Raising	-13372
▁Roheryn	-13373
▁Running	-13374
▁Seizing	-13375
▁Setting	-13376
▁Silence	-13377
▁Thangor	-13378
▁Towards	-13379
▁Unnamed	-13380
▁Valinor	-13381
▁Waiting	-13382
▁Walkers	-13383
▁Welling	-13384
▁advance	-13385
▁ageless	-13386
▁agelong	-13387
▁alcoves	-13388
▁allured	-13389
▁amended	-13390
▁angered	-13391
▁appears	-13392
▁arising	-13393
▁armoury	-13394
▁aroused	-13395
▁arrange	-13396
▁assured	-13397
▁averted	-13398
▁badgers	-13399
7,	-13400
OWS	-13401
nels	-13402
▁Odo	-13403
fells	-13404
forth	-13405
inite	-13406
ivity	-13407
maker	-13408
since	-13409
thorn	-13410
▁FOES	-13411
▁Full	-13412
▁Need	-13413
▁Same	-13414
▁dise	-13415
▁flaw	-13416
▁fray	-13417
▁grot	-13418
▁larn	-13419
▁sawn	-13420
burrow	-13421
leaved	-13422
▁1147,	-13423
▁brace	-13424
▁harry	-13425
▁hawks	-13426
▁sneer	-13427
▁troth	-13428
▁whine	-13429
falling	-13430
▁Holman	-13431
▁Palant	-13432
▁Smokes	-13433
▁ancest	-13434
▁elanor	-13435
▁evilly	-13436
▁lugged	-13437
▁plough	-13438
▁posted	-13439
▁unfast	-13440
▁untrue	-13441
Farthing	-13442
awakened	-13443
itchment	-13444
mountain	-13445
▁Gilrain	-13446
▁agility	-13447
▁balcony	-13448
▁baldric	-13449
▁bandage	-13450
▁banging	-13451
▁barking	-13452
▁beaches	-13453
▁beaming	-13454
▁bedside	-13455
▁beeches	-13456
▁beetles	-13457
▁belched	-13458
▁bellies	-13459
▁benches	-13460
▁bestial	-13461
▁binding	-13462
▁blankly	-13463
▁blemish	-13464
▁bloated	-13465
▁boldest	-13466
▁bramble	-13467
▁breadth	-13468
▁bubbled	-13469
▁builded	-13470
▁builder	-13471
▁bunched	-13472
▁bundles	-13473
▁captors	-13474
▁carving	-13475
▁charges	-13476
▁charred	-13477
▁chasing	-13478
▁chatter	-13479
▁clicked	-13480
▁clipped	-13481
▁closest	-13482
▁cobwebs	-13483
▁cocking	-13484
▁comical	-13485
▁commend	-13486
▁compens	-13487
▁conduct	-13488
▁confirm	-13489
▁consent	-13490
▁cordial	-13491
▁cousins	-13492
▁cracker	-13493
▁crackle	-13494
▁croaked	-13495
▁crosses	-13496
▁crumble	-13497
▁curdled	-13498
▁dappled	-13499
;_	-13500
PS	-13501
-';	-13502
Bar	-13503
Orc	-13504
bar	-13505
▁-_	-13506
▁tu	-13507
eron	-13508
▁Dad	-13509
▁Van	-13510
Haste	-13511
boots	-13512
ilous	-13513
shade	-13514
▁anem	-13515
▁exer	-13516
▁unqu	-13517
▁vice	-13518
▁wisp	-13519
Barley	-13520
mented	-13521
▁Folde	-13522
▁Midge	-13523
▁Mithe	-13524
▁babel	-13525
▁bandy	-13526
▁beans	-13527
▁clime	-13528
▁layer	-13529
▁parch	-13530
▁shave	-13531
▁sloth	-13532
Revenge	-13533
gathere	-13534
learned	-13535
▁Rulers	-13536
▁TOWERS	-13537
▁foamed	-13538
▁frugal	-13539
▁goodly	-13540
▁potent	-13541
▁Candles	-13542
▁Healers	-13543
▁Renewed	-13544
▁adopted	-13545
▁advised	-13546
▁dashing	-13547
▁daymeal	-13548
▁deepens	-13549
▁deepest	-13550
▁deliber	-13551
▁deluded	-13552
▁demands	-13553
▁details	-13554
▁diamond	-13555
▁dismiss	-13556
▁disused	-13557
▁doubled	-13558
▁drizzle	-13559
▁drowsed	-13560
▁drunken	-13561
▁dwimmer	-13562
▁dwindle	-13563
▁eddying	-13564
▁edraith	-13565
▁elenath	-13566
▁elusive	-13567
▁embassy	-13568
▁escapes	-13569
▁estates	-13570
▁express	-13571
▁farmers	-13572
▁fawning	-13573
▁fearful	-13574
▁feeding	-13575
▁fertile	-13576
▁fevered	-13577
▁flaring	-13578
▁flashes	-13579
▁flitted	-13580
▁follies	-13581
▁footpad	-13582
▁foresaw	-13583
▁forfeit	-13584
▁forgets	-13585
▁fraught	-13586
▁freshen	-13587
▁freshet	-13588
▁furnace	-13589
▁gallant	-13590
▁gangrel	-13591
▁glaring	-13592
▁gloated	-13593
▁gunwale	-13594
▁gurgled	-13595
▁gutters	-13596
▁hacking	-13597
▁hatchet	-13598
▁haughty	-13599
Hoy	-13600
can	-13601
izz	-13602
▁.'	-13603
Fish	-13604
Halt	-13605
Past	-13606
Sssh	-13607
lady	-13608
them	-13609
▁Fog	-13610
▁Hop	-13611
▁MOR	-13612
▁Pit	-13613
▁fab	-13614
▁mop	-13615
▁upr	-13616
Thief	-13617
alent	-13618
canny	-13619
chill	-13620
hasty	-13621
heads	-13622
▁Cast	-13623
▁gown	-13624
▁shun	-13625
Safely	-13626
entive	-13627
▁Blade	-13628
▁Brief	-13629
▁Eress	-13630
▁Grief	-13631
▁Kibil	-13632
▁Mercy	-13633
▁Voice	-13634
▁alien	-13635
▁roast	-13636
▁wrack	-13637
Wraiths	-13638
agement	-13639
walkers	-13640
▁Guesth	-13641
▁allied	-13642
▁amount	-13643
▁awhile	-13644
▁beacon	-13645
▁counts	-13646
▁fatter	-13647
▁flurry	-13648
▁inflow	-13649
▁insect	-13650
▁learns	-13651
▁squeal	-13652
▁wedges	-13653
▁yearns	-13654
▁Believe	-13655
▁Hunters	-13656
▁Variags	-13657
▁briefer	-13658
▁cellars	-13659
▁clawing	-13660
▁cleaned	-13661
▁effects	-13662
▁fattest	-13663
▁heading	-13664
▁hearken	-13665
▁heathen	-13666
▁helpful	-13667
▁hidings	-13668
▁hottest	-13669
▁hurling	-13670
▁improve	-13671
▁impulse	-13672
▁inquire	-13673
▁intaken	-13674
▁intertw	-13675
▁jackets	-13676
▁jeering	-13677
▁juggler	-13678
▁kinsmen	-13679
▁lamplit	-13680
▁lapping	-13681
▁legions	-13682
▁listens	-13683
▁loosely	-13684
▁loyalty	-13685
▁maggots	-13686
▁manhood	-13687
▁manners	-13688
▁matched	-13689
▁miruvor	-13690
▁mission	-13691
▁moonlit	-13692
▁napping	-13693
▁nestled	-13694
▁nibbled	-13695
▁objects	-13696
▁obscure	-13697
▁obvious	-13698
▁orderly	-13699
Him	-13700
did	-13701
Aiya	-13702
Luck	-13703
Yrch	-13704
▁pet	-13705
Third	-13706
bells	-13707
miruv	-13708
▁1418	-13709
▁Prim	-13710
▁bury	-13711
▁cosy	-13712
▁fero	-13713
Behind	-13714
Nearly	-13715
agging	-13716
asleep	-13717
breeze	-13718
delved	-13719
killer	-13720
umping	-13721
▁Hador	-13722
▁Nasty	-13723
▁Short	-13724
▁broth	-13725
▁chips	-13726
▁fists	-13727
▁lifts	-13728
▁proce	-13729
▁sinew	-13730
▁tipto	-13731
Friends	-13732
telling	-13733
▁Burrow	-13734
▁Mardil	-13735
▁busier	-13736
▁bygone	-13737
▁calend	-13738
▁crunch	-13739
▁drinks	-13740
▁faring	-13741
▁fealty	-13742
▁flutes	-13743
▁gollum	-13744
▁jewell	-13745
▁marrow	-13746
▁plunge	-13747
▁throws	-13748
▁trudge	-13749
▁wading	-13750
draughts	-13751
▁Peoples	-13752
▁Somehow	-13753
▁coursed	-13754
▁melting	-13755
▁memoirs	-13756
▁nuzzled	-13757
▁outlast	-13758
▁outlier	-13759
▁outline	-13760
▁palaces	-13761
▁palfrey	-13762
▁passion	-13763
▁patrols	-13764
▁payment	-13765
▁pebbles	-13766
▁pencils	-13767
▁perched	-13768
▁phalanx	-13769
▁pilgrim	-13770
▁pitched	-13771
▁plaited	-13772
▁pleases	-13773
▁plotted	-13774
▁plucked	-13775
▁pockets	-13776
▁poorest	-13777
▁popping	-13778
▁postern	-13779
▁presume	-13780
▁prevail	-13781
▁prisons	-13782
▁problem	-13783
▁produce	-13784
▁prosper	-13785
▁prowess	-13786
▁quieter	-13787
▁raiding	-13788
▁ranging	-13789
▁ravaged	-13790
▁ravines	-13791
▁regains	-13792
▁regular	-13793
▁rejoice	-13794
▁restful	-13795
▁revived	-13796
▁rewards	-13797
▁risking	-13798
▁roaming	-13799
Deep	-13800
tter	-13801
▁Nai	-13802
While	-13803
▁core	-13804
▁garn	-13805
Broken	-13806
Cirith	-13807
▁Scary	-13808
▁unclo	-13809
▁Erelas	-13810
▁lashes	-13811
▁unshap	-13812
Deserves	-13813
▁Putting	-13814
▁amongst	-13815
▁gobbler	-13816
▁rousing	-13817
▁royalty	-13818
▁ruining	-13819
▁saddled	-13820
▁saddles	-13821
▁sagging	-13822
▁saluted	-13823
▁scanned	-13824
▁scaring	-13825
▁scarves	-13826
▁sceptre	-13827
▁schemes	-13828
▁scooped	-13829
▁scraped	-13830
▁scratch	-13831
▁scrawls	-13832
▁scrolls	-13833
▁seaward	-13834
▁seconds	-13835
▁seeding	-13836
▁seizing	-13837
▁severed	-13838
▁shaping	-13839
▁shingle	-13840
▁shivers	-13841
▁shocked	-13842
▁shunned	-13843
▁sisters	-13844
▁skinned	-13845
▁skipped	-13846
▁skirted	-13847
▁sleeves	-13848
▁slowing	-13849
▁slumped	-13850
▁smiting	-13851
▁snoring	-13852
▁soundly	-13853
▁spanned	-13854
▁spawned	-13855
▁spitted	-13856
▁springy	-13857
▁stagger	-13858
▁steeped	-13859
▁storage	-13860
▁storied	-13861
▁stoutly	-13862
▁stroked	-13863
▁stumble	-13864
▁stumped	-13865
▁subject	-13866
▁succour	-13867
▁sucking	-13868
▁suffice	-13869
▁sulkily	-13870
▁survive	-13871
▁swallow	-13872
▁sweeter	-13873
▁tatters	-13874
▁tempers	-13875
▁tempest	-13876
▁threats	-13877
▁thrones	-13878
▁thudded	-13879
▁tingled	-13880
▁tobacco	-13881
▁topical	-13882
▁torture	-13883
▁touches	-13884
▁tracery	-13885
▁trained	-13886
▁tricked	-13887
▁trinket	-13888
▁trouser	-13889
▁trowels	-13890
▁truants	-13891
▁trussed	-13892
▁tugging	-13893
▁unaided	-13894
▁unarmed	-13895
▁unclean	-13896
▁undying	-13897
▁unslung	-13898
▁upstart	-13899
▁urgency	-13900
▁virtues	-13901
▁voicing	-13902
▁wanders	-13903
▁wardens	-13904
▁warlike	-13905
▁warming	-13906
▁warring	-13907
▁wearied	-13908
▁wearier	-13909
▁wherein	-13910
▁whortle	-13911
▁wielder	-13912
▁wildest	-13913
▁woodman	-13914
▁workers	-13915
▁worsted	-13916
▁wraiths	-13917
▁wrested	-13918
▁wrights	-13919
▁writhen	-13920
Blindfold	-13921
Butterbur	-13922
Caradhras	-13923
Doubtless	-13924
Excellent	-13925
Galadriel	-13926
Greetings	-13927
Halflings	-13928
Miserable	-13929
Shadowfax	-13930
asionally	-13931
buildings	-13932
countably	-13933
cromancer	-13934
elligence	-13935
escapable	-13936
gathering	-13937
hastiness	-13938
lebethron	-13939
mountains	-13940
niphredil	-13941
preserved	-13942
simbelmyn	-13943
unchanged	-13944
wrappings	-13945
▁Aglarond	-13946
▁Bardings	-13947
▁Bounders	-13948
▁Business	-13949
▁Calenhad	-13950
▁Cowering	-13951
▁December	-13952
▁Dreadful	-13953
▁Durthang	-13954
▁Eilenach	-13955
▁Enormous	-13956
▁Everyone	-13957
▁Fanuilos	-13958
▁Fenmarch	-13959
▁Fighting	-13960
▁Findegil	-13961
▁Floating	-13962
▁Goatleaf	-13963
▁Hurrying	-13964
▁Limlight	-13965
▁Meneldil	-13966
▁Meneldor	-13967
▁Mistress	-13968
▁Mithlond	-13969
▁Moreover	-13970
▁November	-13971
▁Outlands	-13972
▁PRANCING	-13973
▁Pursuing	-13974
▁Reckless	-13975
▁Saturday	-13976
▁Scouring	-13977
▁Stooping	-13978
▁Stronger	-13979
▁Sunlight	-13980
▁Whenever	-13981
▁Wherever	-13982
▁Windfola	-13983
▁Winyards	-13984
▁admiring	-13985
▁admitted	-13986
▁allegory	-13987
▁amidmost	-13988
▁anemones	-13989
▁appetite	-13990
▁articles	-13991
▁assemble	-13992
▁avenging	-13993
▁avoiding	-13994
▁backward	-13995
▁bastions	-13996
▁bearable	-13997
▁bedrooms	-13998
▁blanched	-13999
▁blazoned	-14000
▁bleeding	-14001
▁blocking	-14002
▁bolsters	-14003
▁bootless	-14004
▁bullying	-14005
▁burnings	-14006
▁bustling	-14007
▁capering	-14008
▁carcases	-14009
▁careworn	-14010
▁charming	-14011
▁circlets	-14012
▁circular	-14013
▁clawlike	-14014
▁cleaning	-14015
▁clinking	-14016
▁clusters	-14017
▁comments	-14018
▁commonly	-14019
▁compared	-14020
▁comprehe	-14021
▁conclave	-14022
▁confines	-14023
▁contempt	-14024
▁contrary	-14025
▁converse	-14026
▁cornered	-14027
▁cringing	-14028
▁critical	-14029
▁crumpled	-14030
▁crystals	-14031
▁currents	-14032
▁dainties	-14033
▁damasked	-14034
▁darksome	-14035
▁daybreak	-14036
▁decrease	-14037
▁defiance	-14038
▁dejected	-14039
▁diamonds	-14040
▁directly	-14041
▁disorder	-14042
▁displeas	-14043
▁disposed	-14044
▁doggedly	-14045
▁draggled	-14046
▁drooping	-14047
▁dwellers	-14048
▁eleventh	-14049
▁enjoying	-14050
▁enlarged	-14051
▁ensnared	-14052
▁especial	-14053
▁exchange	-14054
▁exciting	-14055
▁faintest	-14056
▁favoured	-14057
▁feathers	-14058
▁fidgeted	-14059
▁fighters	-14060
▁firmness	-14061
▁flashing	-14062
▁flattery	-14063
▁flinging	-14064
▁forelegs	-14065
▁formerly	-14066
▁fretting	-14067
▁frontier	-14068
▁fullness	-14069
▁gainsaid	-14070
▁gangways	-14071
▁gingerly	-14072
▁gloaming	-14073
▁glorious	-14074
▁greedily	-14075
▁greyness	-14076
▁grinding	-14077
▁gripping	-14078
▁groaning	-14079
▁guardian	-14080
▁hallowed	-14081
▁harbours	-14082
▁harmless	-14083
▁headless	-14084
▁headlong	-14085
▁hemlocks	-14086
▁heraldry	-14087
▁highways	-14088
▁hitherto	-14089
▁hollowed	-14090
▁homeward	-14091
▁hungered	-14092
▁huntsmen	-14093
▁hurtling	-14094
▁idleness	-14095
▁ignorant	-14096
▁immortal	-14097
▁increase	-14098
▁instruct	-14099
▁joyfully	-14100
▁joyously	-14101
▁keenness	-14102
▁keystone	-14103
▁kindreds	-14104
▁kingship	-14105
▁knuckles	-14106
▁lettered	-14107
▁listener	-14108
▁littered	-14109
▁lodgings	-14110
▁lounging	-14111
▁machines	-14112
▁mansions	-14113
▁mariners	-14114
▁marriage	-14115
▁marshals	-14116
▁mattered	-14117
▁meddling	-14118
▁medicine	-14119
▁melodies	-14120
▁merciful	-14121
▁missiles	-14122
▁mistakes	-14123
▁mistress	-14124
▁modified	-14125
▁monument	-14126
▁moonless	-14127
▁mornings	-14128
▁munching	-14129
▁needless	-14130
▁nibbling	-14131
▁numbered	-14132
▁obedient	-14133
▁obscured	-14134
▁oddities	-14135
▁oddments	-14136
▁official	-14137
▁opinions	-14138
▁ornament	-14139
▁overflow	-14140
▁overlook	-14141
▁overmuch	-14142
▁pastures	-14143
▁pattered	-14144
▁pillared	-14145
▁pillowed	-14146
▁pitiless	-14147
▁planning	-14148
▁populous	-14149
▁portents	-14150
▁practice	-14151
▁preceded	-14152
▁pressure	-14153
▁probable	-14154
▁progress	-14155
▁province	-14156
▁puckered	-14157
▁purchase	-14158
▁quarters	-14159
▁queerest	-14160
▁ramparts	-14161
▁ravening	-14162
▁recesses	-14163
▁reciting	-14164
▁recoiled	-14165
▁recorded	-14166
▁recovery	-14167
▁referred	-14168
▁refilled	-14169
▁reforged	-14170
▁rejected	-14171
▁rejoined	-14172
▁rendered	-14173
▁renegade	-14174
▁replaced	-14175
▁reproach	-14176
▁requires	-14177
▁response	-14178
▁retorted	-14179
▁retraced	-14180
▁revenged	-14181
▁revolved	-14182
▁rightful	-14183
▁roasting	-14184
▁rummaged	-14185
▁rumoured	-14186
▁saplings	-14187
▁sapphire	-14188
▁scornful	-14189
▁scraping	-14190
▁seething	-14191
▁selected	-14192
▁services	-14193
▁shinbone	-14194
▁shingles	-14195
▁shortest	-14196
▁shrieked	-14197
▁silivren	-14198
▁sinister	-14199
▁skirting	-14200
▁sleepers	-14201
▁sleepily	-14202
▁sluggard	-14203
▁smallest	-14204
▁soldiery	-14205
▁solitude	-14206
▁sparsely	-14207
▁spending	-14208
▁spoiling	-14209
▁squatted	-14210
▁starling	-14211
▁steadied	-14212
▁stealthy	-14213
▁storming	-14214
▁strapped	-14215
▁striving	-14216
▁studying	-14217
▁supplies	-14218
▁suspense	-14219
▁swarming	-14220
▁swooping	-14221
▁thinning	-14222
▁toppling	-14223
▁township	-14224
▁treasury	-14225
▁trembles	-14226
▁trophies	-14227
▁trusting	-14228
▁turmoils	-14229
▁twitched	-14230
▁unabated	-14231
▁unbarred	-14232
▁undercut	-14233
▁unlidded	-14234
▁unlovely	-14235
▁unmarked	-14236
▁unmoving	-14237
▁unneeded	-14238
▁unreason	-14239
▁unseeing	-14240
▁unspoilt	-14241
▁unwanted	-14242
▁unwisely	-14243
▁upstairs	-14244
▁upthrust	-14245
▁valuable	-14246
▁vastness	-14247
▁victuals	-14248
▁vigorous	-14249
▁violence	-14250
▁visitors	-14251
▁vultures	-14252
▁wantonly	-14253
▁wariness	-14254
▁weighing	-14255
▁whenever	-14256
▁whinnied	-14257
▁whipping	-14258
▁whirling	-14259
▁whitened	-14260
▁withhold	-14261
▁wounding	-14262
▁wrapping	-14263
▁wrinkles	-14264
▁yammered	-14265
▁youngest	-14266
Erkenbrand	-14267
licability	-14268
▁According	-14269
▁Appledore	-14270
▁Baranduin	-14271
▁Beleriand	-14272
▁Blackroot	-14273
▁Burrowses	-14274
▁Doubtless	-14275
▁Eastemnet	-14276
▁Fallohide	-14277
▁Footsteps	-14278
▁Greenleaf	-14279
▁Leastways	-14280
▁Neldoreth	-14281
▁Obstinate	-14282
▁Rhosgobel	-14283
▁Silmarils	-14284
▁Swertings	-14285
▁Tasarinan	-14286
▁Tauremorn	-14287
▁Trembling	-14288
▁accessory	-14289
▁additions	-14290
▁affection	-14291
▁aimlessly	-14292
▁alongside	-14293
▁ancestral	-14294
▁appearing	-14295
▁attacking	-14296
▁avalanche	-14297
▁awkwardly	-14298
▁barricade	-14299
▁beckoning	-14300
▁believing	-14301
▁birthdays	-14302
▁blameless	-14303
▁blossomed	-14304
▁broidered	-14305
▁brushwood	-14306
▁buildings	-14307
▁captivity	-14308
▁caressing	-14309
▁ceaseless	-14310
▁clattered	-14311
▁cluttered	-14312
▁commotion	-14313
▁confessed	-14314
▁confusing	-14315
▁connexion	-14316
▁conscious	-14317
▁consulted	-14318
▁contented	-14319
▁correctly	-14320
▁coverlets	-14321
▁craftsmen	-14322
▁crownless	-14323
▁daughters	-14324
▁decisions	-14325
▁demanding	-14326
▁described	-14327
▁despoiled	-14328
▁disobeyed	-14329
▁displayed	-14330
▁displease	-14331
▁disregard	-14332
▁dissolved	-14333
▁distorted	-14334
▁documents	-14335
▁dominated	-14336
▁dubiously	-14337
▁earthborn	-14338
▁embattled	-14339
▁embrasure	-14340
▁enamoured	-14341
▁enquiries	-14342
▁essential	-14343
▁exhausted	-14344
▁expensive	-14345
▁explained	-14346
▁extremely	-14347
▁falsehood	-14348
▁faltering	-14349
▁famisshed	-14350
▁fearfully	-14351
▁feathered	-14352
▁ferocious	-14353
▁fidgeting	-14354
▁fireplace	-14355
▁fleshless	-14356
▁folklands	-14357
▁foreboded	-14358
▁forebodes	-14359
▁foreheads	-14360
▁fugitives	-14361
▁furtively	-14362
▁gardeners	-14363
▁gauntlets	-14364
▁geography	-14365
▁gladdened	-14366
▁glowering	-14367
▁grandsire	-14368
▁grappling	-14369
▁greenwood	-14370
▁greetings	-14371
▁greybeard	-14372
▁grievance	-14373
▁haltingly	-14374
▁hammering	-14375
▁handiwork	-14376
▁happiness	-14377
▁hedgerows	-14378
▁hideously	-14379
▁hindrance	-14380
▁hobbitses	-14381
▁honeycomb	-14382
▁horsetail	-14383
▁houseless	-14384
▁imitation	-14385
▁immensely	-14386
▁immovable	-14387
▁inaudible	-14388
▁increases	-14389
▁influence	-14390
▁intention	-14391
▁interests	-14392
▁interfere	-14393
▁interpret	-14394
▁intricate	-14395
▁invention	-14396
▁leastways	-14397
▁libraries	-14398
▁lingering	-14399
▁listeners	-14400
▁magnified	-14401
▁masterful	-14402
▁mastering	-14403
▁mimicking	-14404
▁mincemeat	-14405
▁misjudged	-14406
▁mistaking	-14407
▁monstrous	-14408
▁moonshine	-14409
▁murdering	-14410
▁murderous	-14411
▁neglected	-14412
▁nerveless	-14413
▁northmost	-14414
▁onlookers	-14415
▁outspread	-14416
▁outwardly	-14417
▁overjoyed	-14418
▁overthrew	-14419
▁pavements	-14420
▁perfectly	-14421
▁pitifully	-14422
▁pocketses	-14423
▁postponed	-14424
▁prevailed	-14425
▁proffered	-14426
▁prolonged	-14427
▁pronounce	-14428
▁prospered	-14429
▁prostrate	-14430
▁provender	-14431
▁queerness	-14432
▁recognize	-14433
▁reflected	-14434
▁regarding	-14435
▁regiments	-14436
▁remembers	-14437
▁residence	-14438
▁riderless	-14439
▁scorching	-14440
▁scratches	-14441
▁scuffling	-14442
▁senseless	-14443
▁seventeen	-14444
▁shoreless	-14445
▁shortened	-14446
▁shuttered	-14447
▁sickening	-14448
▁slouching	-14449
▁slowcoach	-14450
▁sparingly	-14451
▁splitting	-14452
▁sputtered	-14453
▁squeezing	-14454
▁squirrels	-14455
▁standards	-14456
▁stonework	-14457
▁straddled	-14458
▁supposing	-14459
▁survivors	-14460
▁swordsmen	-14461
▁tenseness	-14462
▁tentacles	-14463
▁thundered	-14464
▁treasured	-14465
▁treatment	-14466
▁twentieth	-14467
▁unceasing	-14468
▁unclasped	-14469
▁unfolding	-14470
▁uninvited	-14471
▁unpopular	-14472
▁untouched	-14473
▁unwatched	-14474
▁uttermost	-14475
▁vengeance	-14476
▁venturing	-14477
▁victories	-14478
▁waterless	-14479
▁weakening	-14480
▁welcoming	-14481
▁whiteness	-14482
▁womanhood	-14483
▁workshops	-14484
▁wrenching	-14485
▁wrestling	-14486
considering	-14487
▁Altogether	-14488
▁Brockhouse	-14489
▁Bucklander	-14490
▁Bullroarer	-14491
▁Derndingle	-14492
▁Everywhere	-14493
▁Firienfeld	-14494
▁Goodbodies	-14495
▁Guesthouse	-14496
▁Halifirien	-14497
▁Langstrand	-14498
▁Lassemista	-14499
▁Mitheithel	-14500
▁Morgulduin	-14501
▁Proudfoots	-14502
▁Shipwright	-14503
▁Silvertine	-14504
▁additional	-14505
▁addressing	-14506
▁allegiance	-14507
▁approaches	-14508
▁assembling	-14509
▁assistance	-14510
▁battalions	-14511
▁befriended	-14512
▁belongings	-14513
▁benevolent	-14514
▁bowstrings	-14515
▁brightened	-14516
▁brightness	-14517
▁burdensome	-14518
▁cheerfully	-14519
▁clambering	-14520
▁clamouring	-14521
▁clustering	-14522
▁coastlands	-14523
▁collection	-14524
▁colourless	-14525
▁comforting	-14526
▁concealing	-14527
▁conclusion	-14528
▁confidence	-14529
▁confounded	-14530
▁consulting	-14531
▁containing	-14532
▁contention	-14533
▁converging	-14534
▁delightful	-14535
▁delighting	-14536
▁discussion	-14537
▁disordered	-14538
▁dispirited	-14539
▁disquieted	-14540
▁downstream	-14541
▁dreadfully	-14542
▁drowsiness	-14543
▁encumbered	-14544
▁excellence	-14545
▁exhaustion	-14546
▁expectancy	-14547
▁expedition	-14548
▁fascinated	-14549
▁fastnesses	-14550
▁floundered	-14551
▁forefinger	-14552
▁foreigners	-14553
▁foundation	-14554
▁fourteenth	-14555
▁gentleness	-14556
▁graciously	-14557
▁greatheart	-14558
▁grievances	-14559
▁grievously	-14560
▁harmlessly	-14561
▁heartening	-14562
▁henceforth	-14563
▁hesitation	-14564
▁homesteads	-14565
▁husbandmen	-14566
▁imitations	-14567
▁impatience	-14568
▁impression	-14569
▁inadequate	-14570
▁increasing	-14571
▁indisposed	-14572
▁inevitably	-14573
▁interwoven	-14574
▁kingfisher	-14575
▁leechcraft	-14576
▁likenesses	-14577
▁linguistic	-14578
▁manuscript	-14579
▁misfortune	-14580
▁misgivings	-14581
▁nightshade	-14582
▁overlapped	-14583
▁peacefully	-14584
▁perilously	-14585
▁personally	-14586
▁plundering	-14587
▁positively	-14588
▁possessing	-14589
▁possession	-14590
▁pretending	-14591
▁profitable	-14592
▁protruding	-14593
▁quarrelled	-14594
▁reasonable	-14595
▁references	-14596
▁reflecting	-14597
▁remarkably	-14598
▁retreating	-14599
▁scratching	-14600
▁settlement	-14601
▁shattering	-14602
▁sheltering	-14603
▁shouldered	-14604
▁smothering	-14605
▁snivelling	-14606
▁sorrowless	-14607
▁southerner	-14608
▁speechless	-14609
▁splendidly	-14610
▁springtime	-14611
▁squandered	-14612
▁staggering	-14613
▁straggling	-14614
▁straighter	-14615
▁successful	-14616
▁sufficient	-14617
▁suspicions	-14618
▁throttling	-14619
▁throughout	-14620
▁tormenting	-14621
▁traditions	-14622
▁trapessing	-14623
▁trumpeters	-14624
▁trumpeting	-14625
▁unbearably	-14626
▁unchanging	-14627
▁undeserved	-14628
▁unforeseen	-14629
▁unheralded	-14630
▁unlabelled	-14631
▁unslinging	-14632
▁vanquished	-14633
▁wanderings	-14634
▁weaponless	-14635
Translations	-14636
▁Brockhouses	-14637
▁Desperately	-14638
▁Dunlendings	-14639
▁Dwarrowdelf	-14640
▁Fortunately	-14641
▁Greenfields	-14642
▁Heathertoes	-14643
▁Nargothrond	-14644
▁Necromancer	-14645
▁Oakenshield	-14646
▁Smallburrow	-14647
▁Undertowers	-14648
▁Wellinghall	-14649
▁acknowledge	-14650
▁allegorical	-14651
▁appearances	-14652
▁bewildering	-14653
▁bewitchment	-14654
▁blindfolded	-14655
▁celebration	-14656
▁challenging	-14657
▁comfortably	-14658
▁comfortless	-14659
▁concealment	-14660
▁constrained	-14661
▁courteously	-14662
▁dangerously	-14663
▁discourtesy	-14664
▁discussions	-14665
▁dishevelled	-14666
▁dishonoured	-14667
▁disquieting	-14668
▁distrustful	-14669
▁disturbance	-14670
▁doorwardens	-14671
▁exceptional	-14672
▁foretelling	-14673
▁frantically	-14674
▁gatekeepers	-14675
▁grandfather	-14676
▁incantation	-14677
▁independent	-14678
▁inscription	-14679
▁inspiration	-14680
▁instruction	-14681
▁interlacing	-14682
▁intolerable	-14683
▁lamentation	-14684
▁longfathers	-14685
▁measurement	-14686
▁multiplying	-14687
▁ninnyhammer	-14688
▁obstinately	-14689
▁opportunity	-14690
▁permanently	-14691
▁searchingly	-14692
▁significant	-14693
▁soundlessly	-14694
▁stewardship	-14695
▁straightway	-14696
▁surrendered	-14697
▁surrounding	-14698
▁unceasingly	-14699
▁uncertainly	-14700
▁uncertainty	-14701
▁unconquered	-14702
▁unravelling	-14703
▁unsheathing	-14704
▁unwholesome	-14705
▁wakefulness	-14706
▁withdrawing	-14707
▁workmanship	-14708
▁Occasionally	-14709
▁Thangorodrim	-14710
▁acknowledged	-14711
▁afterthought	-14712
▁breathlessly	-14713
▁calculations	-14714
▁conspirators	-14715
▁counterfeits	-14716
▁despondently	-14717
▁discomfiture	-14718
▁distribution	-14719
▁estrangement	-14720
▁extinguished	-14721
▁friendliness	-14722
▁genealogical	-14723
▁gentlehobbit	-14724
▁handkerchief	-14725
▁inaccessible	-14726
▁intelligence	-14727
▁northernmost	-14728
▁observations	-14729
▁perplexities	-14730
▁professional	-14731
▁restlessness	-14732
▁southernmost	-14733
▁stouthearted	-14734
▁thunderstorm	-14735
▁unchallenged	-14736
▁unmistakable	-14737
▁unquenchable	-14738
[...]
